{"<pad>":0,"<unk>":1,"<s>":2,"</s>":3,"<mask>":4,"!":5,"\"":6,"#":7,"%":8,"&":9,"'":10,"(":11,")":12,"*":13,"+":14,",":15,"-":16,".":17,"0":18,"1":19,"2":20,"3":21,"4":22,"5":23,"6":24,"7":25,"8":26,"9":27,":":28,";":29,"<":30,"=":31,">":32,"?":33,"@":34,"[":35,"\\":36,"]":37,"^":38,"_":39,"`":40,"a":41,"b":42,"c":43,"d":44,"e":45,"f":46,"g":47,"h":48,"i":49,"j":50,"k":51,"l":52,"m":53,"n":54,"o":55,"p":56,"q":57,"r":58,"s":59,"t":60,"u":61,"v":62,"w":63,"x":64,"y":65,"z":66,"{":67,"|":68,"}":69,"~":70,"°":71,"¹":72,"×":73,"à":74,"á":75,"â":76,"ã":77,"è":78,"é":79,"ê":80,"ì":81,"í":82,"ò":83,"ó":84,"ô":85,"õ":86,"÷":87,"ù":88,"ú":89,"ý":90,"ă":91,"đ":92,"ě":93,"ĩ":94,"ő":95,"ũ":96,"ū":97,"ơ":98,"ư":99,"̀":100,"́":101,"̃":102,"̉":103,"̣":104,"ạ":105,"ả":106,"ấ":107,"ầ":108,"ẩ":109,"ẫ":110,"ậ":111,"ắ":112,"ằ":113,"ẳ":114,"ẵ":115,"ặ":116,"ẹ":117,"ẻ":118,"ẽ":119,"ế":120,"ề":121,"ể":122,"ễ":123,"ệ":124,"ỉ":125,"ị":126,"ọ":127,"ỏ":128,"ố":129,"ồ":130,"ổ":131,"ỗ":132,"ộ":133,"ớ":134,"ờ":135,"ở":136,"ỡ":137,"ợ":138,"ụ":139,"ủ":140,"ứ":141,"ừ":142,"ử":143,"ữ":144,"ự":145,"ỳ":146,"ỵ":147,"ỷ":148,"ỹ":149,"–":150,"’":151,"•":152,"₫":153,"∆":154,"√":155,"☆":156,"☹":157,"☺":158,"♥":159,"✋":160,"✓":161,"❤":162,"⬆":163,"⭐":164,"。":165,"️":166,"￲":167,"🆗":168,"🇳":169,"🇻":170,"🎧":171,"🎮":172,"🏻":173,"🐃":174,"👌":175,"👍":176,"👏":177,"👹":178,"💓":179,"💔":180,"💖":181,"💙":182,"💪":183,"💯":184,"💴":185,"📱":186,"📸":187,"🔋":188,"😀":189,"😁":190,"😂":191,"😃":192,"😄":193,"😅":194,"😆":195,"😈":196,"😉":197,"😊":198,"😋":199,"😌":200,"😍":201,"😎":202,"😏":203,"😐":204,"😑":205,"😒":206,"😔":207,"😗":208,"😘":209,"😙":210,"😚":211,"😝":212,"😞":213,"😟":214,"😠":215,"😡":216,"😢":217,"😣":218,"😥":219,"😩":220,"😪":221,"😬":222,"😭":223,"😰":224,"😵":225,"😶":226,"😷":227,"🙁":228,"🙂":229,"🙄":230,"🙆":231,"🤒":232,"🤔":233,"🤗":234,"🤣":235,"🤤":236,"🤦":237,"🤧":238,"🤨":239,"🤩":240,"🤪":241,"🤬":242,"🤮":243,"🤳":244,"🥰":245,"🥴":246,"🥵":247,"t</w>":248,"e</w>":249,"c</w>":250,"p</w>":251,"n</w>":252,"g</w>":253,"r</w>":254,"i</w>":255,"m</w>":256,"̣</w>":257,"😂</w>":258,"k</w>":259,"u</w>":260,"l</w>":261,"a</w>":262,"j</w>":263,"o</w>":264,"0</w>":265,"̀</w>":266,"ủ</w>":267,"ô</w>":268,"5</w>":269,"d</w>":270,"₫</w>":271,"y</w>":272,"v</w>":273,"2</w>":274,"1</w>":275,"6</w>":276,"s</w>":277,"ó</w>":278,"ờ</w>":279,"ẻ</w>":280,"h</w>":281,"🤧</w>":282,"😋</w>":283,"w</w>":284,"^</w>":285,"3</w>":286,"́</w>":287,"x</w>":288,"b</w>":289,"ế</w>":290,"ỉ</w>":291,"ê</w>":292,"8</w>":293,"🤣</w>":294,"👌</w>":295,"4</w>":296,"ồ</w>":297,"ã</w>":298,"￲</w>":299,"ự</w>":300,"ò</w>":301,"7</w>":302,"̉</w>":303,"ữ</w>":304,"í</w>":305,";</w>":306,"ễ</w>":307,"à</w>":308,"☺</w>":309,"😞</w>":310,"q</w>":311,"ợ</w>":312,"😝</w>":313,"ú</w>":314,"ỷ</w>":315,"😡</w>":316,"ừ</w>":317,"ỳ</w>":318,"ơ</w>":319,"😩</w>":320,"ổ</w>":321,"ị</w>":322,"ử</w>":323,"ả</w>":324,"z</w>":325,"á</w>":326,"9</w>":327,"_</w>":328,"ọ</w>":329,"ể</w>":330,"ỏ</w>":331,"ă</w>":332,"ỡ</w>":333,"f</w>":334,"🙂</w>":335,"💴</w>":336,"ỗ</w>":337,"😁</w>":338,"ề</w>":339,"é</w>":340,"+</w>":341,"ạ</w>":342,"ụ</w>":343,"â</w>":344,"ẽ</w>":345,"ứ</w>":346,"😏</w>":347,"🎧</w>":348,",</w>":349,"ý</w>":350,"😃</w>":351,"🤪</w>":352,"õ</w>":353,"ệ</w>":354,"😅</w>":355,"%</w>":356,"̃</w>":357,"ộ</w>":358,"👍</w>":359,"ở</w>":360,"️</w>":361,"è</w>":362,"ũ</w>":363,"✋</w>":364,"ĩ</w>":365,"ớ</w>":366,"😥</w>":367,"😊</w>":368,"✓</w>":369,"ỹ</w>":370,"ố</w>":371,"🤦</w>":372,"<</w>":373,"😘</w>":374,"ì</w>":375,"😉</w>":376,"ù</w>":377,"❤</w>":378,".</w>":379,"😷</w>":380,"😎</w>":381,"ư</w>":382,"{</w>":383,"?</w>":384,"💙</w>":385,"ỵ</w>":386,"😬</w>":387,"🤤</w>":388,"。</w>":389,"♥</w>":390,"☆</w>":391,"đ</w>":392,"ấ</w>":393,"~</w>":394,"🤩</w>":395,"🤗</w>":396,"]</w>":397,"💖</w>":398,"!</w>":399,"🙄</w>":400,"😟</w>":401,"😔</w>":402,"∆</w>":403,"😀</w>":404,"•</w>":405,"’</w>":406,"🇻</w>":407,"\\</w>":408,"`</w>":409,"☹</w>":410,"🐃</w>":411,"*</w>":412,"#</w>":413,"📸</w>":414,"🥰</w>":415,"😑</w>":416,"💔</w>":417,"&</w>":418,":</w>":419,"ẹ</w>":420,"@</w>":421,"😆</w>":422,"🤨</w>":423,"🥵</w>":424,"📱</w>":425,"}</w>":426,"😶</w>":427,"😙</w>":428,"🤮</w>":429,"></w>":430,"😭</w>":431,"🤔</w>":432,")</w>":433,"😪</w>":434,"🏻</w>":435,"🥴</w>":436,"|</w>":437,"\"</w>":438,"😐</w>":439,"😠</w>":440,"=</w>":441,"🎮</w>":442,"😵</w>":443,"💓</w>":444,"ě</w>":445,"💯</w>":446,"🙁</w>":447,"🔋</w>":448,"😣</w>":449,"√</w>":450,"👏</w>":451,"(</w>":452,"🇳</w>":453,"😍</w>":454,"-</w>":455,"⬆</w>":456,"😢</w>":457,"😌</w>":458,"ẵ</w>":459,"'</w>":460,"😗</w>":461,"💪</w>":462,"😚</w>":463,"🤳</w>":464,"🤬</w>":465,"😈</w>":466,"⭐</w>":467,"🆗</w>":468,"🙆</w>":469,"–</w>":470,"😄</w>":471,"😒</w>":472,"🤒</w>":473,"😰</w>":474,"👹</w>":475,"°</w>":476,"[</w>":477,"ng</w>":478,"th":479,"ch":480,"nh":481,"nh</w>":482,"kh":483,"ình</w>":484,"ông</w>":485,"tr":486,"không</w>":487,"má":488,"ượ":489,"máy</w>":490,"ng":491,"ất</w>":492,"ua</w>":493,"in</w>":494,"gi":495,"ph":496,"ên</w>":497,"pin</w>":498,"iệ":499,"mua</w>":500,"am":501,"ới</w>":502,"thì</w>":503,"rất</w>":504,"ược</w>":505,"được</w>":506,"ơi</w>":507,"ày</w>":508,"ài</w>":509,"qu":510,"có</w>":511,"ân</w>":512,"là</w>":513,"ay</w>":514,"ại</w>":515,"mình</w>":516,"tố":517,"hình</w>":518,"ùng</w>":519,"sa":520,"ok</w>":521,"ấy</w>":522,"iế":523,"ra</w>":524,"mới</w>":525,"âu</w>":526,"anh</w>":527,"gam":528,"ưng</w>":529,"game</w>":530,"dùng</w>":531,"tốt</w>":532,"giá</w>":533,"chơi</w>":534,"iên</w>":535,"mà</w>":536,"sài</w>":537,"on</w>":538,"nó":539,"tu":540,"quá</w>":541,"cá":542,"iề":543,"ung</w>":544,"ần</w>":545,"bị</w>":546,"nhưng</w>":547,"àn</w>":548,"ẹp</w>":549,"áng</w>":550,"đẹp</w>":551,"ong</w>":552,"ạc</w>":553,"này</w>":554,"ản</w>":555,"ượt</w>":556,"mượt</w>":557,"và</w>":558,"nhanh</w>":559,"ầm</w>":560,"ổn</w>":561,"ời</w>":562,"sạc</w>":563,"iện</w>":564,"em</w>":565,"thấy</w>":566,"re":567,"cam":568,"ũng</w>":569,"cũng</w>":570,"ảm</w>":571,"lại</w>":572,"ngày</w>":573,"came":574,"ải</w>":575,"camera</w>":576,"ật</w>":577,"ơn</w>":578,"màn</w>":579,"ọi</w>":580,"òn</w>":581,"chụ":582,"còn</w>":583,"chụp</w>":584,"ụng</w>":585,"dụng</w>":586,"ỗi</w>":587,"nói</w>":588,"như</w>":589,"ồi</w>":590,"cảm</w>":591,"sản</w>":592,"iều</w>":593,"trâu</w>":594,"khi</w>":595,"tầm</w>":596,"ẩm</w>":597,"ngh":598,"phẩm</w>":599,"hơn</w>":600,"với</w>":601,"ot</w>":602,"ree":603,"cho</w>":604,"nên</w>":605,"về</w>":606,"three":607,"dot</w>":608,"threedot</w>":609,"ướ":610,"ào</w>":611,"viên</w>":612,"nhân</w>":613,"iệt</w>":614,"ết</w>":615,"iệu</w>":616,"ch</w>":617,"ứng</w>":618,"trong</w>":619,"ôi</w>":620,"iết</w>":621,"hơi</w>":622,"rồi</w>":623,"úc</w>":624,"chỉ</w>":625,"ận</w>":626,"lỗi</w>":627,"tho":628,"khá</w>":629,"tay</w>":630,"ắt</w>":631,"sao</w>":632,"lu":633,"ác</w>":634,"ma":635,"ca":636,"la":637,"sử</w>":638,"mọi</w>":639,"tháng</w>":640,"đã</w>":641,"tình</w>":642,"gì</w>":643,"ạy</w>":644,"hay</w>":645,"lúc</w>":646,"hà":647,"chung</w>":648,"để</w>":649,"lo":650,"cái</w>":651,"con</w>":652,"nhiều</w>":653,"sau</w>":654,"ôn</w>":655,"điện</w>":656,"ac":657,"phải</w>":658,"ưa</w>":659,"ẫn</w>":660,"òng</w>":661,"hết</w>":662,"ắm</w>":663,"giờ</w>":664,"ủa</w>":665,"nhiệt</w>":666,"vân</w>":667,"ngon</w>":668,"lâu</w>":669,"iể":670,"của</w>":671,"nghe</w>":672,"vẫn</w>":673,"thoại</w>":674,"ảnh</w>":675,"ấu</w>":676,"ai</w>":677,"ngư":678,"các</w>":679,"chưa</w>":680,"nóng</w>":681,"đầ":682,"người</w>":683,"ậy</w>":684,"ắc</w>":685,"ếu</w>":686,"10</w>":687,"ột</w>":688,"ục</w>":689,"thứ</w>":690,"ổi</w>":691,"lắm</w>":692,"iền</w>":693,"ực</w>":694,"vậy</w>":695,"cả</w>":696,"luôn</w>":697,"lag</w>":698,"yệ":699,"hàng</w>":700,"nhận</w>":701,"ước</w>":702,"triệu</w>":703,"ạn</w>":704,"liên</w>":705,"mạ":706,"ọng</w>":707,"ữa</w>":708,"ấn</w>":709,"loa</w>":710,"yệt</w>":711,"lên</w>":712,"tệ</w>":713,"fi</w>":714,"nào</w>":715,"nó</w>":716,"ang</w>":717,"nă":718,"án</w>":719,"wi":720,"tuyệt</w>":721,"wifi</w>":722,"tiền</w>":723,"tiế":724,"uố":725,"qua</w>":726,"khác</w>":727,"xem</w>":728,"iê":729,"nữa</w>":730,"thư":731,"ượng</w>":732,"biết</w>":733,"ao</w>":734,"đổi</w>":735,"mấy</w>":736,"ỏi</w>":737,"an</w>":738,"cấu</w>":739,"êm</w>":740,"ờng</w>":741,"dc</w>":742,"ké":743,"ảo</w>":744,"bạn</w>":745,"mặ":746,"lần</w>":747,"ến</w>":748,"đề":749,"đều</w>":750,"vào</w>":751,"ích</w>":752,"sáng</w>":753,"ụt</w>":754,"id":755,"ti":756,"trước</w>":757,"đá":758,"tôi</w>":759,"ập</w>":760,"ừa</w>":761,"vọng</w>":762,"fac":763,"ét</w>":764,"vấn</w>":765,"đơ</w>":766,"ộng</w>":767,"là":768,"đt</w>":769,"uy":770,"ức</w>":771,"nhạy</w>":772,"tuần</w>":773,"ho":774,"độ</w>":775,"ạm</w>":776,"kém</w>":777,"lòng</w>":778,"đến</w>":779,"vụ</w>":780,"thôi</w>":781,"eo</w>":782,"óng</w>":783,"gọi</w>":784,"ảng</w>":785,"tg":786,"vừa</w>":787,"thất</w>":788,"thích</w>":789,"hài</w>":790,"tụt</w>":791,"iến</w>":792,"chạy</w>":793,"ôm</w>":794,"quân</w>":795,"bắt</w>":796,"từ</w>":797,"on":798,"làm</w>":799,"vời</w>":800,"giật</w>":801,"im</w>":802,"một</w>":803,"no":804,"tgd</w>":805,"hôm</w>":806,"đầu</w>":807,"mi":808,"ây</w>":809,"thiết</w>":810,"sung</w>":811,"cao</w>":812,"lượng</w>":813,"cực</w>":814,"phục</w>":815,"năng</w>":816,"đị":817,"út</w>":818,"iệm</w>":819,"thường</w>":820,"ướt</w>":821,"yếu</w>":822,"ính</w>":823,"nhất</w>":824,"tư</w>":825,"động</w>":826,"đang</w>":827,"định</w>":828,"bình</w>":829,"tạm</w>":830,"kế</w>":831,"đáng</w>":832,"âm</w>":833,"cam</w>":834,"iểm</w>":835,"so</w>":836,"vì</w>":837,"ối</w>":838,"mở</w>":839,"am</w>":840,"lướt</w>":841,"sóng</w>":842,"ậm</w>":843,"bảo</w>":844,"đi</w>":845,"thế</w>":846,"ươ":847,"thật</w>":848,"20</w>":849,"nét</w>":850,"tự</w>":851,"àu</w>":852,"fr":853,"gần</w>":854,"to</w>":855,"ngo":856,"sam":857,"chê</w>":858,"ồn</w>":859,"samsung</w>":860,"sẽ</w>":861,"chi":862,"dù</w>":863,"ấp</w>":864,"mặt</w>":865,"tắt</w>":866,"mất</w>":867,"tiếng</w>":868,"màu</w>":869,"phon":870,"chậm</w>":871,"đánh</w>":872,"điều</w>":873,"phone</w>":874,"ằng</w>":875,"acti":876,"chất</w>":877,"ợp</w>":878,"phần</w>":879,"mạng</w>":880,"hợp</w>":881,"pp":882,"chán</w>":883,"nếu</w>":884,"bản</w>":885,"uồn</w>":886,"ou":887,"đầy</w>":888,"fracti":889,"fraction</w>":890,"ững</w>":891,"tại</w>":892,"điểm</w>":893,"iểu</w>":894,"mạnh</w>":895,"kho":896,"do</w>":897,"những</w>":898,"cập</w>":899,"sự</w>":900,"we":901,"đó</w>":902,"hiện</w>":903,"cứ</w>":904,"te</w>":905,"iphone</w>":906,"nhật</w>":907,"chip</w>":908,"mi</w>":909,"hỏi</w>":910,"́t</w>":911,"ngoài</w>":912,"bằng</w>":913,"thời</w>":914,"al":915,"mong</w>":916,"opp":917,"ấm</w>":918,"trên</w>":919,"nay</w>":920,"ủng</w>":921,"uyên</w>":922,"thể</w>":923,"iêu</w>":924,"dòng</w>":925,"ki":926,"át</w>":927,"tối</w>":928,"oppo</w>":929,"chứ</w>":930,"muố":931,"óa</w>":932,"muốn</w>":933,"bo":934,"be</w>":935,"hiệu</w>":936,"en</w>":937,"rõ</w>":938,"mỗi</w>":939,"you":940,"ìn</w>":941,"ặng</w>":942,"ặc</w>":943,"50</w>":944,"bật</w>":945,"cầm</w>":946,"sắc</w>":947,"phim</w>":948,"hành</w>":949,"book</w>":950,"nhìn</w>":951,"ebook</w>":952,"facebook</w>":953,"face</w>":954,"vi":955,"youtu":956,"nghiệm</w>":957,"to":958,"vs</w>":959,"số</w>":960,"tới</w>":961,"pu":962,"àng</w>":963,"tuột</w>":964,"youtube</w>":965,"se":966,"sang</w>":967,"ống</w>":968,"bao</w>":969,"biến</w>":970,"ro":971,"nhỏ</w>":972,"dễ</w>":973,"áo</w>":974,"thua</w>":975,"hã":976,"chu":977,"bg</w>":978,"mức</w>":979,"đêm</w>":980,"ửa</w>":981,"ọn</w>":982,"trung</w>":983,"nhẹ</w>":984,"web</w>":985,"ít</w>":986,"trải</w>":987,"đủ</w>":988,"thêm</w>":989,"khỏi</w>":990,"đâu</w>":991,"siêu</w>":992,"tác</w>":993,"ừng</w>":994,"chắc</w>":995,"nhạc</w>":996,"pubg</w>":997,"30</w>":998,"tin</w>":999,"chế</w>":1000,"co":1001,"li":1002,"ui</w>":1003,"xi":1004,"ăn</w>":1005,"úng</w>":1006,"khó</w>":1007,"cùng</w>":1008,"ỉnh</w>":1009,"việt</w>":1010,"ắn</w>":1011,"uống</w>":1012,"nguồn</w>":1013,"khoảng</w>":1014,"bên</w>":1015,"đây</w>":1016,"te":1017,"vài</w>":1018,"gian</w>":1019,"báo</w>":1020,"xuống</w>":1021,"tuy</w>":1022,"ồng</w>":1023,"tất</w>":1024,"vid":1025,"note</w>":1026,"ương</w>":1027,"cần</w>":1028,"ro</w>":1029,"le</w>":1030,"tục</w>":1031,"ọc</w>":1032,"nhé</w>":1033,"hãng</w>":1034,"cu":1035,"rẻ</w>":1036,"video</w>":1037,"năm</w>":1038,"alo</w>":1039,"bàn</w>":1040,"hộ</w>":1041,"mờ</w>":1042,"zalo</w>":1043,"nha</w>":1044,"an":1045,"ao":1046,"kết</w>":1047,"ạt</w>":1048,"90</w>":1049,"ịu</w>":1050,"trợ</w>":1051,"ội</w>":1052,"cách</w>":1053,"ầu</w>":1054,"ỏe</w>":1055,"khỏe</w>":1056,"phân</w>":1057,"mar":1058,"tính</w>":1059,"diện</w>":1060,"lấy</w>":1061,"chịu</w>":1062,"bỏ</w>":1063,"du":1064,"gh":1065,"smar":1066,"khu":1067,"trả</w>":1068,"aomi</w>":1069,"vô</w>":1070,"đúng</w>":1071,"theo</w>":1072,"trừ</w>":1073,"giảm</w>":1074,"ớn</w>":1075,"mặc</w>":1076,"xong</w>":1077,"lưng</w>":1078,"ền</w>":1079,"nhiên</w>":1080,"lý</w>":1081,"quay</w>":1082,"lớn</w>":1083,"me</w>":1084,"thanh</w>":1085,"xiaomi</w>":1086,"ành</w>":1087,"ách</w>":1088,"đồng</w>":1089,"tai</w>":1090,"the":1091,"gio":1092,"pro</w>":1093,"bán</w>":1094,"xấu</w>":1095,"ram</w>":1096,"ăng</w>":1097,"idong</w>":1098,"ididong</w>":1099,"gioididong</w>":1100,"à":1101,"ãi</w>":1102,"thegioididong</w>":1103,"nặng</w>":1104,"giới</w>":1105,"dung</w>":1106,"khuôn</w>":1107,"́y</w>":1108,"ợi</w>":1109,"khóa</w>":1110,"smart</w>":1111,"phí":1112,"sai</w>":1113,"00</w>":1114,"di</w>":1115,"hao</w>":1116,"ưu</w>":1117,"thử</w>":1118,"gb</w>":1119,"kiểu</w>":1120,"chiến</w>":1121,"fi":1122,"le":1123,"hỗ</w>":1124,"ởi</w>":1125,"chút</w>":1126,"cáo</w>":1127,"ộc</w>":1128,"chọn</w>":1129,"thươ":1130,"vẻ</w>":1131,"đề</w>":1132,"́i</w>":1133,"ặt</w>":1134,"mau</w>":1135,"hiểu</w>":1136,"̣c</w>":1137,"quảng</w>":1138,"cầu</w>":1139,"nam</w>":1140,"êu</w>":1141,"ựa</w>":1142,"khuyên</w>":1143,"kia</w>":1144,"ánh</w>":1145,"thiện</w>":1146,"nhà</w>":1147,"cài</w>":1148,"go":1149,"mề":1150,"tí</w>":1151,"̀nh</w>":1152,"̣t</w>":1153,"max</w>":1154,"mềm</w>":1155,"mắt</w>":1156,"vsmart</w>":1157,"ái</w>":1158,"thương</w>":1159,"hi":1160,"vo</w>":1161,"xanh</w>":1162,"ngay</w>":1163,"hồi</w>":1164,"thông</w>":1165,"sim</w>":1166,"đem</w>":1167,"thị</w>":1168,"trọng</w>":1169,"bấm</w>":1170,"đa</w>":1171,"phím</w>":1172,"ạng</w>":1173,"biệt</w>":1174,"gó":1175,"uất</w>":1176,"vui</w>":1177,"khắc</w>":1178,"giải</w>":1179,"nhu</w>":1180,"vivo</w>":1181,"công</w>":1182,"me":1183,"òi</w>":1184,"15</w>":1185,"fu":1186,"a7":1187,"tượng</w>":1188,"đứng</w>":1189,"ường</w>":1190,"chính</w>":1191,"khởi</w>":1192,"dro":1193,"nối</w>":1194,"đừng</w>":1195,"plu":1196,"tâm</w>":1197,"ất</w>":1198,"ốp</w>":1199,"mang</w>":1200,"plus</w>":1201,"đối</w>":1202,"đặc</w>":1203,"chiế":1204,"hoặc</w>":1205,"12</w>":1206,"st</w>":1207,"andro":1208,"smi":1209,"phù</w>":1210,"việ":1211,"ảy</w>":1212,"chu</w>":1213,"cũ</w>":1214,"thân</w>":1215,"việc</w>":1216,"đợi</w>":1217,"đặt</w>":1218,"ap</w>":1219,"dm":1220,"20":1221,"bộ</w>":1222,"hối</w>":1223,"kì</w>":1224,"thực</w>":1225,"khách</w>":1226,"phút</w>":1227,"nghĩ</w>":1228,"tiếc</w>":1229,"đáo</w>":1230,"buồn</w>":1231,"hd</w>":1232,"ps</w>":1233,"xuất</w>":1234,"đen</w>":1235,"red":1236,"̀n</w>":1237,"id</w>":1238,"tải</w>":1239,"tận</w>":1240,"́ng</w>":1241,"thấp</w>":1242,"khủng</w>":1243,"máy</w>":1244,"mo":1245,"chiếc</w>":1246,"phát</w>":1247,"iển</w>":1248,"40</w>":1249,"bi":1250,"hận</w>":1251,"ẩn</w>":1252,"ỏng</w>":1253,"chuy":1254,"nhớ</w>":1255,"ướng</w>":1256,"đôi</w>":1257,"thi":1258,"á</w>":1259,"bền</w>":1260,"cơ</w>":1261,"tội</w>":1262,"chức</w>":1263,"khúc</w>":1264,"toàn</w>":1265,"đồ</w>":1266,"đòi</w>":1267,"goo":1268,"er</w>":1269,"tiết</w>":1270,"̣ng</w>":1271,"tui</w>":1272,"cấp</w>":1273,"tú":1274,"ạch</w>":1275,"kinh</w>":1276,"̀i</w>":1277,"ển</w>":1278,"nhiệm</w>":1279,"test</w>":1280,"redmi</w>":1281,"hu":1282,"tặng</w>":1283,"trạng</w>":1284,"leface</w>":1285,"smileface</w>":1286,"đọc</w>":1287,"tra</w>":1288,"chuyển</w>":1289,"60</w>":1290,"dài</w>":1291,"rè</w>":1292,"ưới</w>":1293,"́c</w>":1294,"̣p</w>":1295,"thu":1296,"giác</w>":1297,"tiếp</w>":1298,"fps</w>":1299,"tiện</w>":1300,"íu</w>":1301,"thi</w>":1302,"mái</w>":1303,"thoảng</w>":1304,"cuộc</w>":1305,"xứng</w>":1306,"chấp</w>":1307,"tư":1308,"ám</w>":1309,"thành</w>":1310,"túi</w>":1311,"tiên</w>":1312,"tương</w>":1313,"chị</w>":1314,"chi</w>":1315,"nhắn</w>":1316,"android</w>":1317,"dán</w>":1318,"dưới</w>":1319,"hai</w>":1320,"ới</w>":1321,"ởng</w>":1322,"càng</w>":1323,"nổi</w>":1324,"th</w>":1325,"xa</w>":1326,"xíu</w>":1327,"đươ":1328,"nhảy</w>":1329,"quan</w>":1330,"iêng</w>":1331,"coi</w>":1332,"ful</w>":1333,"51</w>":1334,"ban</w>":1335,"bây</w>":1336,"oi</w>":1337,"giống</w>":1338,"loạn</w>":1339,"bất</w>":1340,"xóa</w>":1341,"thay</w>":1342,"real":1343,"thoải</w>":1344,"̀ng</w>":1345,"ẳng</w>":1346,"giao</w>":1347,"ả":1348,"loại</w>":1349,"hệ</w>":1350,"lầm</w>":1351,"hoàn</w>":1352,"a70</w>":1353,"cửa</w>":1354,"viền</w>":1355,"chỉnh</w>":1356,"mah</w>":1357,"realme</w>":1358,"a51</w>":1359,"inh</w>":1360,"kính</w>":1361,"rất</w>":1362,"cân</w>":1363,"riêng</w>":1364,"ặp</w>":1365,"chả</w>":1366,"chạm</w>":1367,"a50</w>":1368,"hiển</w>":1369,"kêu</w>":1370,"úp</w>":1371,"ạo</w>":1372,"ắng</w>":1373,"nha":1374,"trang</w>":1375,"iếu</w>":1376,"blu":1377,"bực</w>":1378,"may</w>":1379,"chờ</w>":1380,"too":1381,"19</w>":1382,"lo</w>":1383,"nút</w>":1384,"os</w>":1385,"xin</w>":1386,"ớt</w>":1387,"sam</w>":1388,"blue":1389,"mãi</w>":1390,"̣i</w>":1391,"ắp</w>":1392,"mes":1393,"bluetoo":1394,"ve</w>":1395,"chỗ</w>":1396,"at</w>":1397,"họ":1398,"xét</w>":1399,"minh</w>":1400,"gọn</w>":1401,"gặp</w>":1402,"re</w>":1403,"chữ</w>":1404,"chiều</w>":1405,"nhỉ</w>":1406,"bluetooth</w>":1407,"cục</w>":1408,"tó":1409,"ốc</w>":1410,"quy":1411,"uốt</w>":1412,"adm":1413,"ko</w>":1414,"kiểm</w>":1415,"tù":1416,"̣n</w>":1417,"ịch</w>":1418,"thì</w>":1419,"được</w>":1420,"admin</w>":1421,"chân</w>":1422,"seng":1423,"họa</w>":1424,"000</w>":1425,"bác</w>":1426,"mp</w>":1427,"pd":1428,"su":1429,"óc</w>":1430,"đa":1431,"giúp</w>":1432,"ngoại</w>":1433,"lí</w>":1434,"nửa</w>":1435,"sn":1436,"tô":1437,"đấy</w>":1438,"ổng</w>":1439,"tóm</w>":1440,"senger</w>":1441,"bu":1442,"lời</w>":1443,"rung</w>":1444,"thỉnh</w>":1445,"thiếu</w>":1446,"nhựa</w>":1447,"phụ</w>":1448,"hoạt</w>":1449,"kỳ</w>":1450,"ầy</w>":1451,"phản</w>":1452,"nokia</w>":1453,"cải</w>":1454,"sửa</w>":1455,"xử</w>":1456,"ăm</w>":1457,"thao</w>":1458,"trời</w>":1459,"goog":1460,"64</w>":1461,"nước</w>":1462,"ta</w>":1463,"vàng</w>":1464,"âng</w>":1465,"ửi</w>":1466,"khuy":1467,"góp</w>":1468,"messenger</w>":1469,"google</w>":1470,"990</w>":1471,"trí</w>":1472,"phí</w>":1473,"wei</w>":1474,"hình</w>":1475,"góc</w>":1476,"củ</w>":1477,"gửi</w>":1478,"ip":1479,"yêu</w>":1480,"̉m</w>":1481,"ẫu</w>":1482,"chẳng</w>":1483,"nhược</w>":1484,"nhắc</w>":1485,"hua":1486,"cắm</w>":1487,"èm</w>":1488,"đe":1489,"treo</w>":1490,"chuẩn</w>":1491,"quyết</w>":1492,"huawei</w>":1493,"80</w>":1494,"ga":1495,"mẫu</w>":1496,"rộng</w>":1497,"xuyên</w>":1498,"ờn</w>":1499,"tưởng</w>":1500,"bò</w>":1501,"ha":1502,"hi</w>":1503,"jo":1504,"mã</w>":1505,"ớm</w>":1506,"thoát</w>":1507,"ày</w>":1508,"kể</w>":1509,"ta":1510,"ìm</w>":1511,"ẳn</w>":1512,"nguyên</w>":1513,"phòng</w>":1514,"tốc</w>":1515,"16</w>":1516,"bt</w>":1517,"câ":1518,"hẳn</w>":1519,"lưu</w>":1520,"xy</w>":1521,"ộp</w>":1522,"thái</w>":1523,"chủ</w>":1524,"chập</w>":1525,"trắng</w>":1526,"ting</w>":1527,"đáp</w>":1528,"kèm</w>":1529,"lồi</w>":1530,"mật</w>":1531,"nản</w>":1532,"nâng</w>":1533,"sợ</w>":1534,"sinh</w>":1535,"thu</w>":1536,"phông</w>":1537,"mình</w>":1538,"ghi</w>":1539,"ài</w>":1540,"32</w>":1541,"bù</w>":1542,"di":1543,"hộp</w>":1544,"kh</w>":1545,"kỹ</w>":1546,"rớt</w>":1547,"sướng</w>":1548,"vo":1549,"vạch</w>":1550,"yên</w>":1551,"́n</w>":1552,"tung</w>":1553,"cal</w>":1554,"set":1555,"mobi":1556,"tốt</w>":1557,"mỏng</w>":1558,"sớm</w>":1559,"̉n</w>":1560,"chống</w>":1561,"choi</w>":1562,"ngang</w>":1563,"là</w>":1564,"laxy</w>":1565,"ghê</w>":1566,"13</w>":1567,"18</w>":1568,"ad</w>":1569,"bé</w>":1570,"kg</w>":1571,"lựa</w>":1572,"ra":1573,"sống</w>":1574,"ạnh</w>":1575,"nhạt</w>":1576,"mát</w>":1577,"phê</w>":1578,"galaxy</w>":1579,"28</w>":1580,"hư</w>":1581,"kiệm</w>":1582,"tìm</w>":1583,"̀m</w>":1584,"chờn</w>":1585,"quả</w>":1586,"tốn</w>":1587,"yện</w>":1588,"fire</w>":1589,"hề</w>":1590,"j7</w>":1591,"mu":1592,"va</w>":1593,"òe</w>":1594,"ùi</w>":1595,"ợt</w>":1596,"lin":1597,"setting</w>":1598,"mobile</w>":1599,"hướng</w>":1600,"ios</w>":1601,"lực</w>":1602,"mx</w>":1603,"mới</w>":1604,"no</w>":1605,"sho":1606,"văng</w>":1607,"thâ":1608,"trình</w>":1609,"fre</w>":1610,"cường</w>":1611,"dáng</w>":1612,"kiến</w>":1613,"liệu</w>":1614,"rư":1615,"từng</w>":1616,"đời</w>":1617,"đmx</w>":1618,"ứt</w>":1619,"quá</w>":1620,"uối</w>":1621,"có</w>":1622,"2020</w>":1623,"tùy</w>":1624,"la</w>":1625,"đỉnh</w>":1626,"ốt</w>":1627,"chs</w>":1628,"dịch</w>":1629,"kiện</w>":1630,"lay</w>":1631,"mẹ</w>":1632,"nt":1633,"sánh</w>":1634,"̃ng</w>":1635,"ịn</w>":1636,"ỡi</w>":1637,"nhập</w>":1638,"nhòe</w>":1639,"trở</w>":1640,"khoản</w>":1641,"a71</w>":1642,"rưỡi</w>":1643,"ba</w>":1644,"dành</w>":1645,"lung</w>":1646,"oc</w>":1647,"ón</w>":1648,"́u</w>":1649,"gia</w>":1650,"mà</w>":1651,"chuông</w>":1652,"nhau</w>":1653,"line</w>":1654,"shop</w>":1655,"48</w>":1656,"cùi</w>":1657,"hảo</w>":1658,"học</w>":1659,"èn</w>":1660,"giá</w>":1661,"luận</w>":1662,"hoi</w>":1663,"hoài</w>":1664,"lite</w>":1665,"duy</w>":1666,"dmx</w>":1667,"dự</w>":1668,"dẫn</w>":1669,"ma</w>":1670,"vỡ</w>":1671,"xước</w>":1672,"đập</w>":1673,"̀u</w>":1674,"thẻ</w>":1675,"trầy</w>":1676,"quốc</w>":1677,"reno</w>":1678,"nghệ</w>":1679,"mik</w>":1680,"miui</w>":1681,"128</w>":1682,"500</w>":1683,"bát</w>":1684,"gạo</w>":1685,"om</w>":1686,"vãi</w>":1687,"thiệu</w>":1688,"phiên</w>":1689,"đẹp</w>":1690,"cứng</w>":1691,"fan</w>":1692,"kĩ</w>":1693,"tha":1694,"lành</w>":1695,"fie</w>":1696,"thuật</w>":1697,"rơi</w>":1698,"upd":1699,"va":1700,"văn</w>":1701,"xo":1702,"đắt</w>":1703,"ệt</w>":1704,"trường</w>":1705,"good</w>":1706,"ate</w>":1707,"cận</w>":1708,"lfie</w>":1709,"mươ":1710,"nt</w>":1711,"nền</w>":1712,"wa</w>":1713,"đô":1714,"̉i</w>":1715,"quần</w>":1716,"vie":1717,"set</w>":1718,"selfie</w>":1719,"live</w>":1720,"cuối</w>":1721,"dấu</w>":1722,"es</w>":1723,"f1</w>":1724,"hồ</w>":1725,"hỏng</w>":1726,"mắc</w>":1727,"tức</w>":1728,"vuốt</w>":1729,"áy</w>":1730,"ời</w>":1731,"́m</w>":1732,"ễn</w>":1733,"nhiê":1734,"ngầm</w>":1735,"load</w>":1736,"note":1737,"chuyện</w>":1738,"khuyến</w>":1739,"joy</w>":1740,"update</w>":1741,"14</w>":1742,"ar":1743,"app":1744,"co</w>":1745,"cảnh</w>":1746,"dface</w>":1747,"et</w>":1748,"hở</w>":1749,"play</w>":1750,"sụt</w>":1751,"vn</w>":1752,"vị</w>":1753,"với</w>":1754,"xác</w>":1755,"ần</w>":1756,"đường</w>":1757,"đèn</w>":1758,"chai</w>":1759,"chắn</w>":1760,"nhi":1761,"như":1762,"nhấn</w>":1763,"hãy</w>":1764,"buổi</w>":1765,"ntn</w>":1766,"tháng</w>":1767,"24</w>":1768,"a10</w>":1769,"bổ</w>":1770,"gái</w>":1771,"lợi</w>":1772,"miế":1773,"này</w>":1774,"sách</w>":1775,"ty</w>":1776,"tăng</w>":1777,"áp</w>":1778,"òa</w>":1779,"ưởng</w>":1780,"̣y</w>":1781,"chấm</w>":1782,"ngón</w>":1783,"quản</w>":1784,"lai</w>":1785,"online</w>":1786,"mic</w>":1787,"out</w>":1788,"xinh</w>":1789,"cũng</w>":1790,"dùng</w>":1791,"snap</w>":1792,"450</w>":1793,"65</w>":1794,"ba":1795,"cạnh</w>":1796,"hê":1797,"lỗ</w>":1798,"sập</w>":1799,"tế</w>":1800,"tổng</w>":1801,"xịn</w>":1802,"̃i</w>":1803,"ịp</w>":1804,"ựng</w>":1805,"giữ</w>":1806,"phu":1807,"sadface</w>":1808,"dụng</w>":1809,"2019</w>":1810,"sna":1811,"và</w>":1812,"apple</w>":1813,"bóng</w>":1814,"dữ</w>":1815,"lẽ</w>":1816,"mỏi</w>":1817,"ri":1818,"tâ":1819,"xe</w>":1820,"õi</w>":1821,"thủ</w>":1822,"che</w>":1823,"khả</w>":1824,"giây</w>":1825,"quen</w>":1826,"tuy":1827,"lại</w>":1828,"led</w>":1829,"ải</w>":1830,"thấy</w>":1831,"mượt</w>":1832,"miếng</w>":1833,"ns</w>":1834,"nữ</w>":1835,"rút</w>":1836,"sư":1837,"sạt</w>":1838,"uy</w>":1839,"vâ":1840,"nhung</w>":1841,"reset</w>":1842,"chụp</w>":1843,"25</w>":1844,"720</w>":1845,"85</w>":1846,"91</w>":1847,"họ</w>":1848,"hưởng</w>":1849,"lô":1850,"of</w>":1851,"oled</w>":1852,"pi":1853,"tý</w>":1854,"́nh</w>":1855,"̉a</w>":1856,"nhâ":1857,"ngắt</w>":1858,"lum</w>":1859,"màn</w>":1860,"cảm</w>":1861,"nhưg</w>":1862,"snapd":1863,"17</w>":1864,"21</w>":1865,"70</w>":1866,"bữa</w>":1867,"biê":1868,"de":1869,"dở</w>":1870,"tiê":1871,"ồi</w>":1872,"ựt</w>":1873,"thức</w>":1874,"chăm</w>":1875,"nhiêu</w>":1876,"khung</w>":1877,"ngờ</w>":1878,"phàn</w>":1879,"quà</w>":1880,"chục</w>":1881,"kép</w>":1882,"noi</w>":1883,"suy</w>":1884,"dày</w>":1885,"gon</w>":1886,"hy</w>":1887,"hòa</w>":1888,"mh</w>":1889,"nàn</w>":1890,"ru":1891,"ràng</w>":1892,"s20</w>":1893,"suốt</w>":1894,"sóc</w>":1895,"tu</w>":1896,"xã</w>":1897,"xài</w>":1898,"đi":1899,"đưa</w>":1900,"điê":1901,"chuyên</w>":1902,"khựng</w>":1903,"trưa</w>":1904,"nge</w>":1905,"sài</w>":1906,"ragon</w>":1907,"snapdragon</w>":1908,"5000</w>":1909,"bài</w>":1910,"cá</w>":1911,"cố</w>":1912,"câu</w>":1913,"cung</w>":1914,"dạng</w>":1915,"fla":1916,"ke</w>":1917,"mẽ</w>":1918,"nắm</w>":1919,"tí":1920,"tết</w>":1921,"vỏ</w>":1922,"xài</w>":1923,"ât</w>":1924,"ế</w>":1925,"ùa</w>":1926,"đu":1927,"đê":1928,"đợt</w>":1929,"̣m</w>":1930,"ậu</w>":1931,"iệp</w>":1932,"tuổi</w>":1933,"mai</w>":1934,"vin":1935,"rom</w>":1936,"fix</w>":1937,"androi</w>":1938,"11</w>":1939,"98</w>":1940,"a5</w>":1941,"be":1942,"bh</w>":1943,"bố</w>":1944,"cỡ</w>":1945,"de</w>":1946,"ex":1947,"hữ":1948,"iz</w>":1949,"lỡ</w>":1950,"tấm</w>":1951,"ve":1952,"vặt</w>":1953,"ép</w>":1954,"đăng</w>":1955,"ứng</w>":1956,"thống</w>":1957,"khiến</w>":1958,"trăm</w>":1959,"amoled</w>":1960,"sạc</w>":1961,"cám</w>":1962,"tinh</w>":1963,"tel</w>":1964,"bị</w>":1965,"xoay</w>":1966,"tầm</w>":1967,"hữu</w>":1968,"a9</w>":1969,"bắn</w>":1970,"cây</w>":1971,"dây</w>":1972,"dính</w>":1973,"gõ</w>":1974,"hạn</w>":1975,"iu</w>":1976,"mướt</w>":1977,"rồi</w>":1978,"vê":1979,"vá</w>":1980,"ẩm</w>":1981,"đo</w>":1982,"đeo</w>":1983,"ằm</w>":1984,"ẹt</w>":1985,"trận</w>":1986,"ngày</w>":1987,"phải</w>":1988,"iếm</w>":1989,"chup</w>":1990,"của</w>":1991,"tùm</w>":1992,"đã</w>":1993,"ip7</w>":1994,"haiz</w>":1995,"sử</w>":1996,"lỗi</w>":1997,"31</w>":1998,"bắp</w>":1999,"cm":2000,"dưng</w>":2001,"kim</w>":2002,"lươ":2003,"lịch</w>":2004,"mượ":2005,"not</w>":2006,"oom</w>":2007,"sơn</w>":2008,"tả</w>":2009,"tên</w>":2010,"ugh":2011,"vòng</w>":2012,"àm</w>":2013,"ệ</w>":2014,"đo":2015,"đỡ</w>":2016,"đại</w>":2017,"́p</w>":2018,"ọt</w>":2019,"chú</w>":2020,"châu</w>":2021,"chúng</w>":2022,"chương</w>":2023,"khen</w>":2024,"phẩm</w>":2025,"laugh":2026,"tiến</w>":2027,"linh</w>":2028,"laughface</w>":2029,"4000</w>":2030,"do":2031,"dám</w>":2032,"ing</w>":2033,"nọ</w>":2034,"sức</w>":2035,"tập</w>":2036,"tam</w>":2037,"tiêu</w>":2038,"vos</w>":2039,"y19</w>":2040,"zoom</w>":2041,"ẩy</w>":2042,"ớp</w>":2043,"ụi</w>":2044,"than":2045,"chí</w>":2046,"nhu":2047,"nhờ</w>":2048,"ngại</w>":2049,"came</w>":2050,"lúc</w>":2051,"cái</w>":2052,"com":2053,"duty</w>":2054,"phía</w>":2055,"hihi</w>":2056,"khuyết</w>":2057,"hết</w>":2058,"về</w>":2059,"mượn</w>":2060,"10":2061,"ara</w>":2062,"bi</w>":2063,"cư":2064,"cro</w>":2065,"da</w>":2066,"danh</w>":2067,"gi</w>":2068,"gây</w>":2069,"in":2070,"kk":2071,"ks</w>":2072,"liền</w>":2073,"mê</w>":2074,"nơi</w>":2075,"pg</w>":2076,"qá</w>":2077,"si":2078,"sh</w>":2079,"tv</w>":2080,"tài</w>":2081,"tiệm</w>":2082,"tệ</w>":2083,"ul":2084,"up</w>":2085,"vẩn</w>":2086,"ói</w>":2087,"đông</w>":2088,"ẵn</w>":2089,"cha":2090,"trãi</w>":2091,"triển</w>":2092,"phong</w>":2093,"quét</w>":2094,"sản</w>":2095,"camara</w>":2096,"kéo</w>":2097,"nói</w>":2098,"smile</w>":2099,"35</w>":2100,"490</w>":2101,"al</w>":2102,"bút</w>":2103,"ck</w>":2104,"cày</w>":2105,"dù":2106,"dừng</w>":2107,"hạ</w>":2108,"hồng</w>":2109,"kích</w>":2110,"lạ</w>":2111,"long</w>":2112,"mă":2113,"nd":2114,"pri":2115,"rỗ</w>":2116,"sp":2117,"suất</w>":2118,"tồi</w>":2119,"tphone</w>":2120,"vin</w>":2121,"vượt</w>":2122,"xảy</w>":2123,"ãn</w>":2124,"èo</w>":2125,"ếu</w>":2126,"ổn</w>":2127,"đứt</w>":2128,"ẻo</w>":2129,"ụm</w>":2130,"thiê":2131,"cho":2132,"chóng</w>":2133,"nhàng</w>":2134,"nháy</w>":2135,"trò</w>":2136,"tràn</w>":2137,"trai</w>":2138,"giữa</w>":2139,"nghiệp</w>":2140,"active</w>":2141,"row</w>":2142,"duyệt</w>":2143,"ào</w>":2144,"đau</w>":2145,"arrow</w>":2146,"tuyê":2147,"ultra</w>":2148,"120</w>":2149,"ah</w>":2150,"bám</w>":2151,"cong</w>":2152,"fb</w>":2153,"hầu</w>":2154,"hà":2155,"kịp</w>":2156,"lă":2157,"mp":2158,"mục</w>":2159,"nè</w>":2160,"nội</w>":2161,"po":2162,"sơ</w>":2163,"sở</w>":2164,"sắp</w>":2165,"tựa</w>":2166,"viết</w>":2167,"xu":2168,"ót</w>":2169,"điên</w>":2170,"ẩu</w>":2171,"thừa</w>":2172,"ngủ</w>":2173,"cả</w>":2174,"home</w>":2175,"pupg</w>":2176,"smartphone</w>":2177,"hinh</w>":2178,"joy":2179,"tar</w>":2180,"vọng</w>":2181,"prime</w>":2182,"660</w>":2183,"a1</w>":2184,"bà</w>":2185,"bay</w>":2186,"cấn</w>":2187,"cộng</w>":2188,"cổng</w>":2189,"cụm</w>":2190,"dân</w>":2191,"dần</w>":2192,"dương</w>":2193,"dạo</w>":2194,"gấp</w>":2195,"hổ</w>":2196,"hóa</w>":2197,"lát</w>":2198,"nỗi</w>":2199,"pu</w>":2200,"rằng</w>":2201,"rat</w>":2202,"so":2203,"song</w>":2204,"sạch</w>":2205,"sẵn</w>":2206,"tp</w>":2207,"tàu</w>":2208,"wi</w>":2209,"ág</w>":2210,"đung</w>":2211,"đột</w>":2212,"đồn</w>":2213,"đương</w>":2214,"ữ":2215,"̣nh</w>":2216,"thư</w>":2217,"thậm</w>":2218,"chúc</w>":2219,"chảnh</w>":2220,"chăng</w>":2221,"nhợt</w>":2222,"khong</w>":2223,"trái</w>":2224,"phú</w>":2225,"games</w>":2226,"reno":2227,"revie":2228,"nghị</w>":2229,"tình</w>":2230,"chỉ</w>":2231,"ful":2232,"cấu</w>":2233,"nhiều</w>":2234,"exy":2235,"bn</w>":2236,"bể</w>":2237,"bụi</w>":2238,"dàng</w>":2239,"he":2240,"hên</w>":2241,"hụt</w>":2242,"hút</w>":2243,"kiếm</w>":2244,"lừa</w>":2245,"lắp</w>":2246,"ne":2247,"nd</w>":2248,"tok</w>":2249,"vface</w>":2250,"xs</w>":2251,"ún</w>":2252,"đc</w>":2253,"ĩnh</w>":2254,"̣u</w>":2255,"ạp</w>":2256,"ặn</w>":2257,"ốn</w>":2258,"chát</w>":2259,"nhầm</w>":2260,"kha":2261,"khẩu</w>":2262,"trơn</w>":2263,"ngã</w>":2264,"ngồi</w>":2265,"già</w>":2266,"phiền</w>":2267,"tuộc</w>":2268,"tutu</w>":2269,"cáp</w>":2270,"iềm</w>":2271,"lam</w>":2272,"lau</w>":2273,"ack</w>":2274,"người</w>":2275,"nos</w>":2276,"nova</w>":2277,"vien</w>":2278,"roi</w>":2279,"chug</w>":2280,"ghét</w>":2281,"đươc</w>":2282,"sup":2283,"nhiệt</w>":2284,"nhug</w>":2285,"ữa</w>":2286,"exynos</w>":2287,"22":2288,"75</w>":2289,"a30</w>":2290,"a12</w>":2291,"a31</w>":2292,"bat</w>":2293,"c3</w>":2294,"gắn</w>":2295,"hội</w>":2296,"mày</w>":2297,"mùa</w>":2298,"net</w>":2299,"nữa</w>":2300,"og</w>":2301,"pt</w>":2302,"pk</w>":2303,"rỏ</w>":2304,"rực</w>":2305,"se</w>":2306,"s1</w>":2307,"s10</w>":2308,"sát</w>":2309,"shi":2310,"star</w>":2311,"u10</w>":2312,"vi</w>":2313,"vợ</w>":2314,"xung</w>":2315,"xưa</w>":2316,"xai</w>":2317,"y1</w>":2318,"đỏ</w>":2319,"đầm</w>":2320,"thiệt</w>":2321,"thắc</w>":2322,"thang</w>":2323,"tháo</w>":2324,"nhá</w>":2325,"khu</w>":2326,"khá</w>":2327,"trẻ</w>":2328,"trống</w>":2329,"truy</w>":2330,"phan</w>":2331,"nghỉ</w>":2332,"thoa":2333,"man</w>":2334,"tie":2335,"toi</w>":2336,"còn</w>":2337,"antutu</w>":2338,"thuong</w>":2339,"tươi</w>":2340,"ảnh</w>":2341,"vậy</w>":2342,"tín</w>":2343,"spen</w>":2344,"tuyệt</w>":2345,"joy3</w>":2346,"23</w>":2347,"27</w>":2348,"45</w>":2349,"4990</w>":2350,"61</w>":2351,"690</w>":2352,"a91</w>":2353,"bè</w>":2354,"bớt</w>":2355,"cà</w>":2356,"con":2357,"da":2358,"dã</w>":2359,"dậy</w>":2360,"el</w>":2361,"ge":2362,"go</w>":2363,"gam</w>":2364,"hà</w>":2365,"hok</w>":2366,"hiê":2367,"huy":2368,"il</w>":2369,"icon</w>":2370,"ke":2371,"mb</w>":2372,"nc</w>":2373,"na</w>":2374,"nổ</w>":2375,"nắp</w>":2376,"nằm</w>":2377,"pla":2378,"sâu</w>":2379,"ấy</w>":2380,"óp</w>":2381,"đóng</w>":2382,"đắn</w>":2383,"đạt</w>":2384,"ứa</w>":2385,"thánh</w>":2386,"thág</w>":2387,"chua</w>":2388,"chay</w>":2389,"chat</w>":2390,"nhan</w>":2391,"khô":2392,"ngu":2393,"nguy":2394,"giang</w>":2395,"giựt</w>":2396,"quanh</w>":2397,"nghiê":2398,"macro</w>":2399,"các</w>":2400,"lao</w>":2401,"miễn</w>":2402,"thuận</w>":2403,"đep</w>":2404,"viet":2405,"nhận</w>":2406,"để</w>":2407,"cmt</w>":2408,"review</w>":2409,"super</w>":2410,"play":2411,"nguyễn</w>":2412,"665</w>":2413,"790</w>":2414,"92</w>":2415,"au":2416,"a20</w>":2417,"bo</w>":2418,"bá</w>":2419,"bạ</w>":2420,"bức</w>":2421,"bóc</w>":2422,"cua</w>":2423,"cắt</w>":2424,"cột</w>":2425,"fa":2426,"gốc</w>":2427,"hơ":2428,"itel</w>":2429,"km</w>":2430,"kế</w>":2431,"lệ":2432,"mỹ</w>":2433,"mún</w>":2434,"nấy</w>":2435,"nào</w>":2436,"niềm</w>":2437,"sc":2438,"sọc</w>":2439,"uổng</w>":2440,"van</w>":2441,"voi</w>":2442,"vứt</w>":2443,"x2</w>":2444,"éo</w>":2445,"ột</w>":2446,"ắc</w>":2447,"đâ":2448,"đổ</w>":2449,"đất</w>":2450,"đỗi</w>":2451,"đành</w>":2452,"ờ</w>":2453,"ở</w>":2454,"́ch</w>":2455,"ễu</w>":2456,"thò</w>":2457,"thụt</w>":2458,"thất</w>":2459,"chết</w>":2460,"chữa</w>":2461,"nhe</w>":2462,"nhánh</w>":2463,"tru":2464,"trữ</w>":2465,"trễ</w>":2466,"trấn</w>":2467,"gì</w>":2468,"giả</w>":2469,"giọt</w>":2470,"phà</w>":2471,"phóng</w>":2472,"làm</w>":2473,"youto":2474,"lip</w>":2475,"like</w>":2476,"file</w>":2477,"ip1</w>":2478,"note10</w>":2479,"biết</w>":2480,"điện</w>":2481,"thanks</w>":2482,"mặt</w>":2483,"hàng</w>":2484,"mp3</w>":2485,"playful":2486,"youtobe</w>":2487,"11":2488,"13":2489,"4500</w>":2490,"50":2491,"76</w>":2492,"97</w>":2493,"bề</w>":2494,"bạc</w>":2495,"bận</w>":2496,"ce</w>":2497,"ca</w>":2498,"cụ</w>":2499,"căng</w>":2500,"clip</w>":2501,"dt</w>":2502,"dể</w>":2503,"dư</w>":2504,"dõi</w>":2505,"dựt</w>":2506,"ft</w>":2507,"f9</w>":2508,"gd</w>":2509,"gem</w>":2510,"gương</w>":2511,"hd":2512,"lượt</w>":2513,"lẫn</w>":2514,"lòi</w>":2515,"lõi</w>":2516,"mư":2517,"mệt</w>":2518,"ni":2519,"nu":2520,"nứt</w>":2521,"nốt</w>":2522,"qa</w>":2523,"rỡ</w>":2524,"rât</w>":2525,"sx</w>":2526,"tt":2527,"tậu</w>":2528,"vẽ</w>":2529,"vay</w>":2530,"vật</w>":2531,"ván</w>":2532,"vời</w>":2533,"y91</w>":2534,"zing</w>":2535,"đài</w>":2536,"đảm</w>":2537,"đơn</w>":2538,"đụng</w>":2539,"đẳng</w>":2540,"̃n</w>":2541,"ịt</w>":2542,"ỏa</w>":2543,"thần</w>":2544,"tham</w>":2545,"thỏa</w>":2546,"chro":2547,"nhất</w>":2548,"kho</w>":2549,"khăn</w>":2550,"tra":2551,"tru</w>":2552,"trông</w>":2553,"trực</w>":2554,"trội</w>":2555,"trog</w>":2556,"ngược</w>":2557,"giản</w>":2558,"quang</w>":2559,"reen</w>":2560,"mail</w>":2561,"cai</w>":2562,"ace</w>":2563,"hoang</w>":2564,"địch</w>":2565,"kind":2566,"see":2567,"cug</w>":2568,"gọi</w>":2569,"ment</w>":2570,"ảng</w>":2571,"ip6</w>":2572,"vote</w>":2573,"nhiễu</w>":2574,"flash</w>":2575,"lượng</w>":2576,"thiết</w>":2577,"lắm</w>":2578,"ship</w>":2579,"thoại</w>":2580,"confu":2581,"screen</w>":2582,"playfulsmileface</w>":2583,"chrome</w>":2584,"kindsmile</w>":2585,"26</w>":2586,"40":2587,"bởi</w>":2588,"cử</w>":2589,"cấm</w>":2590,"cạch</w>":2591,"cpu</w>":2592,"dụ</w>":2593,"dem</w>":2594,"eu</w>":2595,"gỡ</w>":2596,"hu</w>":2597,"hả</w>":2598,"hông</w>":2599,"hưng</w>":2600,"hằng</w>":2601,"kê</w>":2602,"lệ</w>":2603,"liệt</w>":2604,"ninh</w>":2605,"nếu</w>":2606,"pe</w>":2607,"qtv</w>":2608,"ry</w>":2609,"rệt</w>":2610,"sb</w>":2611,"s8</w>":2612,"sắt</w>":2613,"ty":2614,"tă":2615,"usb</w>":2616,"vượng</w>":2617,"vương</w>":2618,"vội</w>":2619,"xót</w>":2620,"yes</w>":2621,"đình</w>":2622,"độc</w>":2623,"ởi</w>":2624,"̉ng</w>":2625,"̉nh</w>":2626,"ỉu</w>":2627,"ịnh</w>":2628,"ọp</w>":2629,"thà</w>":2630,"thưa</w>":2631,"châ":2632,"chừng</w>":2633,"chplay</w>":2634,"nhe":2635,"khe</w>":2636,"tróc</w>":2637,"ngắn</w>":2638,"phá</w>":2639,"quên</w>":2640,"quài</w>":2641,"tuần</w>":2642,"nghi</w>":2643,"time</w>":2644,"onl</w>":2645,"not":2646,"nóng</w>":2647,"miu":2648,"mih</w>":2649,"ước</w>":2650,"chia</w>":2651,"lien</w>":2652,"2017</w>":2653,"mọi</w>":2654,"thuộc</w>":2655,"nhạy</w>":2656,"tôt</w>":2657,"muot</w>":2658,"động</w>":2659,"bạn</w>":2660,"tiền</w>":2661,"định</w>":2662,"dùg</w>":2663,"tieng</w>":2664,"lệch</w>":2665,"seeyes</w>":2666,"confuseeyes</w>":2667,"100</w>":2668,"710</w>":2669,"730</w>":2670,"96</w>":2671,"ae</w>":2672,"ac</w>":2673,"a21</w>":2674,"a92</w>":2675,"bong</w>":2676,"bai</w>":2677,"bả":2678,"bệt</w>":2679,"cm</w>":2680,"cô</w>":2681,"free":2682,"fpt</w>":2683,"ge</w>":2684,"ga</w>":2685,"g90</w>":2686,"gạch</w>":2687,"gần</w>":2688,"ht</w>":2689,"hại</w>":2690,"iphon":2691,"keo</w>":2692,"lê</w>":2693,"lá</w>":2694,"lương</w>":2695,"lãi</w>":2696,"mây</w>":2697,"mền</w>":2698,"nv</w>":2699,"nx</w>":2700,"nãn</w>":2701,"rác</w>":2702,"sắm</w>":2703,"son":2704,"tần</w>":2705,"tươ":2706,"tỉnh</w>":2707,"vu":2708,"võ</w>":2709,"viện</w>":2710,"xì</w>":2711,"ãng</w>":2712,"ém</w>":2713,"ìa</w>":2714,"để":2715,"đội</w>":2716,"ẹn</w>":2717,"thú</w>":2718,"than</w>":2719,"cha</w>":2720,"chổ</w>":2721,"chớp</w>":2722,"chặn</w>":2723,"trụ</w>":2724,"trưng</w>":2725,"phầm</w>":2726,"phết</w>":2727,"phai</w>":2728,"quận</w>":2729,"iếp</w>":2730,"tụt</w>":2731,"tik":2732,"tggd</w>":2733,"tore</w>":2734,"find</w>":2735,"thường</w>":2736,"2018</w>":2737,"thich</w>":2738,"quyền</w>":2739,"vooc</w>":2740,"độ</w>":2741,"phục</w>":2742,"delay</w>":2743,"ruồi</w>":2744,"vinsmart</w>":2745,"doanh</w>":2746,"comment</w>":2747,"1080</w>":2748,"inch</w>":2749,"kkkk":2750,"khôg</w>":2751,"auto</w>":2752,"hợp</w>":2753,"5020</w>":2754,"sony</w>":2755,"0000</w>":2756,"39</w>":2757,"a7</w>":2758,"asu":2759,"bă":2760,"bung</w>":2761,"bội</w>":2762,"bốc</w>":2763,"back</w>":2764,"cổ</w>":2765,"cãi</w>":2766,"dạ</w>":2767,"dè</w>":2768,"f7</w>":2769,"gà</w>":2770,"gởi</w>":2771,"gship</w>":2772,"ho</w>":2773,"hùng</w>":2774,"hời</w>":2775,"hào</w>":2776,"hài</w>":2777,"hỉu</w>":2778,"it</w>":2779,"kệ</w>":2780,"lô</w>":2781,"lẻ</w>":2782,"lạc</w>":2783,"lóa</w>":2784,"lần</w>":2785,"mơi</w>":2786,"mùng</w>":2787,"môi</w>":2788,"miết</w>":2789,"mưa</w>":2790,"mốt</w>":2791,"na":2792,"nua</w>":2793,"nắng</w>":2794,"ram":2795,"rát</w>":2796,"rùa</w>":2797,"sữ</w>":2798,"store</w>":2799,"ts</w>":2800,"tỉ</w>":2801,"tử</w>":2802,"tản</w>":2803,"tích</w>":2804,"tây</w>":2805,"tft</w>":2806,"vư":2807,"vu</w>":2808,"ví</w>":2809,"vệ</w>":2810,"vết</w>":2811,"vực</w>":2812,"viê":2813,"vây</w>":2814,"vầy</w>":2815,"wa":2816,"xạ</w>":2817,"yo":2818,"yếu</w>":2819,"zin</w>":2820,"ãy</w>":2821,"ồn</w>":2822,"đă":2823,"đư":2824,"đà</w>":2825,"đục</w>":2826,"đằng</w>":2827,"đinh</w>":2828,"đạo</w>":2829,"̀a</w>":2830,"̀y</w>":2831,"́o</w>":2832,"ồm</w>":2833,"ộn</w>":2834,"ởm</w>":2835,"thọ</w>":2836,"thù</w>":2837,"thượng</w>":2838,"chư":2839,"chốt</w>":2840,"khui</w>":2841,"khớp</w>":2842,"khiếp</w>":2843,"trị</w>":2844,"ngửa</w>":2845,"phép</w>":2846,"quất</w>":2847,"quạt</w>":2848,"sáng</w>":2849,"tuan</w>":2850,"threeface</w>":2851,"luc</w>":2852,"love":2853,"hoa</w>":2854,"hoàng</w>":2855,"seal</w>":2856,"duoc</w>":2857,"àn</w>":2858,"medi":2859,"binh</w>":2860,"huhu</w>":2861,"từ</w>":2862,"tạm</w>":2863,"cập</w>":2864,"đổi</w>":2865,"hêt</w>":2866,"vấn</w>":2867,"biến</w>":2868,"flagship</w>":2869,"đuoc</w>":2870,"lướt</w>":2871,"dùm</w>":2872,"hdr</w>":2873,"type</w>":2874,"miui":2875,"đểu</w>":2876,"tiktok</w>":2877,"asus</w>":2878,"04</w>":2879,"290</w>":2880,"200</w>":2881,"300</w>":2882,"3000</w>":2883,"67</w>":2884,"632</w>":2885,"95</w>":2886,"a6</w>":2887,"a8</w>":2888,"bê":2889,"bự</w>":2890,"bụng</w>":2891,"bắc</w>":2892,"bến</w>":2893,"biểu</w>":2894,"cla":2895,"cọc</w>":2896,"dô</w>":2897,"dỡ</w>":2898,"day</w>":2899,"dẹp</w>":2900,"ff":2901,"fe</w>":2902,"he</w>":2903,"hải</w>":2904,"hôi</w>":2905,"hạt</w>":2906,"kê":2907,"ki</w>":2908,"k5</w>":2909,"kb</w>":2910,"kem</w>":2911,"lễ</w>":2912,"lộ</w>":2913,"lận</w>":2914,"lâm</w>":2915,"lồn</w>":2916,"lăn</w>":2917,"lỏng</w>":2918,"ms</w>":2919,"mẻ</w>":2920,"mồ</w>":2921,"má</w>":2922,"mng</w>":2923,"manh</w>":2924,"một</w>":2925,"rổ</w>":2926,"rì</w>":2927,"rước</w>":2928,"ran</w>":2929,"rít</w>":2930,"sá":2931,"sẻ</w>":2932,"sò</w>":2933,"tq</w>":2934,"tân</w>":2935,"tem</w>":2936,"tot</w>":2937,"tào</w>":2938,"tắc</w>":2939,"tăn</w>":2940,"tái</w>":2941,"tạo</w>":2942,"tat</w>":2943,"tàm</w>":2944,"vd</w>":2945,"vơi</w>":2946,"ver</w>":2947,"v19</w>":2948,"vèo</w>":2949,"vĩnh</w>":2950,"xò</w>":2951,"xui</w>":2952,"xaomi</w>":2953,"xách</w>":2954,"xel</w>":2955,"y9</w>":2956,"zay</w>":2957,"ật</w>":2958,"én</w>":2959,"ìu</w>":2960,"úa</w>":2961,"đức</w>":2962,"đậm</w>":2963,"đón</w>":2964,"ơm</w>":2965,"ẫm</w>":2966,"the</w>":2967,"thiên</w>":2968,"thước</w>":2969,"thằng</w>":2970,"chiê":2971,"chói</w>":2972,"nhịp</w>":2973,"kháng</w>":2974,"khảo</w>":2975,"khởi</w>":2976,"trượt</w>":2977,"tròn</w>":2978,"trách</w>":2979,"tránh</w>":2980,"ngs</w>":2981,"phi":2982,"phế</w>":2983,"phin</w>":2984,"phúc</w>":2985,"phước</w>":2986,"phương</w>":2987,"lun</w>":2988,"mat</w>":2989,"mak</w>":2990,"lòng</w>":2991,"logo</w>":2992,"nó</w>":2993,"china</w>":2994,"ouch</w>":2995,"vì</w>":2996,"rõ</w>":2997,"room</w>":2998,"ghé</w>":2999,"khuân</w>":3000,"hic</w>":3001,"gói</w>":3002,"fun</w>":3003,"chiếu</w>":3004,"túm</w>":3005,"huyện</w>":3006,"ảm</w>":3007,"xog</w>":3008,"bas</w>":3009,"phut</w>":3010,"pixel</w>":3011,"điểm</w>":3012,"tím</w>":3013,"đủ</w>":3014,"best</w>":3015,"combat</w>":3016,"cực</w>":3017,"chạy</w>":3018,"pop</w>":3019,"sóng</w>":3020,"nét</w>":3021,"dag</w>":3022,"hiệu</w>":3023,"huynh</w>":3024,"nghiêm</w>":3025,"viettel</w>":3026,"chậm</w>":3027,"freefire</w>":3028,"chứ</w>":3029,"loveicon</w>":3030,"02</w>":3031,"29</w>":3032,"36</w>":3033,"350</w>":3034,"480</w>":3035,"59</w>":3036,"675</w>":3037,"bâ":3038,"bại</w>":3039,"bla":3040,"bảng</w>":3041,"bỏng</w>":3042,"bóp</w>":3043,"cn</w>":3044,"cl</w>":3045,"cv</w>":3046,"c2</w>":3047,"c1</w>":3048,"cs</w>":3049,"cã</w>":3050,"cú</w>":3051,"canh</w>":3052,"cẩn</w>":3053,"dị</w>":3054,"dì</w>":3055,"dật</w>":3056,"dài</w>":3057,"er":3058,"fm</w>":3059,"gò</w>":3060,"gram</w>":3061,"gps</w>":3062,"gpu</w>":3063,"hiểm</w>":3064,"hồn</w>":3065,"hấp</w>":3066,"hát</w>":3067,"hiếm</w>":3068,"ie</w>":3069,"is</w>":3070,"j5</w>":3071,"jack</w>":3072,"lq":3073,"lư":3074,"ln</w>":3075,"ly</w>":3076,"lục</w>":3077,"liê":3078,"lấm</w>":3079,"lăm</w>":3080,"lạnh</w>":3081,"mj":3082,"mg</w>":3083,"mược</w>":3084,"mất</w>":3085,"mấy</w>":3086,"mở</w>":3087,"nong</w>":3088,"nuốt</w>":3089,"nịnh</w>":3090,"ném</w>":3091,"ok":3092,"or":3093,"off":3094,"ph</w>":3095,"pay</w>":3096,"p30</w>":3097,"rật</w>":3098,"rôi</w>":3099,"sv</w>":3100,"sờ</w>":3101,"ssa":3102,"sắc</w>":3103,"tn</w>":3104,"tr</w>":3105,"ti</w>":3106,"táo</w>":3107,"tới</w>":3108,"tịt</w>":3109,"touch</w>":3110,"vọ":3111,"vc</w>":3112,"vk</w>":3113,"vung</w>":3114,"vững</w>":3115,"xx":3116,"xúc</w>":3117,"ý</w>":3118,"ận</w>":3119,"ãm</w>":3120,"ống</w>":3121,"ăc</w>":3122,"đơ":3123,"đá</w>":3124,"đấu</w>":3125,"đảo</w>":3126,"đút</w>":3127,"đống</w>":3128,"đuối</w>":3129,"ợ</w>":3130,"ấc</w>":3131,"ẵng</w>":3132,"ẹo</w>":3133,"ỗn</w>":3134,"ủy</w>":3135,"thô</w>":3136,"thẩm</w>":3137,"thúc</w>":3138,"thây</w>":3139,"thẳng</w>":3140,"thế</w>":3141,"chiêu</w>":3142,"cháy</w>":3143,"chạp</w>":3144,"nho":3145,"nhấp</w>":3146,"nhỉnh</w>":3147,"nhám</w>":3148,"kha</w>":3149,"khối</w>":3150,"tranh</w>":3151,"trục</w>":3152,"trặc</w>":3153,"trước</w>":3154,"ngân</w>":3155,"ngột</w>":3156,"ngốn</w>":3157,"giờ</w>":3158,"giật</w>":3159,"giảm</w>":3160,"phổ</w>":3161,"phảm</w>":3162,"phức</w>":3163,"phiếu</w>":3164,"phẫm</w>":3165,"nghiêng</w>":3166,"thoai</w>":3167,"luot</w>":3168,"max":3169,"mag</w>":3170,"mast</w>":3171,"mạng</w>":3172,"màng</w>":3173,"made</w>":3174,"mạnh</w>":3175,"cau</w>":3176,"tik</w>":3177,"tính</w>":3178,"hỏi</w>":3179,"tgd":3180,"one</w>":3181,"onscreen</w>":3182,"micro</w>":3183,"ngoài</w>":3184,"khoảng</w>":3185,"tek</w>":3186,"khuông</w>":3187,"chiếm</w>":3188,"modem</w>":3189,"biet</w>":3190,"hum</w>":3191,"thuần</w>":3192,"nhac</w>":3193,"messa":3194,"đánh</w>":3195,"bubg</w>":3196,"buộc</w>":3197,"hãng</w>":3198,"tác</w>":3199,"cầm</w>":3200,"note8</w>":3201,"note9</w>":3202,"phù</w>":3203,"ping</w>":3204,"nhật</w>":3205,"đien</w>":3206,"điều</w>":3207,"thank</w>":3208,"chán</w>":3209,"reno2</w>":3210,"reno4</w>":3211,"khác</w>":3212,"2222":3213,"nguoi</w>":3214,"nghiệm</w>":3215,"đầu</w>":3216,"truyện</w>":3217,"ttd</w>":3218,"tắt</w>":3219,"nhẹ</w>":3220,"iphone":3221,"offline</w>":3222,"01</w>":3223,"06</w>":3224,"03</w>":3225,"08</w>":3226,"07</w>":3227,"18":3228,"28":3229,"250</w>":3230,"400</w>":3231,"56</w>":3232,"6990</w>":3233,"700</w>":3234,"90000</w>":3235,"a5":3236,"atek</w>":3237,"bin</w>":3238,"bày</w>":3239,"bước</w>":3240,"băn</w>":3241,"ble</w>":3242,"bẩy</w>":3243,"bốn</w>":3244,"cg</w>":3245,"cu</w>":3246,"cj</w>":3247,"cd</w>":3248,"cưng</w>":3249,"cẩm</w>":3250,"câm</w>":3251,"cúp</w>":3252,"du</w>":3253,"dò</w>":3254,"dao</w>":3255,"dọc</w>":3256,"dầu</w>":3257,"fe":3258,"gra":3259,"gồm</w>":3260,"hs</w>":3261,"hổi</w>":3262,"hước</w>":3263,"hqua</w>":3264,"hạng</w>":3265,"hốt</w>":3266,"hậu</w>":3267,"ic</w>":3268,"ít</w>":3269,"ips</w>":3270,"kiên</w>":3271,"k20</w>":3272,"lơ":3273,"ll</w>":3274,"làn</w>":3275,"lấp</w>":3276,"len</w>":3277,"lọc</w>":3278,"lắng</w>":3279,"lĩnh</w>":3280,"lcd</w>":3281,"mo</w>":3282,"mò</w>":3283,"mơ</w>":3284,"mìn</w>":3285,"mầu</w>":3286,"mịn</w>":3287,"nô":3288,"ni</w>":3289,"né</w>":3290,"nở</w>":3291,"niên</w>":3292,"nao</w>":3293,"nát</w>":3294,"nen</w>":3295,"or</w>":3296,"ol</w>":3297,"oke</w>":3298,"pa":3299,"pm</w>":3300,"p35</w>":3301,"rou":3302,"ròi</w>":3303,"rnet</w>":3304,"rbo</w>":3305,"su</w>":3306,"sổ</w>":3307,"sảm</w>":3308,"sước</w>":3309,"súng</w>":3310,"t2</w>":3311,"tê</w>":3312,"tổ</w>":3313,"tớ</w>":3314,"tật</w>":3315,"tiệt</w>":3316,"tôn</w>":3317,"tất</w>":3318,"tẩy</w>":3319,"v5</w>":3320,"vó</w>":3321,"vớ</w>":3322,"vù</w>":3323,"vlo":3324,"vao</w>":3325,"vấp</w>":3326,"vọc</w>":3327,"vào</w>":3328,"xạc</w>":3329,"za</w>":3330,"àk</w>":3331,"ể</w>":3332,"ín</w>":3333,"ố</w>":3334,"ùm</w>":3335,"đg</w>":3336,"đx</w>":3337,"đè</w>":3338,"đùng</w>":3339,"đích</w>":3340,"đét</w>":3341,"đứa</w>":3342,"ĩa</w>":3343,"̣ch</w>":3344,"ẫy</w>":3345,"ẻm</w>":3346,"ếp</w>":3347,"ộm</w>":3348,"ợn</w>":3349,"ụp</w>":3350,"ủi</w>":3351,"thảm</w>":3352,"thận</w>":3353,"thui</w>":3354,"thèm</w>":3355,"thơm</w>":3356,"thể</w>":3357,"chê":3358,"chang</w>":3359,"châm</w>":3360,"chất</w>":3361,"chât</w>":3362,"chế</w>":3363,"nhay</w>":3364,"khổ</w>":3365,"khánh</w>":3366,"tre":3367,"tre</w>":3368,"trì</w>":3369,"trân</w>":3370,"trần</w>":3371,"ngu</w>":3372,"ngũ</w>":3373,"ngọc</w>":3374,"giấy</w>":3375,"phố</w>":3376,"phanh</w>":3377,"phán</w>":3378,"phạm</w>":3379,"phâm</w>":3380,"phần</w>":3381,"quy</w>":3382,"sac</w>":3383,"gaming</w>":3384,"tum</w>":3385,"tuân</w>":3386,"tube</w>":3387,"tuột</w>":3388,"turbo</w>":3389,"cánh</w>":3390,"camere</w>":3391,"cài</w>":3392,"call</w>":3393,"loa":3394,"loi</w>":3395,"love</w>":3396,"tiếg</w>":3397,"thứ</w>":3398,"tings</w>":3399,"novo</w>":3400,"samsu":3401,"khoăn</w>":3402,"wer</w>":3403,"tóm</w>":3404,"sẽ</w>":3405,"com</w>":3406,"tesmile</w>":3407,"ternet</w>":3408,"vide":3409,"cùng</w>":3410,"cutesmile</w>":3411,"ghim</w>":3412,"lege":3413,"lenovo</w>":3414,"gopro</w>":3415,"2016</w>":3416,"mobe":3417,"chuyê":3418,"thích</w>":3419,"tự</w>":3420,"nhạc</w>":3421,"buôn</w>":3422,"tab</w>":3423,"câp</w>":3424,"cấp</w>":3425,"dis</w>":3426,"ding</w>":3427,"disa":3428,"dien</w>":3429,"link</w>":3430,"thật</w>":3431,"thấp</w>":3432,"nhiu</w>":3433,"tuyến</w>":3434,"vẫn</w>":3435,"dep</w>":3436,"del</w>":3437,"đến</w>":3438,"đó</w>":3439,"internet</w>":3440,"hành</w>":3441,"kém</w>":3442,"nguồn</w>":3443,"đầy</w>":3444,"bản</w>":3445,"tượng</w>":3446,"vụ</w>":3447,"vừa</w>":3448,"đặt</w>":3449,"mediatek</w>":3450,"phím</w>":3451,"vọg</w>":3452,"lớn</w>":3453,"vlog</w>":3454,"mobel</w>":3455,"05</w>":3456,"12":3457,"190</w>":3458,"22</w>":3459,"2990</w>":3460,"270</w>":3461,"340</w>":3462,"360</w>":3463,"3990</w>":3464,"41</w>":3465,"46</w>":3466,"47</w>":3467,"430</w>":3468,"439</w>":3469,"58</w>":3470,"590</w>":3471,"5990</w>":3472,"74</w>":3473,"79</w>":3474,"712</w>":3475,"84</w>":3476,"800</w>":3477,"_3</w>":3478,"ad":3479,"ak":3480,"ak</w>":3481,"a3</w>":3482,"bk</w>":3483,"bj</w>":3484,"bó</w>":3485,"bỉ</w>":3486,"biên</w>":3487,"bậy</w>":3488,"bọc</w>":3489,"bẩn</w>":3490,"bla</w>":3491,"bthuong</w>":3492,"bịt</w>":3493,"bàn</w>":3494,"bén</w>":3495,"ct":3496,"cù":3497,"củ":3498,"căn</w>":3499,"cặp</w>":3500,"cậu</w>":3501,"dò":3502,"ds</w>":3503,"dx</w>":3504,"dơ</w>":3505,"diệu</w>":3506,"dực</w>":3507,"diê":3508,"dộng</w>":3509,"dịp</w>":3510,"dri":3511,"dởm</w>":3512,"ed":3513,"ec</w>":3514,"email</w>":3515,"gắng</w>":3516,"gớm</w>":3517,"hj":3518,"hô":3519,"hg</w>":3520,"ha</w>":3521,"hj</w>":3522,"hô</w>":3523,"hã</w>":3524,"hz</w>":3525,"hân</w>":3526,"hon</w>":3527,"hot</w>":3528,"hứng</w>":3529,"hang</w>":3530,"hnay</w>":3531,"hẻo</w>":3532,"hẹn</w>":3533,"hỗn</w>":3534,"jn</w>":3535,"jo</w>":3536,"ky":3537,"kt</w>":3538,"kô</w>":3539,"k3</w>":3540,"kí</w>":3541,"kẹt</w>":3542,"kẻo</w>":3543,"kìa</w>":3544,"lp":3545,"lg</w>":3546,"li</w>":3547,"lu</w>":3548,"lẹ</w>":3549,"lạy</w>":3550,"lập</w>":3551,"lăng</w>":3552,"lộc</w>":3553,"lưới</w>":3554,"lòe</w>":3555,"lấy</w>":3556,"mx":3557,"mô":3558,"mn</w>":3559,"mù</w>":3560,"mên</w>":3561,"mung</w>":3562,"mến</w>":3563,"m20</w>":3564,"màng</w>":3565,"mừng</w>":3566,"mắn</w>":3567,"mõi</w>":3568,"mât</w>":3569,"mép</w>":3570,"nf":3571,"nm</w>":3572,"nng</w>":3573,"nai</w>":3574,"ncl</w>":3575,"od</w>":3576,"olp":3577,"pr</w>":3578,"pj</w>":3579,"pv</w>":3580,"pb</w>":3581,"pải</w>":3582,"pim</w>":3583,"pro":3584,"p60</w>":3585,"qc</w>":3586,"qr</w>":3587,"ran":3588,"răng</w>":3589,"ss":3590,"sn</w>":3591,"sm</w>":3592,"s9</w>":3593,"sân</w>":3594,"slo":3595,"sương</w>":3596,"sảy</w>":3597,"s60</w>":3598,"sọt</w>":3599,"ssi":3600,"sdt</w>":3601,"sms</w>":3602,"số</w>":3603,"tg</w>":3604,"tô</w>":3605,"t5</w>":3606,"td</w>":3607,"t3</w>":3608,"tỷ</w>":3609,"tố</w>":3610,"tông</w>":3611,"tùng</w>":3612,"tắm</w>":3613,"tao</w>":3614,"tan</w>":3615,"tồn</w>":3616,"tít</w>":3617,"tiêng</w>":3618,"tẹt</w>":3619,"tụi</w>":3620,"tks</w>":3621,"tạp</w>":3622,"vê</w>":3623,"vò</w>":3624,"vùng</w>":3625,"vận</w>":3626,"vâng</w>":3627,"vặn</w>":3628,"vmast</w>":3629,"xâ":3630,"xr</w>":3631,"xá</w>":3632,"yu":3633,"zo</w>":3634,"óm</w>":3635,"ôk</w>":3636,"ộc</w>":3637,"ốn</w>":3638,"đế":3639,"đơi</w>":3640,"đồi</w>":3641,"đãi</w>":3642,"́a</w>":3643,"̣a</w>":3644,"ỡng</w>":3645,"ứg</w>":3646,"ỳnh</w>":3647,"thg</w>":3648,"thả</w>":3649,"thề</w>":3650,"thạnh</w>":3651,"tháy</w>":3652,"tháp</w>":3653,"thủy</w>":3654,"chí":3655,"chớ</w>":3656,"chon</w>":3657,"chào</w>":3658,"chứng</w>":3659,"chan</w>":3660,"cham</w>":3661,"chồng</w>":3662,"chọc</w>":3663,"chuối</w>":3664,"chèn</w>":3665,"chưởng</w>":3666,"nhô</w>":3667,"nhã</w>":3668,"nhỡ</w>":3669,"nhf</w>":3670,"nhức</w>":3671,"nhằng</w>":3672,"nhịu</w>":3673,"nhòa</w>":3674,"nhằm</w>":3675,"nhàm</w>":3676,"khg</w>":3677,"khô</w>":3678,"khấu</w>":3679,"khiển</w>":3680,"tri":3681,"trứng</w>":3682,"truy":3683,"ngất</w>":3684,"ngâm</w>":3685,"ngrou":3686,"gio</w>":3687,"gió</w>":3688,"giực</w>":3689,"giọng</w>":3690,"pha":3691,"phon</w>":3692,"phỏng</w>":3693,"pháp</w>":3694,"quê</w>":3695,"quán</w>":3696,"quăng</w>":3697,"quãng</w>":3698,"quỳnh</w>":3699,"san</w>":3700,"sale</w>":3701,"tuc</w>":3702,"cáu</w>":3703,"rena</w>":3704,"thoy</w>":3705,"thoảng</w>":3706,"may":3707,"map</w>":3708,"màu</w>":3709,"can</w>":3710,"cải</w>":3711,"cand":3712,"lan</w>":3713,"las</w>":3714,"loan</w>":3715,"nặng</w>":3716,"iêm</w>":3717,"iệu</w>":3718,"tim</w>":3719,"tion</w>":3720,"tivi</w>":3721,"chỉnh</w>":3722,"khoa</w>":3723,"khoẻ</w>":3724,"khó</w>":3725,"khoái</w>":3726,"khỏi</w>":3727,"khóa</w>":3728,"oppo":3729,"kil</w>":3730,"box</w>":3731,"viru":3732,"vingrou":3733,"toán</w>":3734,"seting</w>":3735,"colo":3736,"coolp":3737,"lio</w>":3738,"live":3739,"xiu</w>":3740,"cuộc</w>":3741,"dù</w>":3742,"ghz</w>":3743,"fit</w>":3744,"mes</w>":3745,"mera</w>":3746,"mesenger</w>":3747,"mega":3748,"redmi":3749,"redme</w>":3750,"mode</w>":3751,"bình</w>":3752,"thỉnh</w>":3753,"huy</w>":3754,"ản</w>":3755,"đáng</w>":3756,"hau</w>":3757,"dịch</w>":3758,"settings</w>":3759,"musi":3760,"muốn</w>":3761,"đối</w>":3762,"note20</w>":3763,"nhieu</w>":3764,"báo</w>":3765,"pit</w>":3766,"đều</w>":3767,"vina</w>":3768,"very</w>":3769,"cmn</w>":3770,"đoán</w>":3771,"dow":3772,"dòng</w>":3773,"cười</w>":3774,"cửa</w>":3775,"thiện</w>":3776,"tuyêt</w>":3777,"mpx</w>":3778,"xuân</w>":3779,"reno3</w>":3780,"hehe</w>":3781,"helio</w>":3782,"geam</w>":3783,"huyền</w>":3784,"ttbh</w>":3785,"trả</w>":3786,"405</w>":3787,"4030</w>":3788,"nhé</w>":3789,"bảo</w>":3790,"kkkkkkkk":3791,"việt</w>":3792,"miui1</w>":3793,"bền</w>":3794,"sámung</w>":3795,"bấm</w>":3796,"lqm</w>":3797,"mjnh</w>":3798,"maxsetting</w>":3799,"message</w>":3800,"grab</w>":3801,"nối</w>":3802,"chuyển</w>":3803,"ctkm</w>":3804,"diện</w>":3805,"mxh</w>":3806,"xấu</w>":3807,"truyền</w>":3808,"candy</w>":3809,"virus</w>":3810,"vingroup</w>":3811,"coolpad</w>":3812,"09":3813,"15":3814,"180</w>":3815,"14990</w>":3816,"230</w>":3817,"256</w>":3818,"34</w>":3819,"37</w>":3820,"3500</w>":3821,"43</w>":3822,"68</w>":3823,"610</w>":3824,"79":3825,"71</w>":3826,"7990</w>":3827,"765</w>":3828,"82</w>":3829,"86</w>":3830,"83</w>":3831,"87</w>":3832,"865</w>":3833,"8490</w>":3834,"93</w>":3835,"94</w>":3836,"aphone</w>":3837,"ánh</w>":3838,"bg":3839,"by":3840,"bệ":3841,"bẻ</w>":3842,"bx</w>":3843,"bùng</w>":3844,"băng</w>":3845,"bạo</w>":3846,"ck":3847,"cú":3848,"cứ":3849,"ct</w>":3850,"cở</w>":3851,"cất</w>":3852,"cay</w>":3853,"cản</w>":3854,"côi</w>":3855,"cạn</w>":3856,"cành</w>":3857,"cốc</w>":3858,"cầy</w>":3859,"cra":3860,"cty</w>":3861,"cằm</w>":3862,"dê":3863,"dm</w>":3864,"dế</w>":3865,"dĩ</w>":3866,"dong</w>":3867,"duyên</w>":3868,"dọn</w>":3869,"dựa</w>":3870,"doi</w>":3871,"dat</w>":3872,"dầy</w>":3873,"eu":3874,"era</w>":3875,"ét</w>":3876,"fa</w>":3877,"fon":3878,"fli":3879,"fhd</w>":3880,"f11</w>":3881,"gr":3882,"gy":3883,"gr</w>":3884,"gê</w>":3885,"gật</w>":3886,"gan":3887,"gạt</w>":3888,"ges</w>":3889,"gmail</w>":3890,"gãy</w>":3891,"hì":3892,"hẫ":3893,"hí</w>":3894,"hơ</w>":3895,"há</w>":3896,"hố</w>":3897,"hột</w>":3898,"hiền</w>":3899,"hây</w>":3900,"ham</w>":3901,"hít</w>":3902,"hao":3903,"hạch</w>":3904,"hớt</w>":3905,"hạnh</w>":3906,"hồi</w>":3907,"hiệp</w>":3908,"hứa</w>":3909,"hcm</w>":3910,"i1</w>":3911,"itr":3912,"iem</w>":3913,"i10</w>":3914,"ime</w>":3915,"int":3916,"iphon</w>":3917,"ja</w>":3918,"j2</w>":3919,"j6</w>":3920,"kẻ</w>":3921,"kỉ</w>":3922,"kung</w>":3923,"k30</w>":3924,"kín</w>":3925,"lt":3926,"lâ":3927,"lm</w>":3928,"ld</w>":3929,"lq</w>":3930,"lổ</w>":3931,"lem</w>":3932,"lào</w>":3933,"lôi</w>":3934,"lỏi</w>":3935,"lte</w>":3936,"lme</w>":3937,"lặt</w>":3938,"lặp</w>":3939,"lọt</w>":3940,"lớp</w>":3941,"lứa</w>":3942,"lãng</w>":3943,"lởm</w>":3944,"mê":3945,"mụ":3946,"ml</w>":3947,"mô</w>":3948,"mí</w>":3949,"mỏ</w>":3950,"mông</w>":3951,"mại</w>":3952,"mời</w>":3953,"mòn</w>":3954,"mực</w>":3955,"mét</w>":3956,"mảng</w>":3957,"men</w>":3958,"móc</w>":3959,"mèo</w>":3960,"méo</w>":3961,"mờ</w>":3962,"màk</w>":3963,"nã":3964,"ne</w>":3965,"ny</w>":3966,"nề</w>":3967,"nđ</w>":3968,"nam":3969,"nâu</w>":3970,"nch</w>":3971,"neo</w>":3972,"nêu</w>":3973,"ndm":3974,"nầy</w>":3975,"nload</w>":3976,"nấy</w>":3977,"nsx</w>":3978,"nước</w>":3979,"nẵng</w>":3980,"oi":3981,"op</w>":3982,"oan</w>":3983,"otg</w>":3984,"po</w>":3985,"p3</w>":3986,"p90</w>":3987,"pes</w>":3988,"pjn</w>":3989,"qt</w>":3990,"q6</w>":3991,"rô":3992,"rơ":3993,"rò</w>":3994,"riết</w>":3995,"rang</w>":3996,"rối</w>":3997,"rừng</w>":3998,"rắn</w>":3999,"rồng</w>":4000,"rinh</w>":4001,"rry</w>":4002,"rìa</w>":4003,"st":4004,"sa</w>":4005,"sủ</w>":4006,"sf</w>":4007,"sông</w>":4008,"sàn</w>":4009,"sụng</w>":4010,"sứng</w>":4011,"sấu</w>":4012,"sục</w>":4013,"sữa</w>":4014,"sậm</w>":4015,"sặc</w>":4016,"ste":4017,"sưu</w>":4018,"ság</w>":4019,"s61</w>":4020,"săc</w>":4021,"sụp</w>":4022,"stre":4023,"tủ</w>":4024,"tb</w>":4025,"tú</w>":4026,"tỏ</w>":4027,"tụ</w>":4028,"tứ</w>":4029,"tua</w>":4030,"tph":4031,"tch</w>":4032,"tấn</w>":4033,"tang</w>":4034,"tảng</w>":4035,"tát</w>":4036,"tường</w>":4037,"tap</w>":4038,"tướng</w>":4039,"tạch</w>":4040,"tấc</w>":4041,"tẹo</w>":4042,"un":4043,"ur":4044,"ud</w>":4045,"ulike</w>":4046,"vt</w>":4047,"vất</w>":4048,"vác</w>":4049,"vang</w>":4050,"vướng</w>":4051,"vnđ</w>":4052,"wo":4053,"way</w>":4054,"wai</w>":4055,"xa":4056,"xg</w>":4057,"xí</w>":4058,"xắn</w>":4059,"xăng</w>":4060,"xac</w>":4061,"xìu</w>":4062,"xếp</w>":4063,"xsm</w>":4064,"xét</w>":4065,"y7</w>":4066,"zi</w>":4067,"zậy</w>":4068,"ày":4069,"àg</w>":4070,"àh</w>":4071,"ẩn</w>":4072,"ãnh</w>":4073,"éc</w>":4074,"õm</w>":4075,"ùn</w>":4076,"ặc</w>":4077,"ằng</w>":4078,"đệ":4079,"đv</w>":4080,"đê</w>":4081,"đay</w>":4082,"đanh</w>":4083,"đào</w>":4084,"đâm</w>":4085,"đam</w>":4086,"đoi</w>":4087,"đàm</w>":4088,"đẩy</w>":4089,"đéo</w>":4090,"ọe</w>":4091,"ổm</w>":4092,"ớc</w>":4093,"thê</w>":4094,"thơ</w>":4095,"thỏ</w>":4096,"thở</w>":4097,"thuy":4098,"thít</w>":4099,"that</w>":4100,"thời</w>":4101,"chó</w>":4102,"chừ</w>":4103,"chắt</w>":4104,"chảo</w>":4105,"chừa</w>":4106,"chim</w>":4107,"chăn</w>":4108,"chầy</w>":4109,"chót</w>":4110,"chóp</w>":4111,"chắc</w>":4112,"chống</w>":4113,"nhọ</w>":4114,"nhở</w>":4115,"nhại</w>":4116,"nhiện</w>":4117,"nhắt</w>":4118,"nhả":4119,"nhìu</w>":4120,"khè</w>":4121,"khảm</w>":4122,"khích</w>":4123,"khám</w>":4124,"khóc</w>":4125,"khắc</w>":4126,"trư":4127,"trg</w>":4128,"trà</w>":4129,"trề</w>":4130,"trại</w>":4131,"trầm</w>":4132,"trôi</w>":4133,"trao</w>":4134,"tràng</w>":4135,"trời</w>":4136,"trải</w>":4137,"trẻo</w>":4138,"trót</w>":4139,"trộm</w>":4140,"máu</w>":4141,"ngữ</w>":4142,"ngỡ</w>":4143,"ngộ</w>":4144,"ngàn</w>":4145,"ngôn</w>":4146,"ngán</w>":4147,"ngầu</w>":4148,"nguy</w>":4149,"gia":4150,"giu":4151,"gián</w>":4152,"giỏi</w>":4153,"gióng</w>":4154,"giành</w>":4155,"giới</w>":4156,"giải</w>":4157,"giãm</w>":4158,"pho":4159,"pha</w>":4160,"phủ</w>":4161,"phơi</w>":4162,"phối</w>":4163,"phái</w>":4164,"qual":4165,"quát</w>":4166,"quad</w>":4167,"sat</w>":4168,"sanh</w>":4169,"sánh</w>":4170,"tut</w>":4171,"tup</w>":4172,"tục</w>":4173,"rẻ</w>":4174,"rera</w>":4175,"restore</w>":4176,"nghìn</w>":4177,"nghịch</w>":4178,"nghĩa</w>":4179,"thoi</w>":4180,"luông</w>":4181,"luong</w>":4182,"mao</w>":4183,"main</w>":4184,"cac</w>":4185,"cách</w>":4186,"loẹt</w>":4187,"with</w>":4188,"wife</w>":4189,"thực</w>":4190,"hono":4191,"hoặc</w>":4192,"tgđ</w>":4193,"mic":4194,"mia</w>":4195,"địa</w>":4196,"frie</w>":4197,"chính</w>":4198,"chịu</w>":4199,"chiec</w>":4200,"ount":4201,"khoe</w>":4202,"khoong</w>":4203,"wet</w>":4204,"kính</w>":4205,"kindm":4206,"bỏ</w>":4207,"vid</w>":4208,"youtubi</w>":4209,"toàn</w>":4210,"pug</w>":4211,"setup</w>":4212,"chuộng</w>":4213,"chuẩn</w>":4214,"cor":4215,"cover</w>":4216,"lí</w>":4217,"tele</w>":4218,"anime</w>":4219,"aomi":4220,"mart</w>":4221,"duo</w>":4222,"theme</w>":4223,"gioi</w>":4224,"ành</w>":4225,"fifa</w>":4226,"goi</w>":4227,"gom</w>":4228,"gori":4229,"gold</w>":4230,"men":4231,"mẹ</w>":4232,"mega</w>":4233,"drop</w>":4234,"mog</w>":4235,"mobi</w>":4236,"mỏng</w>":4237,"model</w>":4238,"motion</w>":4239,"bis</w>":4240,"this</w>":4241,"huế</w>":4242,"từng</w>":4243,"realme":4244,"nhat</w>":4245,"mess":4246,"bluetooh</w>":4247,"đáo</w>":4248,"buồn</w>":4249,"khuya</w>":4250,"hay":4251,"haha</w>":4252,"tak</w>":4253,"tại</w>":4254,"cần</w>":4255,"dio</w>":4256,"diễn</w>":4257,"volum</w>":4258,"rata</w>":4259,"radio</w>":4260,"mua":4261,"muon</w>":4262,"muiu</w>":4263,"muộn</w>":4264,"thât</w>":4265,"mươt</w>":4266,"view</w>":4267,"note7</w>":4268,"art</w>":4269,"nhiet</w>":4270,"những</w>":4271,"bán</w>":4272,"phuc</w>":4273,"snap":4274,"tận</w>":4275,"tuyet</w>":4276,"lỗ</w>":4277,"nhâp</w>":4278,"biêt</w>":4279,"tiết</w>":4280,"tiếc</w>":4281,"ruột</w>":4282,"flas</w>":4283,"đúng</w>":4284,"vinid</w>":4285,"vinaphone</w>":4286,"berry</w>":4287,"exc":4288,"cmr</w>":4289,"đoạn</w>":4290,"đòi</w>":4291,"101</w>":4292,"1020</w>":4293,"sim":4294,"mặc</w>":4295,"nds</w>":4296,"choảnh</w>":4297,"choẹt</w>":4298,"lắc</w>":4299,"point":4300,"xuông</w>":4301,"reviewer</w>":4302,"full":4303,"khac</w>":4304,"khach</w>":4305,"khách</w>":4306,"hiện</w>":4307,"vietnam":4308,"fake</w>":4309,"truoc</w>":4310,"1111":4311,"1390</w>":4312,"mười</w>":4313,"mức</w>":4314,"mườn</w>":4315,"nice</w>":4316,"nuột</w>":4317,"trau</w>":4318,"tặng</w>":4319,"vuông</w>":4320,"bắt</w>":4321,"bằng</w>":4322,"naitr":4323,"ram8</w>":4324,"việc</w>":4325,"you</w>":4326,"miui10</w>":4327,"kêt</w>":4328,"kết</w>":4329,"chiếc</w>":4330,"chiến</w>":4331,"black</w>":4332,"black":4333,"đợi</w>":4334,"tgdđ</w>":4335,"iphone6</w>":4336,"a52</w>":4337,"loading</w>":4338,"legends</w>":4339,"disapoint":4340,"củg</w>":4341,"nfc</w>":4342,"slow</w>":4343,"đếm</w>":4344,"chíp</w>":4345,"megapixel</w>":4346,"download</w>":4347,"bye</w>":4348,"bệnh</w>":4349,"cứu</w>":4350,"dễ</w>":4351,"font</w>":4352,"hẫng</w>":4353,"hao10</w>":4354,"mụn</w>":4355,"não</w>":4356,"tphcm</w>":4357,"nhảy</w>":4358,"honor</w>":4359,"ountsmile</w>":4360,"kindmountsmile</w>":4361,"goril":4362,"naitrim</w>":4363,"blackberry</w>":4364,"disapointface</w>":4365,"03":4366,"09</w>":4367,"16":4368,"120":4369,"160</w>":4370,"121</w>":4371,"161</w>":4372,"146</w>":4373,"240</w>":4374,"285</w>":4375,"36":4376,"38</w>":4377,"320</w>":4378,"330</w>":4379,"390</w>":4380,"370</w>":4381,"3290</w>":4382,"3300</w>":4383,"3340</w>":4384,"49</w>":4385,"410</w>":4386,"460</w>":4387,"416</w>":4388,"4490</w>":4389,"490000</w>":4390,"5690</w>":4391,"5590</w>":4392,"62</w>":4393,"66</w>":4394,"600</w>":4395,"6490</w>":4396,"636</w>":4397,"78</w>":4398,"7790</w>":4399,"766</w>":4400,"81</w>":4401,"8990</w>":4402,"900</w>":4403,"980</w>":4404,"961</w>":4405,"9610</w>":4406,"_2</w>":4407,"_về</w>":4408,"af":4409,"ap":4410,"at":4411,"ạ</w>":4412,"as</w>":4413,"ava":4414,"ahihi</w>":4415,"ats</w>":4416,"assi":4417,"bô":4418,"bư":4419,"bc</w>":4420,"bl</w>":4421,"bờ</w>":4422,"bỡ</w>":4423,"bõ</w>":4424,"bì</w>":4425,"bông</w>":4426,"bon</w>":4427,"bầm</w>":4428,"bửa</w>":4429,"bừng</w>":4430,"balo</w>":4431,"bầu</w>":4432,"bánh</w>":4433,"bái</w>":4434,"ber</w>":4435,"bât</w>":4436,"bsi":4437,"bẫy</w>":4438,"bran":4439,"bgio</w>":4440,"bqt</w>":4441,"cs":4442,"cô":4443,"cũ":4444,"cờ</w>":4445,"cự</w>":4446,"cò</w>":4447,"cù</w>":4448,"cư</w>":4449,"cưa</w>":4450,"cọng</w>":4451,"cảo</w>":4452,"cui</w>":4453,"cred":4454,"cưới</w>":4455,"cắp</w>":4456,"cóc</w>":4457,"cru":4458,"cơm</w>":4459,"dư":4460,"dn</w>":4461,"dg</w>":4462,"dồ</w>":4463,"dử</w>":4464,"dứ</w>":4465,"dộ</w>":4466,"dâu</w>":4467,"dơn</w>":4468,"diệt</w>":4469,"dắt</w>":4470,"dối</w>":4471,"dấp</w>":4472,"den</w>":4473,"dịu</w>":4474,"dội</w>":4475,"dẫu</w>":4476,"dựng</w>":4477,"dẻo</w>":4478,"dzay</w>":4479,"en":4480,"ed</w>":4481,"eng</w>":4482,"eno</w>":4483,"fp":4484,"fu</w>":4485,"fải</w>":4486,"gí":4487,"gô":4488,"gh</w>":4489,"gỉ</w>":4490,"gđ</w>":4491,"gảm</w>":4492,"glo":4493,"gàng</w>":4494,"gợi</w>":4495,"gánh</w>":4496,"ger</w>":4497,"g70</w>":4498,"g76</w>":4499,"gởi</w>":4500,"gợn</w>":4501,"ht":4502,"hy":4503,"hp</w>":4504,"hm</w>":4505,"hủ</w>":4506,"hú</w>":4507,"hì</w>":4508,"hàn</w>":4509,"hsau</w>":4510,"hôn</w>":4511,"hóng</w>":4512,"huống</w>":4513,"hương</w>":4514,"hớn</w>":4515,"hởi</w>":4516,"hòi</w>":4517,"hóc</w>":4518,"hổng</w>":4519,"hịn</w>":4520,"hẵn</w>":4521,"hqa</w>":4522,"hịnh</w>":4523,"hận</w>":4524,"hằng</w>":4525,"ik</w>":4526,"i3</w>":4527,"i7</w>":4528,"ing":4529,"istar</w>":4530,"ice</w>":4531,"ifu</w>":4532,"jt</w>":4533,"j4</w>":4534,"jet</w>":4535,"ka":4536,"kr":4537,"ku</w>":4538,"ky</w>":4539,"ký</w>":4540,"kè</w>":4541,"kình</w>":4542,"kon</w>":4543,"kìm</w>":4544,"kar":4545,"kog</w>":4546,"kẹo</w>":4547,"kak":4548,"kiêm</w>":4549,"lê":4550,"lò":4551,"lú":4552,"ls</w>":4553,"lè</w>":4554,"lố</w>":4555,"lông</w>":4556,"lân</w>":4557,"liều</w>":4558,"lắt</w>":4559,"lác</w>":4560,"lắc</w>":4561,"lột</w>":4562,"lổi</w>":4563,"lước</w>":4564,"leo</w>":4565,"lóng</w>":4566,"lây</w>":4567,"liêu</w>":4568,"lặng</w>":4569,"lpu":4570,"lửa</w>":4571,"lạt</w>":4572,"lội</w>":4573,"lquan</w>":4574,"llo</w>":4575,"láy</w>":4576,"lún</w>":4577,"lộn</w>":4578,"lúa</w>":4579,"lý</w>":4580,"lãm</w>":4581,"lùm</w>":4582,"llink</w>":4583,"lõm</w>":4584,"mt":4585,"mự":4586,"mu</w>":4587,"m5</w>":4588,"mó</w>":4589,"mộ</w>":4590,"mè</w>":4591,"mmáy</w>":4592,"mài</w>":4593,"mem</w>":4594,"mải</w>":4595,"mot</w>":4596,"môn</w>":4597,"mảnh</w>":4598,"mon":4599,"msung</w>":4600,"mui</w>":4601,"mói</w>":4602,"mãn</w>":4603,"mẩu</w>":4604,"miềm</w>":4605,"móp</w>":4606,"mãnh</w>":4607,"mgí":4608,"nv":4609,"nê":4610,"nê</w>":4611,"nơ</w>":4612,"nông</w>":4613,"nất</w>":4614,"nới</w>":4615,"nài</w>":4616,"nạn</w>":4617,"nan</w>":4618,"nno":4619,"nan":4620,"nex":4621,"nàm</w>":4622,"nẻo</w>":4623,"nạp</w>":4624,"nvien</w>":4625,"nãy</w>":4626,"oc":4627,"oh</w>":4628,"oai</w>":4629,"ọng</w>":4630,"opop</w>":4631,"pr":4632,"pl</w>":4633,"p5</w>":4634,"pị</w>":4635,"pai</w>":4636,"pen</w>":4637,"pan":4638,"p40</w>":4639,"pat</w>":4640,"p65</w>":4641,"per":4642,"qy":4643,"q8</w>":4644,"qay</w>":4645,"rm":4646,"rò":4647,"ri</w>":4648,"ru</w>":4649,"rả</w>":4650,"rẽ</w>":4651,"rấ</w>":4652,"rin</w>":4653,"rân</w>":4654,"rùng</w>":4655,"rra</w>":4656,"rượt</w>":4657,"rắc</w>":4658,"rán</w>":4659,"rêm</w>":4660,"rậm</w>":4661,"rvi":4662,"rửa</w>":4663,"rui</w>":4664,"rme</w>":4665,"rành</w>":4666,"rạch</w>":4667,"sâ":4668,"sơ":4669,"sd</w>":4670,"sy</w>":4671,"s2</w>":4672,"s3</w>":4673,"s7</w>":4674,"sả</w>":4675,"sạ</w>":4676,"sì</w>":4677,"sấy</w>":4678,"sưng</w>":4679,"sác</w>":4680,"sma":4681,"sét</w>":4682,"sảng</w>":4683,"ssung</w>":4684,"sút</w>":4685,"sàng</w>":4686,"săn</w>":4687,"sành</w>":4688,"sợi</w>":4689,"soi</w>":4690,"sốc</w>":4691,"sta":4692,"soc</w>":4693,"ss20</w>":4694,"siu</w>":4695,"sãn</w>":4696,"sợ</w>":4697,"skil</w>":4698,"tl</w>":4699,"t6</w>":4700,"tờ</w>":4701,"tá</w>":4702,"tè</w>":4703,"tù</w>":4704,"tơi</w>":4705,"tượt</w>":4706,"tút</w>":4707,"tậm</w>":4708,"ten</w>":4709,"túng</w>":4710,"tắn</w>":4711,"tgian</w>":4712,"tòi</w>":4713,"tám</w>":4714,"tèo</w>":4715,"tĩnh</w>":4716,"tfli":4717,"us</w>":4718,"uf</w>":4719,"uổn</w>":4720,"ủng</w>":4721,"vl":4722,"vơ":4723,"vy</w>":4724,"vừ</w>":4725,"vả</w>":4726,"vể</w>":4727,"vé</w>":4728,"vè</w>":4729,"vđ</w>":4730,"vong</w>":4731,"vũng</w>":4732,"vối</w>":4733,"vou":4734,"vát</w>":4735,"ven</w>":4736,"vắn</w>":4737,"van":4738,"vựa</w>":4739,"vắng</w>":4740,"vớt</w>":4741,"vài</w>":4742,"vệt</w>":4743,"v17</w>":4744,"vẩy</w>":4745,"vói</w>":4746,"vãn</w>":4747,"vốn</w>":4748,"vẹn</w>":4749,"vcl</w>":4750,"vợ</w>":4751,"vẫy</w>":4752,"we</w>":4753,"wfi</w>":4754,"wor":4755,"xt</w>":4756,"xu</w>":4757,"xế</w>":4758,"xà</w>":4759,"xưng</w>":4760,"xải</w>":4761,"xích</w>":4762,"xọc</w>":4763,"xám</w>":4764,"xmobile</w>":4765,"xứng</w>":4766,"xàm</w>":4767,"xẩy</w>":4768,"xa1</w>":4769,"xéo</w>":4770,"yl</w>":4771,"yd</w>":4772,"yang</w>":4773,"ze</w>":4774,"zs</w>":4775,"zị</w>":4776,"zeno</w>":4777,"zing":4778,"°c</w>":4779,"áu</w>":4780,"ánng</w>":4781,"ân":4782,"ấn</w>":4783,"éng</w>":4784,"ìh</w>":4785,"ôt</w>":4786,"ỗ</w>":4787,"úg</w>":4788,"úy</w>":4789,"ăt</w>":4790,"ắn</w>":4791,"đắ":4792,"độ":4793,"đô</w>":4794,"đh</w>":4795,"đượ":4796,"đua</w>":4797,"đên</w>":4798,"đàn</w>":4799,"đản</w>":4800,"đan</w>":4801,"điển</w>":4802,"đắng</w>":4803,"đốt</w>":4804,"đựng</w>":4805,"đậu</w>":4806,"điệp</w>":4807,"đứng</w>":4808,"đĩa</w>":4809,"đúg</w>":4810,"ớ</w>":4811,"ựng</w>":4812,"̃o</w>":4813,"̉e</w>":4814,"ạk</w>":4815,"ảu</w>":4816,"ảng":4817,"ậc</w>":4818,"ặg</w>":4819,"ẹc</w>":4820,"ẻn</w>":4821,"ềnh</w>":4822,"ễm</w>":4823,"ỉn</w>":4824,"ịc</w>":4825,"ỏm</w>":4826,"ờg</w>":4827,"ợc</w>":4828,"ợm</w>":4829,"ừm</w>":4830,"ửu</w>":4831,"ửng</w>":4832,"ữg</w>":4833,"thă":4834,"thứ":4835,"tha</w>":4836,"thỉ</w>":4837,"thự</w>":4838,"thôn</w>":4839,"thấu</w>":4840,"thổi</w>":4841,"thập</w>":4842,"thói</w>":4843,"thánng</w>":4844,"che":4845,"chơ":4846,"chạ":4847,"chô</w>":4848,"chử</w>":4849,"chới</w>":4850,"chày</w>":4851,"chanh</w>":4852,"chần</w>":4853,"chải</w>":4854,"chọi</w>":4855,"chổi</w>":4856,"chước</w>":4857,"chối</w>":4858,"chảy</w>":4859,"chuốt</w>":4860,"chrom</w>":4861,"chờ</w>":4862,"chăc</w>":4863,"chỗ</w>":4864,"nhs</w>":4865,"nhẽ</w>":4866,"nhứ</w>":4867,"nhình</w>":4868,"nhem</w>":4869,"nhiết</w>":4870,"nhậy</w>":4871,"nhôm</w>":4872,"nhây</w>":4873,"nhái</w>":4874,"nhịn</w>":4875,"nhẩy</w>":4876,"nhãy</w>":4877,"nhớ</w>":4878,"nhữg</w>":4879,"khj</w>":4880,"khỉ</w>":4881,"khâu</w>":4882,"khôi</w>":4883,"khai</w>":4884,"khổi</w>":4885,"khít</w>":4886,"khựa</w>":4887,"khẳng</w>":4888,"khõi</w>":4889,"khói</w>":4890,"khiêm</w>":4891,"khựng</w>":4892,"tri</w>":4893,"trể</w>":4894,"trỏ</w>":4895,"triê":4896,"trêm</w>":4897,"trướt</w>":4898,"trươ":4899,"trọn</w>":4900,"trừng</w>":4901,"trúng</w>":4902,"trầu</w>":4903,"troi</w>":4904,"trợ</w>":4905,"trọng</w>":4906,"ngt</w>":4907,"ngr</w>":4908,"nga</w>":4909,"ngưng</w>":4910,"ngợp</w>":4911,"ngáo</w>":4912,"ngừng</w>":4913,"ngáy</w>":4914,"ngày":4915,"ngtak</w>":4916,"giố":4917,"giời</w>":4918,"giận</w>":4919,"giường</w>":4920,"giat</w>":4921,"giac</w>":4922,"giùm</w>":4923,"pham</w>":4924,"phường</w>":4925,"phẩn</w>":4926,"phẳng</w>":4927,"phốt</w>":4928,"phèo</w>":4929,"phản</w>":4930,"iệu":4931,"amo":4932,"amin</w>":4933,"amera</w>":4934,"quý</w>":4935,"quánh</w>":4936,"quái</w>":4937,"quạo</w>":4938,"sach</w>":4939,"gamer</w>":4940,"nóg</w>":4941,"tuệ</w>":4942,"tùy</w>":4943,"cán</w>":4944,"red</w>":4945,"remi</w>":4946,"real</w>":4947,"relme</w>":4948,"renno":4949,"cammera</w>":4950,"camrera</w>":4951,"camer</w>":4952,"camerra</w>":4953,"nghiên</w>":4954,"nghiến</w>":4955,"nghen</w>":4956,"nghiem</w>":4957,"thoản</w>":4958,"thoạt</w>":4959,"lui</w>":4960,"luân</w>":4961,"luon</w>":4962,"mad</w>":4963,"mãn</w>":4964,"mali</w>":4965,"cảnh</w>":4966,"lol</w>":4967,"loang</w>":4968,"ngưỡng</w>":4969,"mạg</w>":4970,"mạch</w>":4971,"wif</w>":4972,"két</w>":4973,"kémmáy</w>":4974,"mặn</w>":4975,"tí</w>":4976,"tien</w>":4977,"tiéng</w>":4978,"đám</w>":4979,"đáh</w>":4980,"làng</w>":4981,"hom</w>":4982,"hoạc</w>":4983,"tgdt</w>":4984,"onon":4985,"onic</w>":4986,"nog</w>":4987,"now</w>":4988,"noki":4989,"mis</w>":4990,"mi4</w>":4991,"from</w>":4992,"ngoai</w>":4993,"chip":4994,"chị</w>":4995,"chiu</w>":4996,"chinh</w>":4997,"chíp</w>":4998,"active":4999,"pper</w>":5000,"khoi</w>":5001,"khoang</w>":5002,"khỏe</w>":5003,"khoảng":5004,"wep</w>":5005,"weil</w>":5006,"websi":5007,"kiu</w>":5008,"kien</w>":5009,"kirin</w>":5010,"bom</w>":5011,"vismart</w>":5012,"vita</w>":5013,"vivu</w>":5014,"toang</w>":5015,"toẹt</w>":5016,"sexy</w>":5017,"ros</w>":5018,"rora</w>":5019,"chui</w>":5020,"chuỗi</w>":5021,"chút</w>":5022,"coa</w>":5023,"code</w>":5024,"codm</w>":5025,"liti</w>":5026,"lipo</w>":5027,"xiaomi":5028,"text</w>":5029,"cuc</w>":5030,"ant</w>":5031,"anti</w>":5032,"aoke</w>":5033,"marco</w>":5034,"duc</w>":5035,"dug</w>":5036,"ght</w>":5037,"ghế</w>":5038,"ghìm</w>":5039,"ghép</w>":5040,"ghóp</w>":5041,"lẽ</w>":5042,"góc</w>":5043,"hien</w>":5044,"hieu</w>":5045,"androi10</w>":5046,"2015</w>":5047,"moi</w>":5048,"momo</w>":5049,"mood</w>":5050,"chuyen</w>":5051,"thị</w>":5052,"thít</w>":5053,"huwei</w>":5054,"huweil</w>":5055,"thuê</w>":5056,"tưở":5057,"nhà</w>":5058,"nhánh</w>":5059,"tool</w>":5060,"họt</w>":5061,"họp</w>":5062,"tóc</w>":5063,"senge</w>":5064,"sum</w>":5065,"đaq</w>":5066,"tội</w>":5067,"ip5</w>":5068,"ipx</w>":5069,"ipad</w>":5070,"đeu</w>":5071,"garena</w>":5072,"hạng</w>":5073,"hawai</w>":5074,"joi3</w>":5075,"tac</w>":5076,"tag</w>":5077,"câc</w>":5078,"cận</w>":5079,"cầu</w>":5080,"diem</w>":5081,"dịp</w>":5082,"dien":5083,"mobiistar</w>":5084,"muôn</w>":5085,"muợt</w>":5086,"mùa</w>":5087,"xoq</w>":5088,"đồng</w>":5089,"note4</w>":5090,"ark</w>":5091,"apps</w>":5092,"nhìn</w>":5093,"nhiẹt</w>":5094,"nhựa</w>":5095,"bal</w>":5096,"phút</w>":5097,"rieng</w>":5098,"tât</w>":5099,"tuyết</w>":5100,"sự</w>":5101,"sườn</w>":5102,"pig</w>":5103,"nhât</w>":5104,"nhập</w>":5105,"snapdr":5106,"biệt</w>":5107,"demo</w>":5108,"tiếng</w>":5109,"tiện</w>":5110,"tiếp</w>":5111,"điẹn</w>":5112,"típ</w>":5113,"đuổi</w>":5114,"đuợc</w>":5115,"đề</w>":5116,"vinfa":5117,"vinmart</w>":5118,"beat</w>":5119,"exel</w>":5120,"ver":5121,"đoàn</w>":5122,"nhuận</w>":5123,"cườg</w>":5124,"intel</w>":5125,"chau</w>":5126,"mắt</w>":5127,"space</w>":5128,"thiêt</w>":5129,"chọn</w>":5130,"chorme</w>":5131,"lắng</w>":5132,"xuôi</w>":5133,"xuất</w>":5134,"joy2</w>":5135,"hello</w>":5136,"netfli":5137,"super":5138,"shipper</w>":5139,"geme</w>":5140,"hiển</w>":5141,"huyết</w>":5142,"vietnam</w>":5143,"aurora</w>":5144,"fabook</w>":5145,"hơp</w>":5146,"lệnh</w>":5147,"truớc</w>":5148,"13990</w>":5149,"50000</w>":5150,"nút</w>":5151,"trạng</w>":5152,"tý</w>":5153,"chấp</w>":5154,"not8</w>":5155,"not4</w>":5156,"not10</w>":5157,"iphons</w>":5158,"tưởng</w>":5159,"ram6</w>":5160,"ram4</w>":5161,"watch</w>":5162,"waifu</w>":5163,"yotube</w>":5164,"đưoc</w>":5165,"media</w>":5166,"bênh</w>":5167,"clans</w>":5168,"clash</w>":5169,"sáu</w>":5170,"lực</w>":5171,"liêm</w>":5172,"mjh</w>":5173,"okay</w>":5174,"okok</w>":5175,"ssa50</w>":5176,"ssa51</w>":5177,"xxxx":5178,"đỡ</w>":5179,"nhỏ</w>":5180,"tgdd":5181,"22222222":5182,"a53</w>":5183,"feed":5184,"fect</w>":5185,"pas</w>":5186,"chênh</w>":5187,"chết</w>":5188,"samsum</w>":5189,"video":5190,"videos</w>":5191,"legend</w>":5192,"1280</w>":5193,"cùg</w>":5194,"dòg</w>":5195,"drive</w>":5196,"edge</w>":5197,"hjhj</w>":5198,"hộ</w>":5199,"hỗ</w>":5200,"kỳ</w>":5201,"kỷ</w>":5202,"mỗi</w>":5203,"promax</w>":5204,"rank</w>":5205,"trí</w>":5206,"phát</w>":5207,"mayxanh</w>":5208,"oppo5</w>":5209,"color</w>":5210,"redmi8</w>":5211,"music</w>":5212,"musik</w>":5213,"cúi</w>":5214,"crash</w>":5215,"eur</w>":5216,"gr5</w>":5217,"gyro</w>":5218,"gane</w>":5219,"ltps</w>":5220,"lầm</w>":5221,"rớt</w>":5222,"stant</w>":5223,"stream</w>":5224,"untra</w>":5225,"urllink</w>":5226,"wow</w>":5227,"đệm</w>":5228,"thuyết</w>":5229,"trừ</w>":5230,"giác</w>":5231,"giuộc</w>":5232,"photo</w>":5233,"qualcom</w>":5234,"realme5</w>":5235,"messges</w>":5236,"hayday</w>":5237,"excel</w>":5238,"sim1</w>":5239,"fullhd</w>":5240,"gorilla</w>":5241,"apk":5242,"avatar</w>":5243,"assistant</w>":5244,"brand</w>":5245,"cskh</w>":5246,"credit</w>":5247,"crush</w>":5248,"global</w>":5249,"karaoke</w>":5250,"lênh</w>":5251,"lpus</w>":5252,"mgía</w>":5253,"nano</w>":5254,"next</w>":5255,"prim</w>":5256,"perfect</w>":5257,"ròy</w>":5258,"sập</w>":5259,"sớm</w>":5260,"word</w>":5261,"đắk</w>":5262,"được1</w>":5263,"triển</w>":5264,"renno4</w>":5265,"nokia5</w>":5266,"active3</w>":5267,"dienmayxanh</w>":5268,"vinfast</w>":5269,"netflix</w>":5270,"feedback</w>":5271}