{
  "version": "1.0",
  "truncation": null,
  "padding": null,
  "added_tokens": [
    {
      "id": 0,
      "content": "<pad>",
      "single_word": false,
      "lstrip": false,
      "rstrip": false,
      "normalized": false,
      "special": true
    },
    {
      "id": 1,
      "content": "<unk>",
      "single_word": false,
      "lstrip": false,
      "rstrip": false,
      "normalized": false,
      "special": true
    },
    {
      "id": 2,
      "content": "<bos>",
      "single_word": false,
      "lstrip": false,
      "rstrip": false,
      "normalized": false,
      "special": true
    },
    {
      "id": 3,
      "content": "<eos>",
      "single_word": false,
      "lstrip": false,
      "rstrip": false,
      "normalized": false,
      "special": true
    }
  ],
  "normalizer": {
    "type": "Sequence",
    "normalizers": [
      {
        "type": "NFKC"
      },
      {
        "type": "Strip",
        "strip_left": true,
        "strip_right": true
      },
      {
        "type": "Replace",
        "pattern": {
          "String": "\\s{2,}"
        },
        "content": " "
      },
      {
        "type": "Lowercase"
      },
      {
        "type": "Replace",
        "pattern": {
          "Regex": "\\b(ko)\\b"
        },
        "content": "không"
      },
      {
        "type": "Replace",
        "pattern": {
          "Regex": "\\b(đc)\\b"
        },
        "content": "được"
      },
      {
        "type": "Replace",
        "pattern": {
          "Regex": "\\b(dc)\\b"
        },
        "content": "được"
      },
      {
        "type": "Replace",
        "pattern": {
          "Regex": "\\b(tgdd)\\b"
        },
        "content": "thegioididong"
      },
      {
        "type": "Replace",
        "pattern": {
          "Regex": "\\b(vs)\\b"
        },
        "content": "với"
      },
      {
        "type": "Replace",
        "pattern": {
          "Regex": "\\b(sp)\\b"
        },
        "content": "sản phẩm"
      },
      {
        "type": "Replace",
        "pattern": {
          "Regex": "\\b(fb)\\b"
        },
        "content": "facebook"
      },
      {
        "type": "Replace",
        "pattern": {
          "Regex": "\\b(dt)\\b"
        },
        "content": "điện thoại"
      },
      {
        "type": "Replace",
        "pattern": {
          "Regex": "\\b(tgdđ)\\b"
        },
        "content": "thegioididong"
      },
      {
        "type": "Replace",
        "pattern": {
          "Regex": "\\b(nv)\\b"
        },
        "content": "nhân viên"
      },
      {
        "type": "Replace",
        "pattern": {
          "Regex": "\\b(ss)\\b"
        },
        "content": "samsung"
      },
      {
        "type": "Replace",
        "pattern": {
          "Regex": "\\b(ip)\\b"
        },
        "content": "iphone"
      },
      {
        "type": "Replace",
        "pattern": {
          "Regex": "\\b(oke)\\b"
        },
        "content": "ok"
      },
      {
        "type": "Replace",
        "pattern": {
          "Regex": "\\b(mk)\\b"
        },
        "content": "mình"
      },
      {
        "type": "Replace",
        "pattern": {
          "Regex": "\\b(sd)\\b"
        },
        "content": "sử dụng"
      },
      {
        "type": "Replace",
        "pattern": {
          "Regex": "\\b(ae)\\b"
        },
        "content": "anh em"
      },
      {
        "type": "Replace",
        "pattern": {
          "Regex": "\\b(lq)\\b"
        },
        "content": "liên quân"
      },
      {
        "type": "Replace",
        "pattern": {
          "Regex": "\\b(lqmb)\\b"
        },
        "content": "liên quân mobile"
      },
      {
        "type": "Replace",
        "pattern": {
          "Regex": "\\b(lun)\\b"
        },
        "content": "luôn"
      },
      {
        "type": "Replace",
        "pattern": {
          "Regex": "\\b(ng)\\b"
        },
        "content": "người"
      },
      {
        "type": "Replace",
        "pattern": {
          "Regex": "\\b(ad)\\b"
        },
        "content": "admin"
      },
      {
        "type": "Replace",
        "pattern": {
          "Regex": "\\b(ms)\\b"
        },
        "content": "mới"
      },
      {
        "type": "Replace",
        "pattern": {
          "Regex": "\\b(cx)\\b"
        },
        "content": "cũng"
      },
      {
        "type": "Replace",
        "pattern": {
          "Regex": "\\b(nhìu)\\b"
        },
        "content": "nhiều"
      },
      {
        "type": "Replace",
        "pattern": {
          "Regex": "\\b(bth)\\b"
        },
        "content": "bình thường"
      },
      {
        "type": "Replace",
        "pattern": {
          "Regex": "\\b(bthg)\\b"
        },
        "content": "bình thường"
      }
    ]
  },
  "pre_tokenizer": {
    "type": "Sequence",
    "pretokenizers": [
      {
        "type": "Split",
        "pattern": {
          "Regex": "[😀-🙏🌀-🗿🚀-🛿🇠-🇿✂-➰Ⓜ-🉑🤦-🤷𐀀-􏿿‍♀-♂☀-⭕⏏⏩⌚〰️√]"
        },
        "behavior": "Isolated",
        "invert": false
      },
      {
        "type": "Digits",
        "individual_digits": false
      },
      {
        "type": "Split",
        "pattern": {
          "Regex": "[!\"\\#\\$%\\&'\\(\\)\\*\\+,\\-\\./:;<=>\\?@\\[\\\\\\]\\^`\\{\\|\\}\\~]"
        },
        "behavior": "Isolated",
        "invert": false
      },
      {
        "type": "WhitespaceSplit"
      }
    ]
  },
  "post_processor": {
    "type": "Sequence",
    "processors": [
      {
        "type": "TemplateProcessing",
        "single": [
          {
            "SpecialToken": {
              "id": "<bos>",
              "type_id": 0
            }
          },
          {
            "Sequence": {
              "id": "A",
              "type_id": 9
            }
          },
          {
            "SpecialToken": {
              "id": "<eos>",
              "type_id": 0
            }
          }
        ],
        "pair": [
          {
            "SpecialToken": {
              "id": "<bos>",
              "type_id": 0
            }
          },
          {
            "Sequence": {
              "id": "A",
              "type_id": 0
            }
          },
          {
            "SpecialToken": {
              "id": "<eos>",
              "type_id": 0
            }
          },
          {
            "Sequence": {
              "id": "B",
              "type_id": 1
            }
          },
          {
            "SpecialToken": {
              "id": "<eos>",
              "type_id": 1
            }
          }
        ],
        "special_tokens": {
          "<bos>": {
            "id": "<bos>",
            "ids": [
              2
            ],
            "tokens": [
              "<bos>"
            ]
          },
          "<eos>": {
            "id": "<eos>",
            "ids": [
              3
            ],
            "tokens": [
              "<eos>"
            ]
          }
        }
      }
    ]
  },
  "decoder": {
    "type": "BPEDecoder",
    "suffix": "</w>"
  },
  "model": {
    "type": "BPE",
    "dropout": null,
    "unk_token": "<unk>",
    "continuing_subword_prefix": "##",
    "end_of_word_suffix": null,
    "fuse_unk": false,
    "byte_fallback": false,
    "ignore_merges": false,
    "vocab": {
      "<pad>": 0,
      "<unk>": 1,
      "<bos>": 2,
      "<eos>": 3,
      "!": 4,
      "\"": 5,
      "#": 6,
      "%": 7,
      "&": 8,
      "'": 9,
      "(": 10,
      ")": 11,
      "*": 12,
      "+": 13,
      ",": 14,
      "-": 15,
      ".": 16,
      "/": 17,
      "0": 18,
      "1": 19,
      "2": 20,
      "3": 21,
      "4": 22,
      "5": 23,
      "6": 24,
      "7": 25,
      "8": 26,
      "9": 27,
      ":": 28,
      ";": 29,
      "<": 30,
      "=": 31,
      ">": 32,
      "?": 33,
      "@": 34,
      "[": 35,
      "\\": 36,
      "]": 37,
      "^": 38,
      "_": 39,
      "`": 40,
      "a": 41,
      "b": 42,
      "c": 43,
      "d": 44,
      "e": 45,
      "f": 46,
      "g": 47,
      "h": 48,
      "i": 49,
      "j": 50,
      "k": 51,
      "l": 52,
      "m": 53,
      "n": 54,
      "o": 55,
      "p": 56,
      "q": 57,
      "r": 58,
      "s": 59,
      "t": 60,
      "u": 61,
      "v": 62,
      "w": 63,
      "x": 64,
      "y": 65,
      "z": 66,
      "{": 67,
      "|": 68,
      "}": 69,
      "~": 70,
      "°": 71,
      "×": 72,
      "à": 73,
      "á": 74,
      "â": 75,
      "ã": 76,
      "è": 77,
      "é": 78,
      "ê": 79,
      "ì": 80,
      "í": 81,
      "ò": 82,
      "ó": 83,
      "ô": 84,
      "õ": 85,
      "÷": 86,
      "ù": 87,
      "ú": 88,
      "ý": 89,
      "ă": 90,
      "ą": 91,
      "đ": 92,
      "ě": 93,
      "ĩ": 94,
      "ő": 95,
      "ũ": 96,
      "ū": 97,
      "ơ": 98,
      "ư": 99,
      "ǹ": 100,
      "̀": 101,
      "́": 102,
      "̉": 103,
      "̣": 104,
      "ạ": 105,
      "ả": 106,
      "ấ": 107,
      "ầ": 108,
      "ẩ": 109,
      "ẫ": 110,
      "ậ": 111,
      "ắ": 112,
      "ằ": 113,
      "ẳ": 114,
      "ẵ": 115,
      "ặ": 116,
      "ẹ": 117,
      "ẻ": 118,
      "ẽ": 119,
      "ế": 120,
      "ề": 121,
      "ể": 122,
      "ễ": 123,
      "ệ": 124,
      "ỉ": 125,
      "ị": 126,
      "ọ": 127,
      "ỏ": 128,
      "ố": 129,
      "ồ": 130,
      "ổ": 131,
      "ỗ": 132,
      "ộ": 133,
      "ớ": 134,
      "ờ": 135,
      "ở": 136,
      "ỡ": 137,
      "ợ": 138,
      "ụ": 139,
      "ủ": 140,
      "ứ": 141,
      "ừ": 142,
      "ử": 143,
      "ữ": 144,
      "ự": 145,
      "ỳ": 146,
      "ỵ": 147,
      "ỷ": 148,
      "ỹ": 149,
      "–": 150,
      "’": 151,
      "•": 152,
      "₫": 153,
      "∆": 154,
      "√": 155,
      "☆": 156,
      "☹": 157,
      "☺": 158,
      "♥": 159,
      "✋": 160,
      "✓": 161,
      "❤": 162,
      "⬆": 163,
      "⭐": 164,
      "。": 165,
      "冷": 166,
      "廊": 167,
      "掠": 168,
      "朗": 169,
      "樂": 170,
      "殺": 171,
      "浪": 172,
      "珞": 173,
      "盧": 174,
      "臘": 175,
      "若": 176,
      "藍": 177,
      "蠟": 178,
      "裸": 179,
      "襤": 180,
      "郎": 181,
      "": 182,
      "": 183,
      "": 184,
      "": 185,
      "": 186,
      "": 187,
      "": 188,
      "": 189,
      "": 190,
      "": 191,
      "": 192,
      "": 193,
      "": 194,
      "": 195,
      "": 196,
      "": 197,
      "": 198,
      "": 199,
      "": 200,
      "": 201,
      "": 202,
      "": 203,
      "": 204,
      "": 205,
      "": 206,
      "": 207,
      "": 208,
      "": 209,
      "": 210,
      "": 211,
      "": 212,
      "": 213,
      "": 214,
      "": 215,
      "": 216,
      "": 217,
      "": 218,
      "": 219,
      "": 220,
      "": 221,
      "": 222,
      "": 223,
      "": 224,
      "": 225,
      "": 226,
      "": 227,
      "": 228,
      "": 229,
      "": 230,
      "": 231,
      "": 232,
      "": 233,
      "": 234,
      "": 235,
      "": 236,
      "": 237,
      "": 238,
      "": 239,
      "": 240,
      "": 241,
      "": 242,
      "": 243,
      "": 244,
      "": 245,
      "️": 246,
      "￲": 247,
      "##1": 248,
      "##0": 249,
      "##g": 250,
      "##h": 251,
      "##ẽ": 252,
      "##e": 253,
      "##v": 254,
      "##i": 255,
      "##w": 256,
      "##2": 257,
      "##n": 258,
      "##f": 259,
      "##a": 260,
      "##s": 261,
      "##t": 262,
      "##ầ": 263,
      "##_": 264,
      "##ế": 265,
      "##ạ": 266,
      "##ấ": 267,
      "##ư": 268,
      "##ớ": 269,
      "##c": 270,
      "##u": 271,
      "##ố": 272,
      "##í": 273,
      "##á": 274,
      "##r": 275,
      "##p": 276,
      "##ô": 277,
      "##ê": 278,
      "##ứ": 279,
      "##ú": 280,
      "##m": 281,
      "##à": 282,
      "##ì": 283,
      "##x": 284,
      "##é": 285,
      "##l": 286,
      "##ở": 287,
      "##b": 288,
      "##o": 289,
      "##d": 290,
      "##k": 291,
      "##8": 292,
      "##ồ": 293,
      "##ò": 294,
      "##â": 295,
      "##y": 296,
      "##ỏ": 297,
      "##ờ": 298,
      "##ẹ": 299,
      "##ệ": 300,
      "##9": 301,
      "##ắ": 302,
      "##ả": 303,
      "##ổ": 304,
      "##ộ": 305,
      "##ữ": 306,
      "##ó": 307,
      "##7": 308,
      "##ằ": 309,
      "##ỉ": 310,
      "##ậ": 311,
      "##ẫ": 312,
      "##ă": 313,
      "##õ": 314,
      "##ụ": 315,
      "##q": 316,
      "##5": 317,
      "##ẩ": 318,
      "##è": 319,
      "##ị": 320,
      "##đ": 321,
      "##ợ": 322,
      "##ý": 323,
      "##ẳ": 324,
      "##ã": 325,
      "##ù": 326,
      "##ự": 327,
      "##ơ": 328,
      "##4": 329,
      "##ọ": 330,
      "##ề": 331,
      "##ử": 332,
      "##ỹ": 333,
      "##ỗ": 334,
      "##ể": 335,
      "##ừ": 336,
      "##6": 337,
      "##z": 338,
      "##ặ": 339,
      "##ỡ": 340,
      "##j": 341,
      "##•": 342,
      "##ẻ": 343,
      "##ũ": 344,
      "##3": 345,
      "##ủ": 346,
      "##ĩ": 347,
      "##ẵ": 348,
      "##ỷ": 349,
      "##ễ": 350,
      "##ỳ": 351,
      "##ỵ": 352,
      "##ǹ": 353,
      "##ő": 354,
      "##ě": 355,
      "##́": 356,
      "##̉": 357,
      "##ū": 358,
      "##ą": 359,
      "##ng": 360,
      "##nh": 361,
      "th": 362,
      "ch": 363,
      "nh": 364,
      "kh": 365,
      "##n_": 366,
      "##ình": 367,
      "##ượ": 368,
      "##áy": 369,
      "máy": 370,
      "##ất": 371,
      "##ua": 372,
      "tr": 373,
      "##ông": 374,
      "##am": 375,
      "##in": 376,
      "không": 377,
      "ng": 378,
      "pin": 379,
      "##ới": 380,
      "mua": 381,
      "##ên": 382,
      "##ược": 383,
      "thì": 384,
      "được": 385,
      "##iệ": 386,
      "##_t": 387,
      "##ame": 388,
      "rất": 389,
      "mà": 390,
      "gi": 391,
      "##ày": 392,
      "##ài": 393,
      "##ơi": 394,
      "là": 395,
      "như": 396,
      "ph": 397,
      "có": 398,
      "##ại": 399,
      "tố": 400,
      "mình": 401,
      "nó": 402,
      "##ay": 403,
      "qu": 404,
      "##ùng": 405,
      "##ch": 406,
      "##i_": 407,
      "##ấy": 408,
      "##iế": 409,
      "##âu": 410,
      "mới": 411,
      "tốt": 412,
      "và": 413,
      "game": 414,
      "##ong": 415,
      "dùng": 416,
      "sa": 417,
      "ok": 418,
      "chơi": 419,
      "##ung": 420,
      "quá": 421,
      "##on": 422,
      "##anh": 423,
      "##iề": 424,
      "##t_": 425,
      "nhưng": 426,
      "##áng": 427,
      "##ẹp": 428,
      "bị": 429,
      "giá": 430,
      "đẹp": 431,
      "cá": 432,
      "cả": 433,
      "##ạc": 434,
      "này": 435,
      "mượ": 436,
      "##ần": 437,
      "##ph": 438,
      "tu": 439,
      "##hình": 440,
      "khá": 441,
      "##ầm": 442,
      "##ra": 443,
      "##_l": 444,
      "nhanh": 445,
      "##ân": 446,
      "##_d": 447,
      "cũ": 448,
      "##_v": 449,
      "sạc": 450,
      "##iên": 451,
      "##gi": 452,
      "##n_t": 453,
      "mượt": 454,
      "##m_": 455,
      "ngày": 456,
      "với": 457,
      "came": 458,
      "cũng": 459,
      "##id": 460,
      "##_th": 461,
      "ổn": 462,
      "camera": 463,
      "chụ": 464,
      "##òn": 465,
      "chụp": 466,
      "còn": 467,
      "##ụng": 468,
      "##ơn": 469,
      "thấy": 470,
      "lại": 471,
      "##ọi": 472,
      "##ời": 473,
      "##ỗi": 474,
      "##iều": 475,
      "##ật": 476,
      "xài": 477,
      "tầm": 478,
      "sả": 479,
      "##ẩm": 480,
      "trâu": 481,
      "##ao": 482,
      "cho": 483,
      "hơn": 484,
      "##u_": 485,
      "##n_hình": 486,
      "khi": 487,
      "màn_hình": 488,
      "về": 489,
      "##_dụng": 490,
      "##ồi": 491,
      "nên": 492,
      "chỉ": 493,
      "##n_ph": 494,
      "##ướ": 495,
      "trong": 496,
      "##ân_": 497,
      "hơi": 498,
      "##úc": 499,
      "##ải": 500,
      "##_h": 501,
      "##iệt": 502,
      "sử": 503,
      "##n_phẩm": 504,
      "lỗi": 505,
      "sản_phẩm": 506,
      "##_đ": 507,
      "##iê": 508,
      "cảm_": 509,
      "tay": 510,
      "##ắt": 511,
      "tháng": 512,
      "##ân_v": 513,
      "##ôi": 514,
      "hình": 515,
      "đã": 516,
      "##ết": 517,
      "ngh": 518,
      "##ân_viên": 519,
      "nhân_viên": 520,
      "rồi": 521,
      "để": 522,
      "hay": 523,
      "##ạy": 524,
      "lo": 525,
      "nhiều": 526,
      "lúc": 527,
      "sao": 528,
      "củ": 529,
      "mọi": 530,
      "cái": 531,
      "con": 532,
      "##_nh": 533,
      "ra": 534,
      "điệ": 535,
      "##oại": 536,
      "##àng": 537,
      "sử_dụng": 538,
      "sài": 539,
      "##uô": 540,
      "##c_": 541,
      "sau": 542,
      "##òng": 543,
      "##n_th": 544,
      "##ưa": 545,
      "##ẫn": 546,
      "tuy": 547,
      "##i_ch": 548,
      "phải": 549,
      "##ắm": 550,
      "##ận": 551,
      "##em": 552,
      "##iể": 553,
      "nhiệt": 554,
      "gì": 555,
      "hết": 556,
      "của": 557,
      "nói_ch": 558,
      "vẫn": 559,
      "##ứng": 560,
      "vân": 561,
      "nghe": 562,
      "##00": 563,
      "the": 564,
      "các": 565,
      "ngon": 566,
      "nói_chung": 567,
      "##_tình": 568,
      "nóng": 569,
      "nhiệt_tình": 570,
      "chưa": 571,
      "thứ": 572,
      "##ục": 573,
      "##ổi": 574,
      "lắm": 575,
      "##_c": 576,
      "##ếu": 577,
      "##ang": 578,
      "##uôn": 579,
      "##oid": 580,
      "##uy": 581,
      "la": 582,
      "luôn": 583,
      "##nh_": 584,
      "loa": 585,
      "##iết": 586,
      "qua": 587,
      "##ọng": 588,
      "##ào": 589,
      "đầ": 590,
      "##iền": 591,
      "lâu": 592,
      "##ột": 593,
      "##ữa": 594,
      "ngư": 595,
      "mạ": 596,
      "##ậy": 597,
      "người": 598,
      "tệ": 599,
      "##ạn": 600,
      "tuyệ": 601,
      "##uố": 602,
      "##_tr": 603,
      "##fi": 604,
      "lên": 605,
      "kho": 606,
      "##ắc": 607,
      "##án": 608,
      "cấ": 609,
      "tiế": 610,
      "##gioid": 611,
      "##idong": 612,
      "##gioididong": 613,
      "thegioididong": 614,
      "##ước": 615,
      "ảnh": 616,
      "lag": 617,
      "wi": 618,
      "##ượng": 619,
      "##iện": 620,
      "##ăng": 621,
      "khác": 622,
      "em": 623,
      "bả": 624,
      "##n_thoại": 625,
      "điện_thoại": 626,
      "##ườ": 627,
      "xem": 628,
      "nói": 629,
      "10": 630,
      "liê": 631,
      "##ường": 632,
      "nữa": 633,
      "wifi": 634,
      "đề": 635,
      "sam": 636,
      "##ỏi": 637,
      "mấy": 638,
      "tư": 639,
      "lần": 640,
      "##ụt": 641,
      "vào": 642,
      "ké": 643,
      "đều": 644,
      "đổi": 645,
      "##u_hình": 646,
      "cấu_hình": 647,
      "bạn": 648,
      "biết": 649,
      "##ích": 650,
      "##ập": 651,
      "hàng": 652,
      "##ét": 653,
      "##ừa": 654,
      "nào": 655,
      "tôi": 656,
      "đơ": 657,
      "##ộng": 658,
      "##oo": 659,
      "##ặt": 660,
      "sáng": 661,
      "từ": 662,
      "ma": 663,
      "đt": 664,
      "tuần": 665,
      "đế": 666,
      "##ạm": 667,
      "##sung": 668,
      "##áo": 669,
      "##iến": 670,
      "to": 671,
      "kém": 672,
      "##ực": 673,
      "##óng": 674,
      "thất": 675,
      "đến": 676,
      "##im": 677,
      "##ác": 678,
      "##ảng": 679,
      "samsung": 680,
      "tụt": 681,
      "vừa": 682,
      "hài": 683,
      "nhạy": 684,
      "chạy": 685,
      "vậy": 686,
      "##ub": 687,
      "thiế": 688,
      "##ai": 689,
      "##êm": 690,
      "##n_đ": 691,
      "trước": 692,
      "##_vọng": 693,
      "giật": 694,
      "##_lòng": 695,
      "cảm_ứng": 696,
      "##_vụ": 697,
      "hô": 698,
      "##t_v": 699,
      "ho": 700,
      "##eb": 701,
      "##ành": 702,
      "thích": 703,
      "hài_lòng": 704,
      "##ấn": 705,
      "##pp": 706,
      "##t_k": 707,
      "cam": 708,
      "tiền": 709,
      "##ây": 710,
      "##t_vời": 711,
      "tuyệt_vời": 712,
      "thất_vọng": 713,
      "cao": 714,
      "##ịnh": 715,
      "thôi": 716,
      "##iệm": 717,
      "##ướt": 718,
      "bắt": 719,
      "đá": 720,
      "so": 721,
      "tạm": 722,
      "##út": 723,
      "##qu": 724,
      "##năng": 725,
      "##al": 726,
      "nhất": 727,
      "##n_m": 728,
      "đi": 729,
      "##_lượng": 730,
      "liên_": 731,
      "gọi": 732,
      "mở": 733,
      "đang": 734,
      "ứng": 735,
      "##iểm": 736,
      "chứ": 737,
      "vì": 738,
      "sóng": 739,
      "tự": 740,
      "##m_th": 741,
      "##_m": 742,
      "trả": 743,
      "nét": 744,
      "##ac": 745,
      "lướt": 746,
      "no": 747,
      "##an": 748,
      "##te": 749,
      "gần": 750,
      "một": 751,
      "yếu": 752,
      "##giá": 753,
      "thiết_k": 754,
      "thiết_kế": 755,
      "bảo": 756,
      "20": 757,
      "##_b": 758,
      "##ậm": 759,
      "chê": 760,
      "sẽ": 761,
      "##en": 762,
      "mất": 763,
      "##_ch": 764,
      "##quân": 765,
      "hiệ": 766,
      "##_vấn": 767,
      "tư_vấn": 768,
      "liên_quân": 769,
      "ai": 770,
      "tắt": 771,
      "##ut": 772,
      "làm": 773,
      "##one": 774,
      "tiếng": 775,
      "##ấp": 776,
      "chậm": 777,
      "##t_m": 778,
      "##ợp": 779,
      "##i_đ": 780,
      "đầu": 781,
      "##ằng": 782,
      "##ơng": 783,
      "##ức": 784,
      "chất": 785,
      "##ồn": 786,
      "giờ": 787,
      "##phone": 788,
      "ứng_dụng": 789,
      "bình": 790,
      "mạng": 791,
      "đáng": 792,
      "##ặc": 793,
      "##_s": 794,
      "fac": 795,
      "##ngh": 796,
      "chán": 797,
      "ngo": 798,
      "##iệu": 799,
      "thế": 800,
      "đầy": 801,
      "##ững": 802,
      "nếu": 803,
      "##eo": 804,
      "đó": 805,
      "iphone": 806,
      "##uồn": 807,
      "chi": 808,
      "những": 809,
      "##iểu": 810,
      "cập": 811,
      "tí": 812,
      "phục": 813,
      "do": 814,
      "##àn": 815,
      "cực": 816,
      "cứ": 817,
      "dòng": 818,
      "đánh_": 819,
      "mong": 820,
      "độ": 821,
      "trên": 822,
      "mạnh": 823,
      "đánh_giá": 824,
      "màu": 825,
      "##ppo": 826,
      "mượt_m": 827,
      "ngoài": 828,
      "mượt_mà": 829,
      "bằng": 830,
      "##_nhật": 831,
      "oppo": 832,
      "##_thường": 833,
      "##uốn": 834,
      "##mi": 835,
      "chất_lượng": 836,
      "rõ": 837,
      "phục_vụ": 838,
      "##ook": 839,
      "##ặng": 840,
      "##inh": 841,
      "##iêu": 842,
      "cập_nhật": 843,
      "muốn": 844,
      "##át": 845,
      "đồ": 846,
      "##ối": 847,
      "##ebook": 848,
      "##ầu": 849,
      "tại": 850,
      "##ản": 851,
      "cầm": 852,
      "##ro": 853,
      "facebook": 854,
      "mỗi": 855,
      "##_gi": 856,
      "phẩm": 857,
      "##uyên": 858,
      "nha": 859,
      "nhì": 860,
      "re": 861,
      "##ực_": 862,
      "yo": 863,
      "##kh": 864,
      "nhận": 865,
      "cảm_th": 866,
      "##_cả": 867,
      "cảm_thấy": 868,
      "##_n": 869,
      "sản": 870,
      "tới": 871,
      "##ống": 872,
      "tuột": 873,
      "##i_động": 874,
      "##ương": 875,
      "yout": 876,
      "bật": 877,
      "hã": 878,
      "sang": 879,
      "##ính": 880,
      "bình_thường": 881,
      "dễ": 882,
      "nhỏ": 883,
      "##t_n": 884,
      "##ube": 885,
      "lư": 886,
      "hôm": 887,
      "##ăm": 888,
      "bao": 889,
      "mức": 890,
      "##et": 891,
      "##_hành": 892,
      "thua": 893,
      "nhẹ": 894,
      "giả": 895,
      "##ubg": 896,
      "##n_định": 897,
      "note": 898,
      "ổn_định": 899,
      "điện": 900,
      "youtube": 901,
      "khỏi": 902,
      "thêm": 903,
      "##_thể": 904,
      "chip": 905,
      "##ar": 906,
      "##ọn": 907,
      "dù": 908,
      "đâu": 909,
      "trung": 910,
      "hỏi": 911,
      "nhìn": 912,
      "nhạc": 913,
      "khó": 914,
      "##nghiệm": 915,
      "##qua": 916,
      "thoại": 917,
      "siêu": 918,
      "##ái": 919,
      "##úng": 920,
      "khoảng": 921,
      "hôm_": 922,
      "##biến": 923,
      "nguồn": 924,
      "##iv": 925,
      "thật": 926,
      "cảm_biến": 927,
      "##i_nghiệm": 928,
      "trải_nghiệm": 929,
      "pubg": 930,
      "##ận_": 931,
      "##t_s": 932,
      "đủ": 933,
      "##le": 934,
      "phim": 935,
      "11": 936,
      "bên": 937,
      "đêm": 938,
      "tất": 939,
      "##es": 940,
      "thờ": 941,
      "##uống": 942,
      "##ấm": 943,
      "tho": 944,
      "hãng": 945,
      "##ấu": 946,
      "mặt": 947,
      "vid": 948,
      "nhé": 949,
      "##lu": 950,
      "##000": 951,
      "tuyệt": 952,
      "viên": 953,
      "ít": 954,
      "##_độ": 955,
      "video": 956,
      "vài": 957,
      "##ng_h": 958,
      "tối": 959,
      "năm": 960,
      "rẻ": 961,
      "##i_h": 962,
      "đây": 963,
      "##âm": 964,
      "xuống": 965,
      "bảo_hành": 966,
      "100": 967,
      "điều": 968,
      "##ịu": 969,
      "nhân": 970,
      "##alo": 971,
      "mi": 972,
      "xi": 973,
      "khoẻ": 974,
      "lấy": 975,
      "##ắc_": 976,
      "nhận_": 977,
      "co": 978,
      "nay": 979,
      "##ửa": 980,
      "màn": 981,
      "thời_": 982,
      "zalo": 983,
      "kế": 984,
      "điểm": 985,
      "##mar": 986,
      "mờ": 987,
      "##ảnh": 988,
      "hiệu_": 989,
      "12": 990,
      "cần": 991,
      "việ": 992,
      "bỏ": 993,
      "dụng": 994,
      "##ui": 995,
      "##ọc": 996,
      "##_lại": 997,
      "đúng": 998,
      "bản": 999,
      "30": 1000,
      "mặc": 1001,
      "vô": 1002,
      "cách": 1003,
      "web": 1004,
      "##aomi": 1005,
      "xong": 1006,
      "##ừng": 1007,
      "##gian": 1008,
      "lớ": 1009,
      "lưng": 1010,
      "tất_cả": 1011,
      "thời_gian": 1012,
      "ủng_h": 1013,
      "##ội": 1014,
      "chắc": 1015,
      "ủng_hộ": 1016,
      "quay": 1017,
      "##mart": 1018,
      "xấu": 1019,
      "##_dù": 1020,
      "hiệu_năng": 1021,
      "ki": 1022,
      "##_ph": 1023,
      "phần": 1024,
      "##_hợp": 1025,
      "theo": 1026,
      "ram": 1027,
      "thậ": 1028,
      "phầ": 1029,
      "liên_t": 1030,
      "báo": 1031,
      "hợp": 1032,
      "nặng": 1033,
      "pro": 1034,
      "tác": 1035,
      "tai": 1036,
      "chu": 1037,
      "xiaomi": 1038,
      "liên_tục": 1039,
      "##re": 1040,
      "##ền": 1041,
      "số": 1042,
      "đa": 1043,
      "##_hàng": 1044,
      "##_nhiên": 1045,
      "bán": 1046,
      "gh": 1047,
      "hỗ": 1048,
      "triệu": 1049,
      "chế": 1050,
      "mặc_dù": 1051,
      "##_điều": 1052,
      "lớn": 1053,
      "##ợi": 1054,
      "thử": 1055,
      "an": 1056,
      "kiểu": 1057,
      "ưng": 1058,
      "##ắn": 1059,
      "thường": 1060,
      "##_lâu": 1061,
      "khoá": 1062,
      "cùng": 1063,
      "hao": 1064,
      "##u_đ": 1065,
      "##nhận": 1066,
      "cảm_nhận": 1067,
      "chiến": 1068,
      "##i_v": 1069,
      "##_trợ": 1070,
      "hỗ_trợ": 1071,
      "tình": 1072,
      "##ãi": 1073,
      "khuô": 1074,
      "##n_mặt": 1075,
      "khuôn_mặt": 1076,
      "anh": 1077,
      "sắc": 1078,
      "##me": 1079,
      "phí": 1080,
      "quảng": 1081,
      "cài": 1082,
      "##t_sự": 1083,
      "thật_sự": 1084,
      "##ạng": 1085,
      "đồng": 1086,
      "50": 1087,
      "vs": 1088,
      "##ỉnh": 1089,
      "nhà": 1090,
      "khuyên": 1091,
      "trừ": 1092,
      "mau": 1093,
      "gb": 1094,
      "hiện_t": 1095,
      "tác_vụ": 1096,
      "dung": 1097,
      "##i_l": 1098,
      "lâu_lâu": 1099,
      "##_ảnh": 1100,
      "##ềm": 1101,
      "bấm": 1102,
      "sim": 1103,
      "ngay": 1104,
      "max": 1105,
      "cực_": 1106,
      "như_v": 1107,
      "##_cáo": 1108,
      "cực_k": 1109,
      "xanh": 1110,
      "##u_c": 1111,
      "hôm_qua": 1112,
      "chế_độ": 1113,
      "quảng_cáo": 1114,
      "viv": 1115,
      "đem": 1116,
      "##90": 1117,
      "khở": 1118,
      "##uất": 1119,
      "##phục": 1120,
      "giảm": 1121,
      "như_vậy": 1122,
      "##ạt": 1123,
      "có_thể": 1124,
      "vivo": 1125,
      "thông": 1126,
      "##t_đ": 1127,
      "nhận_d": 1128,
      "vsmart": 1129,
      "hiểu": 1130,
      "khắc_": 1131,
      "##u_cầu": 1132,
      "khắc_phục": 1133,
      "âm_th": 1134,
      "##_k": 1135,
      "##êu": 1136,
      "âm_thanh": 1137,
      "15": 1138,
      "đừng": 1139,
      "##ựa": 1140,
      "đứng": 1141,
      "chiế": 1142,
      "hoặc": 1143,
      "##_giờ": 1144,
      "##lus": 1145,
      "ba": 1146,
      "ốp": 1147,
      "##ll": 1148,
      "phù": 1149,
      "##n_mềm": 1150,
      "phần_mềm": 1151,
      "plus": 1152,
      "##ấn_đ": 1153,
      "##uộ": 1154,
      "and": 1155,
      "khởi_động": 1156,
      "vấn_đ": 1157,
      "xo": 1158,
      "##_ý": 1159,
      "thi": 1160,
      "chuy": 1161,
      "vấn_đề": 1162,
      "chí": 1163,
      "##n_b": 1164,
      "bin": 1165,
      "đặ": 1166,
      "##ản_": 1167,
      "##óc": 1168,
      "##_tiền": 1169,
      "có_điều": 1170,
      "##t_nối": 1171,
      "kết_nối": 1172,
      "di_động": 1173,
      "mo": 1174,
      "chung": 1175,
      "##ảy": 1176,
      "chút": 1177,
      "bàn": 1178,
      "##biệt": 1179,
      "nhu_cầu": 1180,
      "##_lý": 1181,
      "##ps": 1182,
      "nhận_diện": 1183,
      "phù_hợp": 1184,
      "##i_m": 1185,
      "khách": 1186,
      "hd": 1187,
      "hình_ảnh": 1188,
      "##c_biệt": 1189,
      "mang": 1190,
      "##ân_th": 1191,
      "##ủng": 1192,
      "thấp": 1193,
      "chiếc": 1194,
      "##_kh": 1195,
      "tiếc": 1196,
      "thế_gi": 1197,
      "tải": 1198,
      "##_nào": 1199,
      "##t_nam": 1200,
      "việt_nam": 1201,
      "thế_giới": 1202,
      "##_x": 1203,
      "hố": 1204,
      "phân": 1205,
      "##ướng": 1206,
      "##ỏng": 1207,
      "##_chịu": 1208,
      "đò": 1209,
      "chọn": 1210,
      "khúc": 1211,
      "##_là": 1212,
      "red": 1213,
      "hai": 1214,
      "liên": 1215,
      "##ạch": 1216,
      "cơ": 1217,
      "fi": 1218,
      "##n_n": 1219,
      "khó_chịu": 1220,
      "70": 1221,
      "công": 1222,
      "fu": 1223,
      "tặng": 1224,
      "vu": 1225,
      "chu_đ": 1226,
      "chu_đáo": 1227,
      "bộ": 1228,
      "dư": 1229,
      "goo": 1230,
      "tui": 1231,
      "##_nhận": 1232,
      "##c_năng": 1233,
      "chức_năng": 1234,
      "tính_": 1235,
      "đặc_biệt": 1236,
      "cuộ": 1237,
      "tin": 1238,
      "##ánh": 1239,
      "tính_năng": 1240,
      "app": 1241,
      "rè": 1242,
      "##ing": 1243,
      "##ển": 1244,
      "##i_hận": 1245,
      "hối_hận": 1246,
      "bền": 1247,
      "##úi": 1248,
      "fps": 1249,
      "tes": 1250,
      "đọc": 1251,
      "cảm_ơn": 1252,
      "tuy_nhiên": 1253,
      "chấp": 1254,
      "màng": 1255,
      "phút": 1256,
      "quân": 1257,
      "cảm": 1258,
      "##_ho": 1259,
      "##_trọng": 1260,
      "redmi": 1261,
      "mn": 1262,
      "đen": 1263,
      "chính": 1264,
      "##giác": 1265,
      "cảm_giác": 1266,
      "việt": 1267,
      "##íu": 1268,
      "##roid": 1269,
      "##ởng": 1270,
      "nhảy": 1271,
      "làm_": 1272,
      "tương": 1273,
      "full": 1274,
      "xa": 1275,
      "##os": 1276,
      "##_tội": 1277,
      "thoả": 1278,
      "cực_kì": 1279,
      "5000": 1280,
      "dán": 1281,
      "bà": 1282,
      "hồi": 1283,
      "hiện": 1284,
      "xứng": 1285,
      "##20": 1286,
      "##oảng": 1287,
      "##_tra": 1288,
      "##iêng": 1289,
      "android": 1290,
      "sự": 1291,
      "giống": 1292,
      "sai": 1293,
      "##_động": 1294,
      "##_trạng": 1295,
      "##i_vẻ": 1296,
      "vui_vẻ": 1297,
      "dưới": 1298,
      "51": 1299,
      "bất": 1300,
      "ti": 1301,
      "ảo": 1302,
      "##er": 1303,
      "##mx": 1304,
      "##_thoảng": 1305,
      "tiếp": 1306,
      "cuộc_": 1307,
      "##th": 1308,
      "##_ngh": 1309,
      "thu": 1310,
      "##_cấp": 1311,
      "real": 1312,
      "sang_trọng": 1313,
      "coi": 1314,
      "tình_trạng": 1315,
      "xoá": 1316,
      "test": 1317,
      "buồn": 1318,
      "êm": 1319,
      "##gọi": 1320,
      "##ịch": 1321,
      "##ẳng": 1322,
      "thay": 1323,
      "nghĩ": 1324,
      "hiện_tượng": 1325,
      "chấp_nhận": 1326,
      "cửa": 1327,
      "hiể": 1328,
      "##ẩn": 1329,
      "giao": 1330,
      "cuộc_gọi": 1331,
      "bây": 1332,
      "mp": 1333,
      "chả": 1334,
      "##_nhiệm": 1335,
      "hoà": 1336,
      "mỗi_tội": 1337,
      "dung_lượng": 1338,
      "chuyển": 1339,
      "realme": 1340,
      "kính": 1341,
      "mes": 1342,
      "đô": 1343,
      "##ắng": 1344,
      "##_định": 1345,
      "##_mà": 1346,
      "##_bản": 1347,
      "cơ_bản": 1348,
      "##ia": 1349,
      "##ớt": 1350,
      "mah": 1351,
      "##i_hỏi": 1352,
      "chíp": 1353,
      "khách_hàng": 1354,
      "đòi_hỏi": 1355,
      "##_tiên": 1356,
      "loạn": 1357,
      "đa_nhiệm": 1358,
      "##i_mái": 1359,
      "thoải_mái": 1360,
      "mộ": 1361,
      "tậ": 1362,
      "viền": 1363,
      "##nay": 1364,
      "##ặp": 1365,
      "thân_th": 1366,
      "chờ": 1367,
      "may": 1368,
      "nút": 1369,
      "xíu": 1370,
      "##ạo": 1371,
      "##n_thị": 1372,
      "tự_động": 1373,
      "ad": 1374,
      "kêu": 1375,
      "li": 1376,
      "##ắp": 1377,
      "nổi": 1378,
      "on": 1379,
      "riêng": 1380,
      "ấm": 1381,
      "##ap": 1382,
      "##óp": 1383,
      "chỗ": 1384,
      "điện_m": 1385,
      "phím": 1386,
      "hiển_thị": 1387,
      "điện_máy": 1388,
      "anh_": 1389,
      "định": 1390,
      "##úp": 1391,
      "##ảo": 1392,
      "chạm": 1393,
      "##n_tr": 1394,
      "đầu_tiên": 1395,
      "kinh_": 1396,
      "4000": 1397,
      "##sắc": 1398,
      "##óm": 1399,
      "##n_tâm": 1400,
      "toàn": 1401,
      "hôm_nay": 1402,
      "túi": 1403,
      "ăn": 1404,
      "##kia": 1405,
      "chịu": 1406,
      "##n_l": 1407,
      "##_thương": 1408,
      "nhất_là": 1409,
      "dễ_thương": 1410,
      "gặp": 1411,
      "xin": 1412,
      "##el": 1413,
      "##min": 1414,
      "##xy": 1415,
      "##ăn": 1416,
      "##ùi": 1417,
      "chiều": 1418,
      "nhỉ": 1419,
      "kia": 1420,
      "cửa_hàng": 1421,
      "hộ": 1422,
      "##tt": 1423,
      "##ách": 1424,
      "thỉnh": 1425,
      "phát": 1426,
      "##uốt": 1427,
      "##i_lầm": 1428,
      "xuất": 1429,
      "##_r": 1430,
      "màu_": 1431,
      "##_như": 1432,
      "hợp_lý": 1433,
      "bác": 1434,
      "âm": 1435,
      "thể": 1436,
      "##_bình": 1437,
      "bây_giờ": 1438,
      "admin": 1439,
      "màu_sắc": 1440,
      "cục": 1441,
      "chị": 1442,
      "nhựa": 1443,
      "cải": 1444,
      "##n_phí": 1445,
      "##_đáng": 1446,
      "##nh_s": 1447,
      "mess": 1448,
      "thân_thiện": 1449,
      "kiểm": 1450,
      "nửa": 1451,
      "tóm": 1452,
      "##ho": 1453,
      "##ie": 1454,
      "##we": 1455,
      "##xét": 1456,
      "##ổng": 1457,
      "thương": 1458,
      "chữ": 1459,
      "60": 1460,
      "hệ": 1461,
      "rung": 1462,
      "đấy": 1463,
      "##nap": 1464,
      "##ầy": 1465,
      "ngoại": 1466,
      "giúp": 1467,
      "tối_": 1468,
      "thiếu": 1469,
      "##eno": 1470,
      "việc": 1471,
      "ưng_ý": 1472,
      "kiểm_tra": 1473,
      "phụ": 1474,
      "##_điểm": 1475,
      "##ooth": 1476,
      "face": 1477,
      "##khủng": 1478,
      "goog": 1479,
      "xứng_đáng": 1480,
      "kinh_khủng": 1481,
      "##at": 1482,
      "##_ng": 1483,
      "##kk": 1484,
      "thao": 1485,
      "chỉnh": 1486,
      "nokia": 1487,
      "trung_bình": 1488,
      "##ive": 1489,
      "đồng_tiền": 1490,
      "bàn_phí": 1491,
      "google": 1492,
      "bàn_phím": 1493,
      "xạc": 1494,
      "##âng": 1495,
      "##ửi": 1496,
      "khuy": 1497,
      "##_tác": 1498,
      "sai_lầm": 1499,
      "201": 1500,
      "##_hoạ": 1501,
      "71": 1502,
      "gọn": 1503,
      "hua": 1504,
      "sung": 1505,
      "thá": 1506,
      "thực_": 1507,
      "chẳng": 1508,
      "trang": 1509,
      "treo": 1510,
      "không_thể": 1511,
      "phản_": 1512,
      "##_nhớ": 1513,
      "đồ_hoạ": 1514,
      "ban_đ": 1515,
      "bộ_nhớ": 1516,
      "tận_t": 1517,
      "##wei": 1518,
      "13": 1519,
      "bù": 1520,
      "càng": 1521,
      "góc": 1522,
      "gửi": 1523,
      "nước": 1524,
      "set": 1525,
      "##_g": 1526,
      "##èm": 1527,
      "##_thế": 1528,
      "##_đợi": 1529,
      "loại": 1530,
      "đánh": 1531,
      "##_sao": 1532,
      "thế_nào": 1533,
      "thỉnh_thoảng": 1534,
      "nt": 1535,
      "snap": 1536,
      "##sự": 1537,
      "##ệt": 1538,
      "##n_ch": 1539,
      "vàng": 1540,
      "##luet": 1541,
      "thực_sự": 1542,
      "tận_tình": 1543,
      "45": 1544,
      "bluet": 1545,
      "cắm": 1546,
      "rộng": 1547,
      "xử": 1548,
      "đợi": 1549,
      "##ớm": 1550,
      "##át_": 1551,
      "##bi": 1552,
      "nhược": 1553,
      "trận": 1554,
      "thoát": 1555,
      "tương_đ": 1556,
      "cân_": 1557,
      "jo": 1558,
      "mẫ": 1559,
      "up": 1560,
      "##ám": 1561,
      "##_đặt": 1562,
      "thao_tác": 1563,
      "huawei": 1564,
      "hư": 1565,
      "##ạnh": 1566,
      "##uo": 1567,
      "##ẳn": 1568,
      "##n_c": 1569,
      "trắng": 1570,
      "##_lu": 1571,
      "##_dài": 1572,
      "tự_nhiên": 1573,
      "mong_đợi": 1574,
      "##ree": 1575,
      "cài_đặt": 1576,
      "##_khi": 1577,
      "bt": 1578,
      "duy": 1579,
      "hẳn": 1580,
      "kèm": 1581,
      "mắt": 1582,
      "mỏng": 1583,
      "yê": 1584,
      "##ting": 1585,
      "##ưởng": 1586,
      "chập": 1587,
      "chống": 1588,
      "##ượt": 1589,
      "##iệc": 1590,
      "có_khi": 1591,
      "##_việc": 1592,
      "##_trí": 1593,
      "hoạ": 1594,
      "tại_sao": 1595,
      "nhược_điểm": 1596,
      "16": 1597,
      "40": 1598,
      "90": 1599,
      "dự": 1600,
      "minh": 1601,
      "nâng": 1602,
      "ấy": 1603,
      "##nhắc": 1604,
      "trở": 1605,
      "như_thế": 1606,
      "phông": 1607,
      "tính": 1608,
      "hiện_tại": 1609,
      "bluetooth": 1610,
      "cân_nhắc": 1611,
      "bi": 1612,
      "bắ": 1613,
      "free": 1614,
      "kỹ": 1615,
      "lồi": 1616,
      "reno": 1617,
      "sướng": 1618,
      "sớm": 1619,
      "tiệ": 1620,
      "ông": 1621,
      "choi": 1622,
      "##_xuyên": 1623,
      "tóm_lại": 1624,
      "khuyế": 1625,
      "cal": 1626,
      "ip": 1627,
      "lựa": 1628,
      "sợ": 1629,
      "vạch": 1630,
      "we": 1631,
      "ấn": 1632,
      "##axy": 1633,
      "##_ra": 1634,
      "giới": 1635,
      "##_hiệu": 1636,
      "bao_giờ": 1637,
      "nhận_xét": 1638,
      "chuẩn": 1639,
      "ghê": 1640,
      "thường_xuyên": 1641,
      "48": 1642,
      "bé": 1643,
      "gal": 1644,
      "hề": 1645,
      "nản": 1646,
      "đặt": 1647,
      "##ưng": 1648,
      "##p_": 1649,
      "trc": 1650,
      "sửa": 1651,
      "call": 1652,
      "kg": 1653,
      "lắc": 1654,
      "ta": 1655,
      "tì": 1656,
      "##eng": 1657,
      "##sao": 1658,
      "##uổi": 1659,
      "##ện": 1660,
      "thời": 1661,
      "chủ": 1662,
      "nho": 1663,
      "ngang": 1664,
      "giải": 1665,
      "phê": 1666,
      "##giải": 1667,
      "##ân_giải": 1668,
      "từng": 1669,
      "##_chờ": 1670,
      "miui": 1671,
      "##t_động": 1672,
      "túi_tiền": 1673,
      "##bile": 1674,
      "joy": 1675,
      "hoạt_động": 1676,
      "galaxy": 1677,
      "dài": 1678,
      "họ": 1679,
      "ro": 1680,
      "đối": 1681,
      "nhớ": 1682,
      "##n_h": 1683,
      "tốc": 1684,
      "tiết_k": 1685,
      "lưu": 1686,
      "làm_sao": 1687,
      "thương_hiệu": 1688,
      "setting": 1689,
      "tiết_kiệm": 1690,
      "64": 1691,
      "hi": 1692,
      "hướng": 1693,
      "lỗ": 1694,
      "sho": 1695,
      "văng": 1696,
      "##hồi": 1697,
      "thui": 1698,
      "nhắn": 1699,
      "##u_m": 1700,
      "##_mắt": 1701,
      "##_số": 1702,
      "18": 1703,
      "32": 1704,
      "cường": 1705,
      "dk": 1706,
      "dịch": 1707,
      "ios": 1708,
      "lời": 1709,
      "vi": 1710,
      "vọng": 1711,
      "đmx": 1712,
      "##_y": 1713,
      "##ưỡ": 1714,
      "khủng": 1715,
      "##ine": 1716,
      "tốn": 1717,
      "quy": 1718,
      "##i_kh": 1719,
      "nhưng_mà": 1720,
      "tuỳ": 1721,
      "##_cùng": 1722,
      "2020": 1723,
      "vô_cùng": 1724,
      "##n_bản": 1725,
      "phản_hồi": 1726,
      "chập_chờ": 1727,
      "chập_chờn": 1728,
      "bực_": 1729,
      "rưỡ": 1730,
      "tâm": 1731,
      "##ứt": 1732,
      "##xuất": 1733,
      "##ắn_t": 1734,
      "chs": 1735,
      "nhắn_t": 1736,
      "giá_cả": 1737,
      "##_bò": 1738,
      "##_chọn": 1739,
      "cực_kỳ": 1740,
      "hộp": 1741,
      "tương_đối": 1742,
      "lựa_chọn": 1743,
      "tốc_độ": 1744,
      "rưỡi": 1745,
      "nhắn_tin": 1746,
      "19": 1747,
      "mát": 1748,
      "mãi": 1749,
      "tận": 1750,
      "yêu": 1751,
      "ý_định": 1752,
      "##up": 1753,
      "thị": 1754,
      "##_tay": 1755,
      "##_lí": 1756,
      "##_lực": 1757,
      "##_diện": 1758,
      "củng": 1759,
      "onl": 1760,
      "tối_ư": 1761,
      "nhoè": 1762,
      "shop": 1763,
      "rớt": 1764,
      "vin": 1765,
      "xe": 1766,
      "đỉnh": 1767,
      "##hi": 1768,
      "##ịn": 1769,
      "##_thu": 1770,
      "trâu_bò": 1771,
      "lâu_dài": 1772,
      "hoài": 1773,
      "độ_ph": 1774,
      "nhau": 1775,
      "giảm_": 1776,
      "mic": 1777,
      "chuông": 1778,
      "đôi_kh": 1779,
      "anh_em": 1780,
      "đôi_khi": 1781,
      "cùi": 1782,
      "lung": 1783,
      "sống": 1784,
      "vỡ": 1785,
      "##ốc": 1786,
      "##zz": 1787,
      "thẻ": 1788,
      "trầy": 1789,
      "hoi": 1790,
      "lite": 1791,
      "độ_phân_giải": 1792,
      "giảm_giá": 1793,
      "000": 1794,
      "dmx": 1795,
      "hơ": 1796,
      "đè": 1797,
      "nguyên": 1798,
      "##_dáng": 1799,
      "##_thiện": 1800,
      "##i_độ": 1801,
      "ngoài_ra": 1802,
      "mik": 1803,
      "mobile": 1804,
      "cải_thiện": 1805,
      "thái_độ": 1806,
      "cường_lực": 1807,
      "14": 1808,
      "in": 1809,
      "kĩ": 1810,
      "đk": 1811,
      "ưu_đ": 1812,
      "##as": 1813,
      "##au": 1814,
      "##mình": 1815,
      "##_vẻ": 1816,
      "với_lại": 1817,
      "đáp_": 1818,
      "##_mật": 1819,
      "bảo_mật": 1820,
      "128": 1821,
      "##_kiến": 1822,
      "##_góp": 1823,
      "yên_tâm": 1824,
      "đáp_ứng": 1825,
      "990": 1826,
      "fan": 1827,
      "kết": 1828,
      "mẹ": 1829,
      "ám": 1830,
      "##_giá": 1831,
      "##_qua": 1832,
      "##ít": 1833,
      "##da": 1834,
      "##ồng": 1835,
      "thực": 1836,
      "trợ": 1837,
      "phà": 1838,
      "có_vẻ": 1839,
      "##iếng": 1840,
      "##_thiệu": 1841,
      "##_báo": 1842,
      "##_sắc": 1843,
      "##_sánh": 1844,
      "quay_ph": 1845,
      "thông_báo": 1846,
      "giao_diện": 1847,
      "ban_đầu": 1848,
      "4500": 1849,
      "nâng_cấp": 1850,
      "giới_thiệu": 1851,
      "quay_phim": 1852,
      "di": 1853,
      "rơi": 1854,
      "vn": 1855,
      "wa": 1856,
      "đắt": 1857,
      "đập": 1858,
      "##ok": 1859,
      "##ón": 1860,
      "##_tung": 1861,
      "gia": 1862,
      "phiê": 1863,
      "##uyện": 1864,
      "##_trời": 1865,
      "tưởng": 1866,
      "thế_n": 1867,
      "nhìn_ch": 1868,
      "##_kiện": 1869,
      "xử_lý": 1870,
      "chủ_y": 1871,
      "phiên_bản": 1872,
      "thế_này": 1873,
      "nhìn_chung": 1874,
      "chủ_yếu": 1875,
      "dành": 1876,
      "hz": 1877,
      "lu": 1878,
      "sel": 1879,
      "vo": 1880,
      "vui": 1881,
      "ý_kiến": 1882,
      "##set": 1883,
      "##áp": 1884,
      "##ât": 1885,
      "nhập": 1886,
      "ngầm": 1887,
      "sac": 1888,
      "nghiệm": 1889,
      "##c_ch": 1890,
      "good": 1891,
      "bực_mình": 1892,
      "selfi": 1893,
      "25": 1894,
      "24": 1895,
      "cuố": 1896,
      "hạ": 1897,
      "kể": 1898,
      "lượng": 1899,
      "vuốt": 1900,
      "đường": 1901,
      "ơi": 1902,
      "##ug": 1903,
      "##lay": 1904,
      "##ói": 1905,
      "##quố": 1906,
      "thanh": 1907,
      "quả": 1908,
      "quần": 1909,
      "##_thành": 1910,
      "##_hiện": 1911,
      "khoản": 1912,
      "trả_góp": 1913,
      "hãy": 1914,
      "##t_số": 1915,
      "##i_lúc": 1916,
      "đôi_lúc": 1917,
      "một_số": 1918,
      "tối_ưu": 1919,
      "ưu_điểm": 1920,
      "##date": 1921,
      "##quốc": 1922,
      "hở": 1923,
      "sụt": 1924,
      "sập": 1925,
      "wf": 1926,
      "đời": 1927,
      "động": 1928,
      "##ên_": 1929,
      "##mo": 1930,
      "khả": 1931,
      "##_dẫn": 1932,
      "##u_nh": 1933,
      "##_trừ": 1934,
      "cấu": 1935,
      "ngon_l": 1936,
      "##_điều_hành": 1937,
      "moi": 1938,
      "fire": 1939,
      "##_nghệ": 1940,
      "ntn": 1941,
      "update": 1942,
      "wed": 1943,
      "tìm": 1944,
      "##enger": 1945,
      "dịch_vụ": 1946,
      "ngon_lành": 1947,
      "ac": 1948,
      "bổ": 1949,
      "bực": 1950,
      "dở": 1951,
      "lác": 1952,
      "live": 1953,
      "nền": 1954,
      "vời": 1955,
      "vãi": 1956,
      "ánh_s": 1957,
      "đố": 1958,
      "ức_ch": 1959,
      "##ợt": 1960,
      "##ựng": 1961,
      "thành": 1962,
      "che": 1963,
      "chai": 1964,
      "nhấn": 1965,
      "load": 1966,
      "not": 1967,
      "công_nghệ": 1968,
      "hoàn_h": 1969,
      "hệ_điều_hành": 1970,
      "mẫu_m": 1971,
      "##_luận": 1972,
      "giải_trí": 1973,
      "lung_tung": 1974,
      "ánh_sáng": 1975,
      "ức_chế": 1976,
      "hoàn_hảo": 1977,
      "mẫu_mã": 1978,
      "66": 1979,
      "80": 1980,
      "bố": 1981,
      "biến": 1982,
      "hk": 1983,
      "tăng": 1984,
      "tổng": 1985,
      "vụ": 1986,
      "xịn": 1987,
      "##ee": 1988,
      "##_quốc": 1989,
      "##ịp": 1990,
      "chân_th": 1991,
      "##_tiện": 1992,
      "##chị": 1993,
      "##iển": 1994,
      "xem_lại": 1995,
      "##ime": 1996,
      "bình_luận": 1997,
      "##roi": 1998,
      "kiểu_dáng": 1999,
      "##n_nữa": 2000,
      "một_": 2001,
      "anh_chị": 2002,
      "2019": 2003,
      "online": 2004,
      "hơn_nữa": 2005,
      "selfie": 2006,
      "buổi": 2007,
      "dữ": 2008,
      "hỏng": 2009,
      "miếng": 2010,
      "ns": 2011,
      "out": 2012,
      "tý": 2013,
      "va": 2014,
      "đe": 2015,
      "##gạo": 2016,
      "##õi": 2017,
      "nhung": 2018,
      "ngón": 2019,
      "##_tế": 2020,
      "##_tiề": 2021,
      "##_tính": 2022,
      "giữ": 2023,
      "##c_s": 2024,
      "cao_cấp": 2025,
      "##_sản_": 2026,
      "đồng_tiề": 2027,
      "nhà_sản_": 2028,
      "##n_bát_": 2029,
      "tin_t": 2030,
      "ngoại_trừ": 2031,
      "khuyến_m": 2032,
      "đồng_tiền_bát_": 2033,
      "nhà_sản_xuất": 2034,
      "đồng_tiền_bát_gạo": 2035,
      "500": 2036,
      "bl": 2037,
      "cụ": 2038,
      "cạnh": 2039,
      "gái": 2040,
      "of": 2041,
      "rút": 2042,
      "sinh": 2043,
      "sạt": 2044,
      "tiết": 2045,
      "xước": 2046,
      "##ii": 2047,
      "##ốt": 2048,
      "##quy": 2049,
      "##ùm": 2050,
      "chă": 2051,
      "chấm": 2052,
      "chắc_": 2053,
      "khu": 2054,
      "giây": 2055,
      "##chắn": 2056,
      "giá_như": 2057,
      "##_liệu": 2058,
      "##_thời": 2059,
      "##u_h": 2060,
      "##_càng": 2061,
      "##oom": 2062,
      "rõ_r": 2063,
      "reset": 2064,
      "apple": 2065,
      "##n_trọng": 2066,
      "##tttt": 2067,
      "xuất_sắc": 2068,
      "như_thế_nào": 2069,
      "##_thuật": 2070,
      "đèn": 2071,
      "chắc_chắn": 2072,
      "35": 2073,
      "720": 2074,
      "91": 2075,
      "99": 2076,
      "bữa": 2077,
      "bóng": 2078,
      "lý": 2079,
      "lổi": 2080,
      "nam": 2081,
      "##ag": 2082,
      "nhạt": 2083,
      "khựng": 2084,
      "##n_d": 2085,
      "##m_s": 2086,
      "thích_hợp": 2087,
      "noi": 2088,
      "##led": 2089,
      "androi": 2090,
      "##ản_l": 2091,
      "công_việc": 2092,
      "bất_tiện": 2093,
      "messenger": 2094,
      "khuyến_mãi": 2095,
      "fl": 2096,
      "lòng": 2097,
      "nữ": 2098,
      "suy": 2099,
      "tg": 2100,
      "xinh": 2101,
      "##ùa": 2102,
      "khung": 2103,
      "ngắt": 2104,
      "nguy": 2105,
      "##_tiết": 2106,
      "nhưg": 2107,
      "phả": 2108,
      "quản_l": 2109,
      "##i_âm": 2110,
      "##t_nh": 2111,
      "chục": 2112,
      "##_hưởng": 2113,
      "##_trình": 2114,
      "kép": 2115,
      "giải_": 2116,
      "trung_quốc": 2117,
      "hợp_lí": 2118,
      "thông_số": 2119,
      "thi_thoảng": 2120,
      "##_nghĩ": 2121,
      "âm_lượng": 2122,
      "##u_như": 2123,
      "85": 2124,
      "câu": 2125,
      "dày": 2126,
      "hy": 2127,
      "kinh": 2128,
      "pr": 2129,
      "rùi": 2130,
      "đưa": 2131,
      "đợt": 2132,
      "##gon": 2133,
      "##_hình": 2134,
      "##_năng": 2135,
      "##ết_đ": 2136,
      "##dra": 2137,
      "nhi": 2138,
      "nhậy": 2139,
      "trưa": 2140,
      "quà": 2141,
      "quen": 2142,
      "##t_h": 2143,
      "##_do": 2144,
      "hình_như": 2145,
      "##_nhân": 2146,
      "##n_thiện": 2147,
      "##_cái": 2148,
      "ảnh_hưởng": 2149,
      "chi_tiết": 2150,
      "ghi_âm": 2151,
      "##i_với": 2152,
      "hoàn_thiện": 2153,
      "quyết_đ": 2154,
      "đối_với": 2155,
      "##dragon": 2156,
      "quyết_định": 2157,
      "98": 2158,
      "ak": 2159,
      "hu": 2160,
      "nổ": 2161,
      "nắm": 2162,
      "năng": 2163,
      "se": 2164,
      "tết": 2165,
      "tiện": 2166,
      "vá": 2167,
      "vỏ": 2168,
      "##mẽ": 2169,
      "than": 2170,
      "máy_ảnh": 2171,
      "trời": 2172,
      "nge": 2173,
      "##_tục": 2174,
      "mà_c": 2175,
      "##chút": 2176,
      "##m_ch": 2177,
      "##_công": 2178,
      "##nh_mẽ": 2179,
      "mạnh_mẽ": 2180,
      "so_sánh": 2181,
      "làm_việc": 2182,
      "##_phòng": 2183,
      "##t_đầu": 2184,
      "fix": 2185,
      "##n_nàn": 2186,
      "phụ_kiện": 2187,
      "##uoc": 2188,
      "dự_phòng": 2189,
      "bắt_đầu": 2190,
      "phàn_nàn": 2191,
      "một_chút": 2192,
      "suy_nghĩ": 2193,
      "mà_còn": 2194,
      "21": 2195,
      "bài": 2196,
      "cm": 2197,
      "cung": 2198,
      "go": 2199,
      "kì": 2200,
      "lỡ": 2201,
      "mh": 2202,
      "tà": 2203,
      "tiề": 2204,
      "tấm": 2205,
      "đư": 2206,
      "đo": 2207,
      "đỡ": 2208,
      "đăng": 2209,
      "##ara": 2210,
      "##us": 2211,
      "chú": 2212,
      "chân": 2213,
      "khiến": 2214,
      "trải": 2215,
      "##_tí": 2216,
      "phát_": 2217,
      "##i_b": 2218,
      "##t_b": 2219,
      "đẹp_mắt": 2220,
      "##_nhất": 2221,
      "quan_trọng": 2222,
      "##tel": 2223,
      "com": 2224,
      "xoay": 2225,
      "đòi": 2226,
      "tiếp_tục": 2227,
      "ngoại_hình": 2228,
      "duy_nhất": 2229,
      "hướng_dẫn": 2230,
      "khả_năng": 2231,
      "##quyết": 2232,
      "chăm_s": 2233,
      "phát_h": 2234,
      "chăm_sóc": 2235,
      "amo": 2236,
      "bắn": 2237,
      "bắp": 2238,
      "cỡ": 2239,
      "cây": 2240,
      "dây": 2241,
      "dính": 2242,
      "hế": 2243,
      "play": 2244,
      "smart": 2245,
      "tùm": 2246,
      "vos": 2247,
      "đổ": 2248,
      "đeo": 2249,
      "##tra": 2250,
      "##_ai": 2251,
      "##òi": 2252,
      "##990": 2253,
      "chúng": 2254,
      "##iệp": 2255,
      "##_tin": 2256,
      "##iếm": 2257,
      "##_loại": 2258,
      "##_đầu": 2259,
      "##_nhiêu": 2260,
      "nói_chuyện": 2261,
      "##t_mắt": 2262,
      "những_ai": 2263,
      "chup": 2264,
      "ghi": 2265,
      "xuất_hiện": 2266,
      "##ieu": 2267,
      "snapdragon": 2268,
      "mẫu": 2269,
      "rom": 2270,
      "thị_tr": 2271,
      "kể_cả": 2272,
      "quản_lý": 2273,
      "31": 2274,
      "cố": 2275,
      "góp": 2276,
      "mã": 2277,
      "pi": 2278,
      "tt": 2279,
      "tên": 2280,
      "tức": 2281,
      "ul": 2282,
      "ơn": 2283,
      "##này": 2284,
      "##lo": 2285,
      "##ởi": 2286,
      "##oàn": 2287,
      "##ẹt": 2288,
      "##ằm": 2289,
      "##ụi": 2290,
      "chương": 2291,
      "khen": 2292,
      "được_cái": 2293,
      "##_túi": 2294,
      "sau_": 2295,
      "##_viên": 2296,
      "##_thống": 2297,
      "##_đủ": 2298,
      "##ân_vân": 2299,
      "ra_mắt": 2300,
      "##_trong": 2301,
      "##ack": 2302,
      "hiệu": 2303,
      "đáng_giá": 2304,
      "đầy_đủ": 2305,
      "bao_nhiêu": 2306,
      "##quan": 2307,
      "ban_đêm": 2308,
      "bắt_mắt": 2309,
      "giải_quyết": 2310,
      "hy_vọng": 2311,
      "amoled": 2312,
      "sau_này": 2313,
      "cân": 2314,
      "dám": 2315,
      "gõ": 2316,
      "hành": 2317,
      "lí": 2318,
      "mj": 2319,
      "nế": 2320,
      "suốt": 2321,
      "vòng": 2322,
      "vặt": 2323,
      "vấn": 2324,
      "zoom": 2325,
      "ấn_t": 2326,
      "##ss": 2327,
      "##tive": 2328,
      "##ấu_h": 2329,
      "##ẩy": 2330,
      "##i_c": 2331,
      "##iếp": 2332,
      "cá_nhân": 2333,
      "mượn": 2334,
      "##_lẽ": 2335,
      "##_dưng": 2336,
      "ngày_càng": 2337,
      "##_đổi": 2338,
      "để_ý": 2339,
      "rat": 2340,
      "vậy_mà": 2341,
      "tự_dưng": 2342,
      "##_mới": 2343,
      "kết_": 2344,
      "phần_c": 2345,
      "phía": 2346,
      "chính_s": 2347,
      "hệ_thống": 2348,
      "dữ_liệu": 2349,
      "rõ_ràng": 2350,
      "chương_trình": 2351,
      "ấn_tượng": 2352,
      "phần_cứng": 2353,
      "chính_sách": 2354,
      "cl": 2355,
      "gam": 2356,
      "gây": 2357,
      "học": 2358,
      "liền": 2359,
      "nơi": 2360,
      "qá": 2361,
      "rỗ": 2362,
      "tô": 2363,
      "vẻ": 2364,
      "đả": 2365,
      "đôi": 2366,
      "##ks": 2367,
      "##ữu": 2368,
      "##èo": 2369,
      "##ãn": 2370,
      "##ơc": 2371,
      "##ọt": 2372,
      "##ẻo": 2373,
      "châu": 2374,
      "nhờ": 2375,
      "nhật": 2376,
      "trò": 2377,
      "trướ": 2378,
      "trường": 2379,
      "phân_vân": 2380,
      "quét": 2381,
      "##i_ng": 2382,
      "giá_thành": 2383,
      "cũg": 2384,
      "##n_toàn": 2385,
      "lai": 2386,
      "camara": 2387,
      "##_chắc": 2388,
      "đáng_k": 2389,
      "cầm_chắc": 2390,
      "##uộc": 2391,
      "thay_đổi": 2392,
      "##n_lợi": 2393,
      "##iew": 2394,
      "##_lum": 2395,
      "cuối": 2396,
      "tin_tưởng": 2397,
      "phát_hiện": 2398,
      "đáng_kể": 2399,
      "bh": 2400,
      "de": 2401,
      "dừng": 2402,
      "ff": 2403,
      "lạ": 2404,
      "me": 2405,
      "mướt": 2406,
      "nè": 2407,
      "st": 2408,
      "sẵ": 2409,
      "tam": 2410,
      "tồi": 2411,
      "vượt": 2412,
      "xác": 2413,
      "xảy": 2414,
      "đông": 2415,
      "##ip": 2416,
      "##be": 2417,
      "##ke": 2418,
      "##ủa": 2419,
      "thà": 2420,
      "thiết": 2421,
      "khô": 2422,
      "##n_gi": 2423,
      "truy": 2424,
      "giữa": 2425,
      "phone": 2426,
      "##i_nh": 2427,
      "##_lời": 2428,
      "##_hơi": 2429,
      "##_nhàng": 2430,
      "cấp": 2431,
      "thiết_b": 2432,
      "home": 2433,
      "trả_lời": 2434,
      "##_bị": 2435,
      "nhah": 2436,
      "nhẹ_nhàng": 2437,
      "120": 2438,
      "chắc_tay": 2439,
      "##_phải": 2440,
      "thông_thường": 2441,
      "##n_nào": 2442,
      "trang_bị": 2443,
      "kỹ_thuật": 2444,
      "tiện_lợi": 2445,
      "hihi": 2446,
      "active": 2447,
      "tùm_lum": 2448,
      "ultra": 2449,
      "thiết_bị": 2450,
      "27": 2451,
      "3000": 2452,
      "76": 2453,
      "bám": 2454,
      "cong": 2455,
      "da": 2456,
      "danh": 2457,
      "dấu_h": 2458,
      "exy": 2459,
      "ha": 2460,
      "hầ": 2461,
      "hồ": 2462,
      "hinh": 2463,
      "hồng": 2464,
      "kích": 2465,
      "kịp": 2466,
      "lịch": 2467,
      "mục": 2468,
      "mỏi": 2469,
      "nc": 2470,
      "pup": 2471,
      "sở": 2472,
      "sắp": 2473,
      "tả": 2474,
      "tài": 2475,
      "vị": 2476,
      "vẩn": 2477,
      "xs": 2478,
      "xã": 2479,
      "##va": 2480,
      "##ớp": 2481,
      "##êt": 2482,
      "##ẩu": 2483,
      "##ễn": 2484,
      "thủ": 2485,
      "tràn": 2486,
      "trãi": 2487,
      "ngủ": 2488,
      "mà_lại": 2489,
      "phong": 2490,
      "phòng": 2491,
      "oki": 2492,
      "##m_c": 2493,
      "##_thích": 2494,
      "lúc_nào": 2495,
      "##_triển": 2496,
      "kéo": 2497,
      "vừa_mới": 2498,
      "liên_quan": 2499,
      "tựa": 2500,
      "đồng_h": 2501,
      "##_nay": 2502,
      "bỏ_túi": 2503,
      "chuyên_": 2504,
      "##_trang": 2505,
      "##kkkk": 2506,
      "##uot": 2507,
      "thực_tế": 2508,
      "cụm": 2509,
      "phải_ch": 2510,
      "prime": 2511,
      "đươc": 2512,
      "smartphone": 2513,
      "dấu_hiệu": 2514,
      "pupg": 2515,
      "đồng_hồ": 2516,
      "17": 2517,
      "490": 2518,
      "bu": 2519,
      "bề": 2520,
      "ban": 2521,
      "bụi": 2522,
      "cầ": 2523,
      "cày": 2524,
      "cứng": 2525,
      "cộng": 2526,
      "cổng": 2527,
      "dạo": 2528,
      "gấp": 2529,
      "hổ": 2530,
      "hi_v": 2531,
      "iu": 2532,
      "im": 2533,
      "kim": 2534,
      "lê": 2535,
      "lang": 2536,
      "liệu": 2537,
      "mê": 2538,
      "mắc": 2539,
      "mái": 2540,
      "mùa": 2541,
      "rằng": 2542,
      "sp": 2543,
      "song": 2544,
      "sạch": 2545,
      "tp": 2546,
      "tiê": 2547,
      "vă": 2548,
      "vợ": 2549,
      "viết": 2550,
      "đung": 2551,
      "##view": 2552,
      "##_ok": 2553,
      "##pu": 2554,
      "##úa": 2555,
      "##ép": 2556,
      "##ém": 2557,
      "##de": 2558,
      "##ộc": 2559,
      "##ót": 2560,
      "##ợt_nh": 2561,
      "##30": 2562,
      "thư": 2563,
      "chảnh": 2564,
      "nhiệm": 2565,
      "nhợt_nh": 2566,
      "khong": 2567,
      "##n_s": 2568,
      "trình": 2569,
      "ngồi": 2570,
      "phá": 2571,
      "mới_đầu": 2572,
      "games": 2573,
      "cám_": 2574,
      "##m_h": 2575,
      "##_thức": 2576,
      "hay_là": 2577,
      "##_của": 2578,
      "##nh_x": 2579,
      "quan_tâm": 2580,
      "wif": 2581,
      "##_mặt": 2582,
      "##_minh": 2583,
      "##nghiệp": 2584,
      "ngoài_trời": 2585,
      "review": 2586,
      "đau": 2587,
      "ant": 2588,
      "thông_tin": 2589,
      "##t_điểm": 2590,
      "làm_ăn": 2591,
      "khuyết_điểm": 2592,
      "660": 2593,
      "chân_thành": 2594,
      "blut": 2595,
      "tàu": 2596,
      "tiền_nào": 2597,
      "chuyên_nghiệp": 2598,
      "hi_vọng": 2599,
      "nhợt_nhạt": 2600,
      "cám_ơn": 2601,
      "tiền_nào_của": 2602,
      "22": 2603,
      "28": 2604,
      "23": 2605,
      "bá": 2606,
      "bo": 2607,
      "bể": 2608,
      "biế": 2609,
      "biệt": 2610,
      "diện": 2611,
      "dut": 2612,
      "dấu": 2613,
      "gg": 2614,
      "hả": 2615,
      "hên": 2616,
      "kỳ": 2617,
      "lừa": 2618,
      "lát": 2619,
      "lắp": 2620,
      "vv": 2621,
      "yt": 2622,
      "điên": 2623,
      "đặc": 2624,
      "##nos": 2625,
      "##ạp": 2626,
      "##ún": 2627,
      "##dung": 2628,
      "##ựt": 2629,
      "##ặn": 2630,
      "thừa": 2631,
      "chúc": 2632,
      "chát": 2633,
      "nhầm": 2634,
      "nhug": 2635,
      "##n_ng": 2636,
      "trống": 2637,
      "trái": 2638,
      "ngã": 2639,
      "ngại": 2640,
      "##_tư": 2641,
      "##_tiến": 2642,
      "quá_trời": 2643,
      "cảnh": 2644,
      "tuộc": 2645,
      "##_vị": 2646,
      "##_thị": 2647,
      "cấn": 2648,
      "mai": 2649,
      "vừa_ý": 2650,
      "tạm_thời": 2651,
      "##utu": 2652,
      "##i_điểm": 2653,
      "thời_điểm": 2654,
      "##ắc_m": 2655,
      "chug": 2656,
      "ghét": 2657,
      "##mera": 2658,
      "nhận_dạng": 2659,
      "tik": 2660,
      "##_rồi": 2661,
      "sinh_viên": 2662,
      "855": 2663,
      "##t_hàng": 2664,
      "trường_hợp": 2665,
      "exynos": 2666,
      "kim_loại": 2667,
      "67": 2668,
      "ah": 2669,
      "bn": 2670,
      "cà": 2671,
      "gem": 2672,
      "gắn": 2673,
      "hà": 2674,
      "kiếm": 2675,
      "lm": 2676,
      "má": 2677,
      "mỏ": 2678,
      "nắp": 2679,
      "rỏ": 2680,
      "tung": 2681,
      "tinh": 2682,
      "xung": 2683,
      "xai": 2684,
      "đầm": 2685,
      "đóng": 2686,
      "đồn": 2687,
      "##ta": 2688,
      "##oài": 2689,
      "thân": 2690,
      "thiệt": 2691,
      "thang": 2692,
      "tháo": 2693,
      "thắc_m": 2694,
      "nhu": 2695,
      "nhá": 2696,
      "##n_kh": 2697,
      "tro": 2698,
      "có_lẽ": 2699,
      "tối_đ": 2700,
      "này_n": 2701,
      "##_dàng": 2702,
      "##_hữu": 2703,
      "nghỉ": 2704,
      "lau": 2705,
      "##fire": 2706,
      "tươi": 2707,
      "cammera": 2708,
      "##quả": 2709,
      "nova": 2710,
      "một_tí": 2711,
      "đag": 2712,
      "hoàn_toàn": 2713,
      "phát_triển": 2714,
      "cải_tiến": 2715,
      "xử_lí": 2716,
      "trở_lại": 2717,
      "tiệm_c": 2718,
      "wep": 2719,
      "xem_": 2720,
      "cuối_c": 2721,
      "flas": 2722,
      "sẵn": 2723,
      "hầu_như": 2724,
      "sở_hữu": 2725,
      "vị_trí": 2726,
      "antutu": 2727,
      "duty": 2728,
      "thắc_mắc": 2729,
      "tối_đa": 2730,
      "này_nọ": 2731,
      "tiệm_cận": 2732,
      "cuối_cùng": 2733,
      "33": 2734,
      "65": 2735,
      "96": 2736,
      "bút": 2737,
      "bớt": 2738,
      "dã": 2739,
      "di_ch": 2740,
      "dậy": 2741,
      "gốc": 2742,
      "hụt": 2743,
      "hút": 2744,
      "hối": 2745,
      "lam": 2746,
      "lầm": 2747,
      "mb": 2748,
      "pk": 2749,
      "qt": 2750,
      "ss": 2751,
      "sâu": 2752,
      "sát": 2753,
      "sup": 2754,
      "tượng": 2755,
      "tội": 2756,
      "uổng": 2757,
      "van": 2758,
      "zing": 2759,
      "đà": 2760,
      "đỏ": 2761,
      "đành": 2762,
      "##ic": 2763,
      "##22": 2764,
      "##st": 2765,
      "##cro": 2766,
      "##éo": 2767,
      "##obe": 2768,
      "##dd": 2769,
      "##ồn_b": 2770,
      "chua": 2771,
      "chro": 2772,
      "nhan": 2773,
      "##n_nh": 2774,
      "##n_xuất": 2775,
      "trẻ": 2776,
      "trieu": 2777,
      "già": 2778,
      "gian": 2779,
      "giựt": 2780,
      "phan": 2781,
      "##i_n": 2782,
      "nhanh_ch": 2783,
      "##_thì": 2784,
      "##_thật": 2785,
      "sản_xuất": 2786,
      "để_ch": 2787,
      "##_cập": 2788,
      "##uyển": 2789,
      "đề_ngh": 2790,
      "macro": 2791,
      "toà": 2792,
      "hok": 2793,
      "##pppp": 2794,
      "##_mờ": 2795,
      "##t_mấy": 2796,
      "mờ_mờ": 2797,
      "phần_tr": 2798,
      "##i_là": 2799,
      "thág": 2800,
      "##n_chế": 2801,
      "bit": 2802,
      "tiện_": 2803,
      "vien": 2804,
      "hạn_chế": 2805,
      "##tttttttt": 2806,
      "nguyễ": 2807,
      "cmt": 2808,
      "phải_chăng": 2809,
      "spen": 2810,
      "##m_hiểu": 2811,
      "biết_mấy": 2812,
      "xem_xét": 2813,
      "di_chuyển": 2814,
      "super": 2815,
      "nhanh_chóng": 2816,
      "để_chế": 2817,
      "đề_nghị": 2818,
      "phần_trăm": 2819,
      "26": 2820,
      "92": 2821,
      "bạ": 2822,
      "bóc": 2823,
      "ca": 2824,
      "cua": 2825,
      "cận": 2826,
      "cầu": 2827,
      "hằng": 2828,
      "id": 2829,
      "itel": 2830,
      "le": 2831,
      "lẫn": 2832,
      "lượt": 2833,
      "mì": 2834,
      "mềm": 2835,
      "mún": 2836,
      "niề": 2837,
      "nằm": 2838,
      "rât": 2839,
      "su": 2840,
      "sọc": 2841,
      "te": 2842,
      "vứt": 2843,
      "xu": 2844,
      "ăn_đ": 2845,
      "đại": 2846,
      "đáo": 2847,
      "đạt": 2848,
      "##_p": 2849,
      "##ến": 2850,
      "##cre": 2851,
      "##ứa": 2852,
      "##om": 2853,
      "##ảm": 2854,
      "##ễu": 2855,
      "thò": 2856,
      "thụt": 2857,
      "chat": 2858,
      "nhe": 2859,
      "nháy": 2860,
      "máy_s": 2861,
      "trai": 2862,
      "mày": 2863,
      "giọt": 2864,
      "##iếu": 2865,
      "cáp": 2866,
      "tuổi": 2867,
      "##_lệ": 2868,
      "##_hội": 2869,
      "##_đây": 2870,
      "##n_thân": 2871,
      "bản_thân": 2872,
      "toi": 2873,
      "vừa_phải": 2874,
      "sóng_sánh": 2875,
      "##_chơi": 2876,
      "##_sự": 2877,
      "##_nấy": 2878,
      "youtobe": 2879,
      "dễ_dàng": 2880,
      "siêu_thị": 2881,
      "thoi": 2882,
      "thoảng": 2883,
      "thông_minh": 2884,
      "haizz": 2885,
      "##_hoà": 2886,
      "##_ngày": 2887,
      "yêu_cầu": 2888,
      "tìm_hiểu": 2889,
      "học_s": 2890,
      "roi": 2891,
      "viet": 2892,
      "voi": 2893,
      "665": 2894,
      "tổng_thể": 2895,
      "đep": 2896,
      "nổi_b": 2897,
      "thanks": 2898,
      "lí_do": 2899,
      "nếu_như": 2900,
      "truy_cập": 2901,
      "buồn_b": 2902,
      "cần_th": 2903,
      "tiền_nào_của_nấy": 2904,
      "tiện_ích": 2905,
      "ăn_đứt": 2906,
      "học_sinh": 2907,
      "nổi_bật": 2908,
      "buồn_buồn": 2909,
      "43": 2910,
      "61": 2911,
      "690": 2912,
      "97": 2913,
      "bức": 2914,
      "cột": 2915,
      "căng": 2916,
      "cai": 2917,
      "cug": 2918,
      "dể": 2919,
      "dần": 2920,
      "fp": 2921,
      "gương": 2922,
      "ht": 2923,
      "ji": 2924,
      "lẽ": 2925,
      "long": 2926,
      "linh": 2927,
      "lõi": 2928,
      "lòi": 2929,
      "mậ": 2930,
      "mệt": 2931,
      "net": 2932,
      "nứt": 2933,
      "qúa": 2934,
      "sơn": 2935,
      "tua": 2936,
      "us": 2937,
      "uy": 2938,
      "vay": 2939,
      "ván": 2940,
      "xì": 2941,
      "y_như": 2942,
      "ánh": 2943,
      "đất": 2944,
      "đụng": 2945,
      "đỗi": 2946,
      "##ft": 2947,
      "##uc": 2948,
      "##play": 2949,
      "##oc": 2950,
      "##or": 2951,
      "##80": 2952,
      "##ĩnh": 2953,
      "tham": 2954,
      "cha": 2955,
      "chậ": 2956,
      "chân_": 2957,
      "chết": 2958,
      "chi_nh": 2959,
      "tra": 2960,
      "trễ": 2961,
      "trông": 2962,
      "trực": 2963,
      "ngta": 2964,
      "##_tự": 2965,
      "##_tượng": 2966,
      "phú": 2967,
      "phóng": 2968,
      "quài": 2969,
      "cáo": 2970,
      "khác_biệt": 2971,
      "##_dõi": 2972,
      "##n_tuổi": 2973,
      "##_thủ": 2974,
      "chỉnh_s": 2975,
      "hình_thức": 2976,
      "##_cứ": 2977,
      "##ang_m": 2978,
      "quan": 2979,
      "##_trữ": 2980,
      "hoang_m": 2981,
      "##_mẹ": 2982,
      "##_bạ": 2983,
      "##ent": 2984,
      "miễn": 2985,
      "lớn_tuổi": 2986,
      "theo_dõi": 2987,
      "thậm_ch": 2988,
      "chuyện": 2989,
      "##n_bè": 2990,
      "đặt_hàng": 2991,
      "mod": 2992,
      "file": 2993,
      "công_nhận": 2994,
      "cuộc": 2995,
      "##_hoạt": 2996,
      "bất_ng": 2997,
      "tin_d": 2998,
      "tậu": 2999,
      "thân_thiết": 3000,
      "bộ_nhớ_trong": 3001,
      "tương_đương": 3002,
      "duyệt": 3003,
      "dựt": 3004,
      "đối_thủ": 3005,
      "lưu_trữ": 3006,
      "##hip": 3007,
      "vote": 3008,
      "##c_sau": 3009,
      "nhiễu": 3010,
      "thị_trường": 3011,
      "thị_trấn": 3012,
      "mjh": 3013,
      "kết_quả": 3014,
      "clip": 3015,
      "trước_sau": 3016,
      "lịch_sự": 3017,
      "văn_ph": 3018,
      "##nh_xác": 3019,
      "mỏi_m": 3020,
      "trog": 3021,
      "flash": 3022,
      "chrome": 3023,
      "bạn_bè": 3024,
      "##creen": 3025,
      "cần_thiết": 3026,
      "chi_nhánh": 3027,
      "trực_t": 3028,
      "chỉnh_sửa": 3029,
      "hoang_mang": 3030,
      "thậm_chí": 3031,
      "bất_ngờ": 3032,
      "tin_dùng": 3033,
      "200": 3034,
      "63": 3035,
      "790": 3036,
      "as": 3037,
      "ap": 3038,
      "ai_ng": 3039,
      "bò": 3040,
      "bạc": 3041,
      "bít": 3042,
      "cô": 3043,
      "cận_": 3044,
      "cpu": 3045,
      "del": 3046,
      "gỡ": 3047,
      "gởi": 3048,
      "hông": 3049,
      "het": 3050,
      "kkk": 3051,
      "lá": 3052,
      "lã": 3053,
      "lướ": 3054,
      "muot": 3055,
      "rực_": 3056,
      "sơ": 3057,
      "sắt": 3058,
      "ty": 3059,
      "tiên": 3060,
      "tục": 3061,
      "vẽ": 3062,
      "vl": 3063,
      "võ": 3064,
      "đẳng": 3065,
      "ưa": 3066,
      "ưu": 3067,
      "ẩn": 3068,
      "##ey": 3069,
      "##nn": 3070,
      "##ad": 3071,
      "##smart": 3072,
      "##cảnh": 3073,
      "##ốn": 3074,
      "##rỡ": 3075,
      "##lượng": 3076,
      "##ỉu": 3077,
      "thưa": 3078,
      "chplay": 3079,
      "khe": 3080,
      "##n_x": 3081,
      "máy_b": 3082,
      "trọng": 3083,
      "trăm": 3084,
      "trạng": 3085,
      "ngược": 3086,
      "##_tệ": 3087,
      "là_hơi": 3088,
      "quên": 3089,
      "##iêm": 3090,
      "##_cách": 3091,
      "##uối": 3092,
      "cấm": 3093,
      "##_chữa": 3094,
      "##uto": 3095,
      "##i_đáp": 3096,
      "chia": 3097,
      "đột_": 3098,
      "bao_lâu": 3099,
      "dùg": 3100,
      "điều_kiện": 3101,
      "mih": 3102,
      "thời_lượng": 3103,
      "##mart_": 3104,
      "nặng_tay": 3105,
      "thik": 3106,
      "chính_xác": 3107,
      "##i_mới": 3108,
      "bất_cứ": 3109,
      "tieng": 3110,
      "lien": 3111,
      "tối_qua": 3112,
      "##_ngoài": 3113,
      "2017": 3114,
      "bik": 3115,
      "sửa_chữa": 3116,
      "thời_trang": 3117,
      "##_quan": 3118,
      "thành_công": 3119,
      "tin_tức": 3120,
      "off": 3121,
      "đổi_mới": 3122,
      "tôt": 3123,
      "star": 3124,
      "danh_bạ": 3125,
      "bề_ngoài": 3126,
      "phát_s": 3127,
      "qtv": 3128,
      "máy_sài": 3129,
      "fpt": 3130,
      "usb": 3131,
      "chân_dung": 3132,
      "văn_phòng": 3133,
      "mỏi_mắt": 3134,
      "ai_ngờ": 3135,
      "cận_cảnh": 3136,
      "rực_rỡ": 3137,
      "máy_bay": 3138,
      "29": 3139,
      "36": 3140,
      "55": 3141,
      "730": 3142,
      "auto": 3143,
      "bj": 3144,
      "bong": 3145,
      "bệt": 3146,
      "cs": 3147,
      "dân": 3148,
      "dạng": 3149,
      "fin": 3150,
      "gọ": 3151,
      "gạch": 3152,
      "hêt": 3153,
      "kê": 3154,
      "keo": 3155,
      "lô": 3156,
      "lệ": 3157,
      "lương": 3158,
      "mơi": 3159,
      "mây": 3160,
      "mền": 3161,
      "nx": 3162,
      "nắng": 3163,
      "nãn": 3164,
      "po": 3165,
      "qa": 3166,
      "ru": 3167,
      "rác": 3168,
      "son": 3169,
      "tập": 3170,
      "tiêu": 3171,
      "time": 3172,
      "vc": 3173,
      "ví": 3174,
      "vượng": 3175,
      "xét": 3176,
      "áp": 3177,
      "ầm_": 3178,
      "ọp_": 3179,
      "ổn_": 3180,
      "##go": 3181,
      "##gd": 3182,
      "##hu": 3183,
      "##hẩu": 3184,
      "##vv": 3185,
      "##ax": 3186,
      "##tok": 3187,
      "##ru": 3188,
      "##ôn": 3189,
      "##ment": 3190,
      "##xel": 3191,
      "##bảo": 3192,
      "##ore": 3193,
      "##âp": 3194,
      "##ẹn": 3195,
      "##ộp": 3196,
      "##33": 3197,
      "thiện": 3198,
      "chá": 3199,
      "chổ": 3200,
      "chay": 3201,
      "chặn": 3202,
      "kha": 3203,
      "trụ": 3204,
      "phầm": 3205,
      "phết": 3206,
      "phai": 3207,
      "##i_s": 3208,
      "okie": 3209,
      "##_lo": 3210,
      "##_dương": 3211,
      "cho_dù": 3212,
      "##u_ch": 3213,
      "##_đình": 3214,
      "##_đẹp": 3215,
      "tay_trong": 3216,
      "ran": 3217,
      "##n_thui": 3218,
      "##_trung": 3219,
      "##_trội": 3220,
      "1080": 3221,
      "đơn_gi": 3222,
      "##ooc": 3223,
      "đến_n": 3224,
      "##t_khẩu": 3225,
      "##ter": 3226,
      "##_chỉnh": 3227,
      "##_sơ": 3228,
      "khó_kh": 3229,
      "##est": 3230,
      "điều_chỉnh": 3231,
      "mặc_định": 3232,
      "5020": 3233,
      "khởi": 3234,
      "ban_ng": 3235,
      "thich": 3236,
      "hdr": 3237,
      "tương_tự": 3238,
      "bất_thường": 3239,
      "bất_k": 3240,
      "thuong": 3241,
      "like": 3242,
      "định_vị": 3243,
      "2018": 3244,
      "710": 3245,
      "quyết": 3246,
      "vinsmart": 3247,
      "inch": 3248,
      "##ast": 3249,
      "##_quanh": 3250,
      "quả_thật": 3251,
      "ace": 3252,
      "đen_thui": 3253,
      "sinh_nhật": 3254,
      "3500": 3255,
      "##_tín": 3256,
      "comment": 3257,
      "hết_m": 3258,
      "trò_chơi": 3259,
      "khôg": 3260,
      "kích_hoạt": 3261,
      "blutooth": 3262,
      "ytb": 3263,
      "##n_kho": 3264,
      "##_pubg": 3265,
      "mật_khẩu": 3266,
      "uy_tín": 3267,
      "delay": 3268,
      "đẳng_cấp": 3269,
      "sony": 3270,
      "ầm_ầm": 3271,
      "ọp_ẹp": 3272,
      "ổn_áp": 3273,
      "đơn_giản": 3274,
      "đến_nỗi": 3275,
      "khó_khăn": 3276,
      "ban_ngày": 3277,
      "95": 3278,
      "a_": 3279,
      "an_tâm": 3280,
      "bung": 3281,
      "bát": 3282,
      "bốc": 3283,
      "bee": 3284,
      "bởi": 3285,
      "ck": 3286,
      "cã": 3287,
      "cử": 3288,
      "can": 3289,
      "dạ": 3290,
      "dò": 3291,
      "dè": 3292,
      "duoc": 3293,
      "fim": 3294,
      "he": 3295,
      "hon": 3296,
      "hận": 3297,
      "hảo": 3298,
      "hỉu": 3299,
      "ic": 3300,
      "kệ": 3301,
      "lộ": 3302,
      "liệt": 3303,
      "mư": 3304,
      "mu": 3305,
      "mùng": 3306,
      "mưa": 3307,
      "miết": 3308,
      "ni": 3309,
      "nua": 3310,
      "nỗi": 3311,
      "nội": 3312,
      "rát": 3313,
      "rùa": 3314,
      "sx": 3315,
      "sữ": 3316,
      "sánh": 3317,
      "tv": 3318,
      "tầ": 3319,
      "tú": 3320,
      "tỉ": 3321,
      "tq": 3322,
      "tản": 3323,
      "tỉnh": 3324,
      "tft": 3325,
      "ui": 3326,
      "ve": 3327,
      "vơi": 3328,
      "vết": 3329,
      "vây": 3330,
      "vội": 3331,
      "văn": 3332,
      "wá": 3333,
      "xưa": 3334,
      "xaomi": 3335,
      "xót": 3336,
      "zin": 3337,
      "ôn": 3338,
      "ôm": 3339,
      "đục": 3340,
      "đằng": 3341,
      "đuoc": 3342,
      "ủng": 3343,
      "##hd": 3344,
      "##io": 3345,
      "##ship": 3346,
      "##ti": 3347,
      "##uch": 3348,
      "##pe": 3349,
      "##bội": 3350,
      "##ote": 3351,
      "##ậu": 3352,
      "##ụp": 3353,
      "##ãy": 3354,
      "##ơn_tr": 3355,
      "thù": 3356,
      "thằng": 3357,
      "thánh": 3358,
      "thuộc": 3359,
      "chuyên": 3360,
      "chốt": 3361,
      "chớp": 3362,
      "nhiệ": 3363,
      "nhiên": 3364,
      "khuôn": 3365,
      "khui": 3366,
      "khớp": 3367,
      "##n_v": 3368,
      "trí": 3369,
      "tróc": 3370,
      "trơn_tr": 3371,
      "##ina": 3372,
      "ngắn": 3373,
      "##_to": 3374,
      "##_từ": 3375,
      "##_tinh": 3376,
      "phế": 3377,
      "phiền": 3378,
      "quất": 3379,
      "##n_tử": 3380,
      "##m_bảo": 3381,
      "ngày_nay": 3382,
      "##_thân": 3383,
      "##_thực": 3384,
      "##_theo": 3385,
      "##u_ho": 3386,
      "##_huy": 3387,
      "lỗi_thời": 3388,
      "##_địch": 3389,
      "##iêt": 3390,
      "hình_sắc": 3391,
      "đểu": 3392,
      "loá": 3393,
      "điện_tử": 3394,
      "##c_m": 3395,
      "##uyệt": 3396,
      "ngườ": 3397,
      "mak": 3398,
      "vừa_lòng": 3399,
      "##ail": 3400,
      "##n_đo": 3401,
      "trước_đây": 3402,
      "##t_vài": 3403,
      "mở_m": 3404,
      "##_muốn": 3405,
      "##_bai": 3406,
      "chê_bai": 3407,
      "##end": 3408,
      "##_chỉ": 3409,
      "hiện_n": 3410,
      "thế_là": 3411,
      "mong_muốn": 3412,
      "##_cảm": 3413,
      "giải_đáp": 3414,
      "dùm": 3415,
      "cod": 3416,
      "vô_địch": 3417,
      "tác_dụng": 3418,
      "vsmart_": 3419,
      "bat": 3420,
      "##_kho": 3421,
      "##_xã": 3422,
      "##_xước": 3423,
      "##_xíu": 3424,
      "một_vài": 3425,
      "##_ngửa": 3426,
      "càng_ngày": 3427,
      "ngang_ngửa": 3428,
      "giải_thích": 3429,
      "lỗi_lầm": 3430,
      "bực_bội": 3431,
      "tối_ưu_ho": 3432,
      "trầy_xước": 3433,
      "kĩ_thuật": 3434,
      "luc": 3435,
      "rõ_rệt": 3436,
      "lý_do": 3437,
      "##agship": 3438,
      "flagship": 3439,
      "tggd": 3440,
      "huhu": 3441,
      "seal": 3442,
      "comb": 3443,
      "hết_s": 3444,
      "chúng_t": 3445,
      "đảm_bảo": 3446,
      "med": 3447,
      "thành_": 3448,
      "xã_hội": 3449,
      "tiktok": 3450,
      "xung_quanh": 3451,
      "niềm": 3452,
      "linh_tinh": 3453,
      "tuan": 3454,
      "asus": 3455,
      "type": 3456,
      "phát_sinh": 3457,
      "trơn_tru": 3458,
      "mở_màn": 3459,
      "hiện_nay": 3460,
      "càng_ngày_càng": 3461,
      "tối_ưu_hoá": 3462,
      "04": 3463,
      "300": 3464,
      "41": 3465,
      "4990": 3466,
      "75": 3467,
      "86": 3468,
      "ar": 3469,
      "be": 3470,
      "bế": 3471,
      "bự": 3472,
      "bận": 3473,
      "best": 3474,
      "ct": 3475,
      "cu": 3476,
      "cắt": 3477,
      "cạch": 3478,
      "du": 3479,
      "dô": 3480,
      "dì": 3481,
      "dỡ": 3482,
      "dth": 3483,
      "dag": 3484,
      "fa": 3485,
      "fai": 3486,
      "ga": 3487,
      "gr": 3488,
      "gà": 3489,
      "gạo": 3490,
      "hs": 3491,
      "hong": 3492,
      "hời": 3493,
      "huyện": 3494,
      "km": 3495,
      "kb": 3496,
      "kem": 3497,
      "ln": 3498,
      "lă": 3499,
      "lễ": 3500,
      "lên_": 3501,
      "mồ": 3502,
      "mơ": 3503,
      "mỹ": 3504,
      "mặ": 3505,
      "mng": 3506,
      "môi": 3507,
      "nố": 3508,
      "nối": 3509,
      "rẽ": 3510,
      "rổ": 3511,
      "rước": 3512,
      "room": 3513,
      "sứ": 3514,
      "sò": 3515,
      "tào": 3516,
      "tây": 3517,
      "tat": 3518,
      "ung": 3519,
      "vd": 3520,
      "vật": 3521,
      "vooc": 3522,
      "xò": 3523,
      "xui": 3524,
      "yế": 3525,
      "ép": 3526,
      "đắ": 3527,
      "đậm": 3528,
      "ướt": 3529,
      "ỗn": 3530,
      "##11": 3531,
      "##_em": 3532,
      "##_fire": 3533,
      "##ạn_x": 3534,
      "##ớn": 3535,
      "##ớc": 3536,
      "##ce": 3537,
      "##cm": 3538,
      "##xuống": 3539,
      "##li": 3540,
      "##line": 3541,
      "##bo": 3542,
      "##ot": 3543,
      "##ắt_": 3544,
      "##ẫm": 3545,
      "##ẩm_": 3546,
      "##đẹp": 3547,
      "##ơt": 3548,
      "tha": 3549,
      "chói": 3550,
      "china": 3551,
      "nhac": 3552,
      "kháng": 3553,
      "##n_g": 3554,
      "trơn": 3555,
      "trượt": 3556,
      "trưng": 3557,
      "phin": 3558,
      "phut": 3559,
      "phân_giải": 3560,
      "quận": 3561,
      "quạt": 3562,
      "##i_d": 3563,
      "##i_ph": 3564,
      "##iếc": 3565,
      "okey": 3566,
      "chơi_pubg": 3567,
      "##t_ra": 3568,
      "giá_tr": 3569,
      "cám": 3570,
      "##_lao": 3571,
      "##_lai": 3572,
      "##_dụ": 3573,
      "##_duyệt": 3574,
      "##_vệ": 3575,
      "##_vực": 3576,
      "##_vương": 3577,
      "##n_tập": 3578,
      "##n_tăn": 3579,
      "##_thước": 3580,
      "##_thượng": 3581,
      "##_hôi": 3582,
      "##_hộp": 3583,
      "hình_dáng": 3584,
      "nghệ": 3585,
      "nghiêm": 3586,
      "logo": 3587,
      "loạn_x": 3588,
      "##ool": 3589,
      "từ_từ": 3590,
      "man": 3591,
      "tot": 3592,
      "vừa_rồi": 3593,
      "hoàn": 3594,
      "đinh": 3595,
      "##_man": 3596,
      "bảo_vệ": 3597,
      "##i_đầu": 3598,
      "##_sách": 3599,
      "tím": 3600,
      "cầm_hơi": 3601,
      "##_nên": 3602,
      "mức_độ": 3603,
      "khoảng_cách": 3604,
      "thoai": 3605,
      "##luận": 3606,
      "rẻ_tiền": 3607,
      "hiệu_ứng": 3608,
      "vô_tư": 3609,
      "##_phần": 3610,
      "##_phép": 3611,
      "##red": 3612,
      "ghé": 3613,
      "##t_độ": 3614,
      "bass": 3615,
      "xog": 3616,
      "##_không": 3617,
      "##_khảo": 3618,
      "fun": 3619,
      "làm_đẹp": 3620,
      "bàn_c": 3621,
      "tiếp_theo": 3622,
      "one": 3623,
      "kinh_nghiệm": 3624,
      "##_rớt": 3625,
      "phụ_huy": 3626,
      "phản_ánh": 3627,
      "freefire": 3628,
      "thời_thượng": 3629,
      "dài_dài": 3630,
      "hic": 3631,
      "##u_mà": 3632,
      "micro": 3633,
      "rơi_rớt": 3634,
      "đập_hộp": 3635,
      "gia_công": 3636,
      "vui_tính": 3637,
      "chân_thật": 3638,
      "chân_thực": 3639,
      "khuân": 3640,
      "tàm": 3641,
      "góp_ý": 3642,
      "nếu_mà": 3643,
      "kết_luận": 3644,
      "meg": 3645,
      "vượt_trội": 3646,
      "xác_định": 3647,
      "hồ_sơ": 3648,
      "kích_thước": 3649,
      "trình_duyệt": 3650,
      "wiffi": 3651,
      "dã_man": 3652,
      "mìh": 3653,
      "viettel": 3654,
      "gương_mặt": 3655,
      "tham_khảo": 3656,
      "trực_tiếp": 3657,
      "632": 3658,
      "find": 3659,
      "lệch": 3660,
      "cử_chỉ": 3661,
      "tần_s": 3662,
      "túm": 3663,
      "nhiệt_độ": 3664,
      "combat": 3665,
      "media": 3666,
      "lăn_tăn": 3667,
      "lên_xuống": 3668,
      "mồ_hôi": 3669,
      "tào_lao": 3670,
      "đắn_đo": 3671,
      "giá_trị": 3672,
      "loạn_xạ": 3673,
      "bàn_cãi": 3674,
      "phụ_huynh": 3675,
      "02": 3676,
      "03": 3677,
      "34": 3678,
      "44": 3679,
      "400": 3680,
      "bb": 3681,
      "bă": 3682,
      "bay": 3683,
      "bước": 3684,
      "biểu": 3685,
      "bubg": 3686,
      "bóp": 3687,
      "buộc": 3688,
      "cg": 3689,
      "cv": 3690,
      "cư": 3691,
      "cổ": 3692,
      "cẩ": 3693,
      "cù": 3694,
      "canh": 3695,
      "câm": 3696,
      "cau": 3697,
      "dụ": 3698,
      "day": 3699,
      "dật": 3700,
      "dẫn": 3701,
      "dem": 3702,
      "fm": 3703,
      "gò": 3704,
      "gps": 3705,
      "gói": 3706,
      "gpu": 3707,
      "hì": 3708,
      "hj": 3709,
      "huy": 3710,
      "hấp": 3711,
      "hát": 3712,
      "hạng": 3713,
      "hạt": 3714,
      "hiếm": 3715,
      "it": 3716,
      "iph": 3717,
      "jack": 3718,
      "kiến": 3719,
      "lẻ": 3720,
      "lao": 3721,
      "lận": 3722,
      "len": 3723,
      "lăm": 3724,
      "lấm": 3725,
      "lợi": 3726,
      "luot": 3727,
      "mược": 3728,
      "manh": 3729,
      "nọ": 3730,
      "nong": 3731,
      "nịnh": 3732,
      "ninh": 3733,
      "nuốt": 3734,
      "ném": 3735,
      "or": 3736,
      "pt": 3737,
      "pm": 3738,
      "ping": 3739,
      "rật": 3740,
      "rôi": 3741,
      "rít": 3742,
      "sv": 3743,
      "sm": 3744,
      "sờ": 3745,
      "sức": 3746,
      "tn": 3747,
      "tắc": 3748,
      "tích": 3749,
      "tái": 3750,
      "tạo": 3751,
      "vê": 3752,
      "vm": 3753,
      "vk": 3754,
      "vọ": 3755,
      "vao": 3756,
      "vèo": 3757,
      "wj": 3758,
      "xách": 3759,
      "yên": 3760,
      "zl": 3761,
      "áo": 3762,
      "ôi": 3763,
      "ăn_th": 3764,
      "đu": 3765,
      "đút": 3766,
      "đống": 3767,
      "đứt": 3768,
      "đuối": 3769,
      "ấp": 3770,
      "ồn": 3771,
      "##gg": 3772,
      "##he": 3773,
      "##hệ": 3774,
      "##ec": 3775,
      "##ve": 3776,
      "##ver": 3777,
      "##screen": 3778,
      "##_w": 3779,
      "##ấc": 3780,
      "##co": 3781,
      "##rus": 3782,
      "##po": 3783,
      "##pin": 3784,
      "##ú_vị": 3785,
      "##mi_n": 3786,
      "##xx": 3787,
      "##én": 3788,
      "##dt": 3789,
      "##ồm": 3790,
      "##ổn": 3791,
      "##ật_v": 3792,
      "##ẩn_b": 3793,
      "##ịt": 3794,
      "##ngột": 3795,
      "thô": 3796,
      "thả": 3797,
      "thơ": 3798,
      "thây": 3799,
      "thẩm_": 3800,
      "thú_vị": 3801,
      "chiêu": 3802,
      "chât": 3803,
      "nhấp": 3804,
      "nhỉnh": 3805,
      "nhám": 3806,
      "nhịp": 3807,
      "khối": 3808,
      "##n_ho": 3809,
      "tru": 3810,
      "trục": 3811,
      "tránh": 3812,
      "truyện": 3813,
      "ngu": 3814,
      "ngờ": 3815,
      "nguo": 3816,
      "ngốn": 3817,
      "##_tả": 3818,
      "##_tâm": 3819,
      "##_tốc": 3820,
      "##_tiếng": 3821,
      "phổ": 3822,
      "phương": 3823,
      "phiếu": 3824,
      "phẫm": 3825,
      "quốc": 3826,
      "##t_ru": 3827,
      "##_dùng": 3828,
      "##_dành": 3829,
      "##m_r": 3830,
      "##_thúc": 3831,
      "cho_rồi": 3832,
      "##u_ý": 3833,
      "##_hd": 3834,
      "##_hại": 3835,
      "##_đề": 3836,
      "##_đài": 3837,
      "##_đắn": 3838,
      "tay_phải": 3839,
      "nghi": 3840,
      "nghiêng": 3841,
      "để_dành": 3842,
      "##_nháy": 3843,
      "thức": 3844,
      "quang_h": 3845,
      "người_thân": 3846,
      "tệ_hại": 3847,
      "##_trường": 3848,
      "##_trặc": 3849,
      "bảng": 3850,
      "##ood": 3851,
      "mag": 3852,
      "mat": 3853,
      "mai_m": 3854,
      "made": 3855,
      "tok": 3856,
      "touch": 3857,
      "thất_b": 3858,
      "hoa": 3859,
      "hoá": 3860,
      "thôi_thì": 3861,
      "nhất_định": 3862,
      "đien": 3863,
      "liên_hệ": 3864,
      "##_bộ": 3865,
      "mất_m": 3866,
      "##_chi_là": 3867,
      "##_sơn": 3868,
      "##_gia": 3869,
      "##khó": 3870,
      "##_nói": 3871,
      "nhỏ_xíu": 3872,
      "lưu_ý": 3873,
      "trung_thành": 3874,
      "xiao": 3875,
      "đúng_đắn": 3876,
      "thật_ra": 3877,
      "chuẩn_b": 3878,
      "đa_số": 3879,
      "chiếm": 3880,
      "mobi": 3881,
      "##_xưa": 3882,
      "tương_lai": 3883,
      "full_hd": 3884,
      "##_trai": 3885,
      "thuần": 3886,
      "tận_tâm": 3887,
      "onscreen": 3888,
      "##n_trâu": 3889,
      "messag": 3890,
      "dự_định": 3891,
      "biet": 3892,
      "free_fire": 3893,
      "480": 3894,
      "tab": 3895,
      "vina": 3896,
      "sống_động": 3897,
      "##zzz": 3898,
      "kết_thúc": 3899,
      "thực_hiện": 3900,
      "dien": 3901,
      "gia_đình": 3902,
      "bố_mẹ": 3903,
      "tổng_quan": 3904,
      "tổng_đài": 3905,
      "cụ_thể": 3906,
      "##iiii": 3907,
      "khuông": 3908,
      "khu_vực": 3909,
      "phảm": 3910,
      "hum": 3911,
      "thank": 3912,
      "gop": 3913,
      "chút_": 3914,
      "ttdd": 3915,
      "tồi_tệ": 3916,
      "tài_kho": 3917,
      "tiêu_ch": 3918,
      "kỳ_vọng": 3919,
      "675": 3920,
      "##ice": 3921,
      "##2222": 3922,
      "toàn_tập": 3923,
      "##tttttttttttttttt": 3924,
      "modem": 3925,
      "lãi_s": 3926,
      "lướt_": 3927,
      "đột_ngột": 3928,
      "offline": 3929,
      "pop": 3930,
      "ví_dụ": 3931,
      "icon": 3932,
      "hết_sức": 3933,
      "chúng_ta": 3934,
      "biểu_tượng": 3935,
      "hấp_dẫn": 3936,
      "iphon": 3937,
      "ăn_thua": 3938,
      "##mi_note": 3939,
      "trục_trặc": 3940,
      "nguoi": 3941,
      "quang_học": 3942,
      "mai_mốt": 3943,
      "thất_bại": 3944,
      "chuẩn_bị": 3945,
      "tài_khoản": 3946,
      "lãi_suất": 3947,
      "01": 3948,
      "08": 3949,
      "07": 3950,
      "1000": 3951,
      "37": 3952,
      "47": 3953,
      "59": 3954,
      "600": 3955,
      "79": 3956,
      "700": 3957,
      "800": 3958,
      "an_toàn": 3959,
      "bằ": 3960,
      "binh": 3961,
      "back": 3962,
      "cú": 3963,
      "cẩm": 3964,
      "cọc": 3965,
      "cúp": 3966,
      "cưng": 3967,
      "câp": 3968,
      "cắt_": 3969,
      "ds": 3970,
      "dẹp": 3971,
      "dao": 3972,
      "dịp": 3973,
      "gra": 3974,
      "hữ": 3975,
      "hqua": 3976,
      "hau": 3977,
      "hẹn": 3978,
      "ips": 3979,
      "kí": 3980,
      "kẻ": 3981,
      "kẻo": 3982,
      "lc": 3983,
      "luô": 3984,
      "lực": 3985,
      "lấp": 3986,
      "lỏng": 3987,
      "leno": 3988,
      "lạnh": 3989,
      "mô": 3990,
      "mx": 3991,
      "mò": 3992,
      "mụ": 3993,
      "mự": 3994,
      "men": 3995,
      "mầu": 3996,
      "mui": 3997,
      "mịn": 3998,
      "nv": 3999,
      "nu": 4000,
      "né": 4001,
      "nch": 4002,
      "nao": 4003,
      "nai": 4004,
      "nen": 4005,
      "nốt": 4006,
      "opp": 4007,
      "pj": 4008,
      "pay": 4009,
      "rò": 4010,
      "ràng": 4011,
      "ròi": 4012,
      "sn": 4013,
      "sá": 4014,
      "súng": 4015,
      "screen": 4016,
      "tớ": 4017,
      "tê": 4018,
      "tổ": 4019,
      "tiệt": 4020,
      "táo": 4021,
      "tiệm": 4022,
      "tẩy": 4023,
      "tịt": 4024,
      "vớ": 4025,
      "vững": 4026,
      "vọc": 4027,
      "ver": 4028,
      "vầy": 4029,
      "vlo": 4030,
      "xuyên": 4031,
      "y_ch": 4032,
      "zay": 4033,
      "ân_c": 4034,
      "đg": 4035,
      "đx": 4036,
      "đờ": 4037,
      "đị": 4038,
      "đài": 4039,
      "điể": 4040,
      "đét": 4041,
      "đương": 4042,
      "đạo": 4043,
      "đứa": 4044,
      "##gend": 4045,
      "##ha": 4046,
      "##vo": 4047,
      "##is": 4048,
      "##it": 4049,
      "##ien": 4050,
      "##ill": 4051,
      "##nam": 4052,
      "##net": 4053,
      "##_f": 4054,
      "##ưu": 4055,
      "##ớt_": 4056,
      "##ck": 4057,
      "##uu": 4058,
      "##um": 4059,
      "##uong": 4060,
      "##uẩn": 4061,
      "##ry": 4062,
      "##rbo": 4063,
      "##ôm": 4064,
      "##máy": 4065,
      "##àm": 4066,
      "##ìn": 4067,
      "##bh": 4068,
      "##out": 4069,
      "##km": 4070,
      "##ẹo": 4071,
      "##ộm": 4072,
      "##ẫy": 4073,
      "##ăt": 4074,
      "##èn": 4075,
      "##ợn": 4076,
      "##ãng": 4077,
      "##ển_đ": 4078,
      "##ũng": 4079,
      "##ủi": 4080,
      "##ẵng": 4081,
      "thần": 4082,
      "thiên": 4083,
      "thậm": 4084,
      "thèm": 4085,
      "thít": 4086,
      "cháy": 4087,
      "chóng": 4088,
      "chừng": 4089,
      "chắn": 4090,
      "nhay": 4091,
      "nhân_": 4092,
      "nhắc": 4093,
      "nhieu": 4094,
      "khỏ": 4095,
      "khắc": 4096,
      "khẩu": 4097,
      "máy_ok": 4098,
      "tròn": 4099,
      "##amsung": 4100,
      "ngọc": 4101,
      "mua_s": 4102,
      "##_tắt": 4103,
      "##_tạm": 4104,
      "##_tối": 4105,
      "##_tóm": 4106,
      "##_tiếc": 4107,
      "rất_chi_là": 4108,
      "gio": 4109,
      "giấy": 4110,
      "làn": 4111,
      "lành": 4112,
      "như_ý": 4113,
      "phanh": 4114,
      "phiề": 4115,
      "phúc": 4116,
      "phán": 4117,
      "phâm": 4118,
      "##i_qu": 4119,
      "quá_trình": 4120,
      "giác": 4121,
      "##phá": 4122,
      "tuân": 4123,
      "turbo": 4124,
      "##_lộ": 4125,
      "##_linh": 4126,
      "##_vă": 4127,
      "##giang": 4128,
      "##n_tay": 4129,
      "##n_tre": 4130,
      "ngày_xưa": 4131,
      "camere": 4132,
      "##_thọ": 4133,
      "##_thông": 4134,
      "##_thiết": 4135,
      "##_thái": 4136,
      "sảm": 4137,
      "##u_b": 4138,
      "##u_ích": 4139,
      "chỉ_số": 4140,
      "##_hiểm": 4141,
      "##_đích": 4142,
      "loi": 4143,
      "love": 4144,
      "##_nhập": 4145,
      "##c_ng": 4146,
      "##c_sắc": 4147,
      "##c_quy": 4148,
      "##n_thận": 4149,
      "##_cố": 4150,
      "##_con": 4151,
      "##_cao": 4152,
      "quang": 4153,
      "tuyệt_đ": 4154,
      "tiếg": 4155,
      "nói_tóm": 4156,
      "sáng_s": 4157,
      "##n_đại": 4158,
      "hoàng": 4159,
      "thích_ngh": 4160,
      "đáp": 4161,
      "tự_tin": 4162,
      "##_máy": 4163,
      "##_mai": 4164,
      "##_mau": 4165,
      "##_max": 4166,
      "##tek": 4167,
      "##_chữ": 4168,
      "##_chủ": 4169,
      "hiện_đại": 4170,
      "đầu_tư": 4171,
      "chất_liệu": 4172,
      "bình_dương": 4173,
      "##_sáng": 4174,
      "##_snap": 4175,
      "cực_độ": 4176,
      "độc": 4177,
      "đội_ng": 4178,
      "độc_quy": 4179,
      "oppo_r": 4180,
      "##_cảnh": 4181,
      "##_niên": 4182,
      "##_nội": 4183,
      "thua_k": 4184,
      "trung_thực": 4185,
      "khóa": 4186,
      "thoải": 4187,
      "kết_h": 4188,
      "bỏ_qua": 4189,
      "đa_điểm": 4190,
      "ghe": 4191,
      "ghim": 4192,
      "##i_lòng": 4193,
      "thông_cảm": 4194,
      "chuyển_đ": 4195,
      "đặc_sắc": 4196,
      "hdh": 4197,
      "##_xứng": 4198,
      "hốt": 4199,
      "haiz": 4200,
      "cơ_mà": 4201,
      "vui_lòng": 4202,
      "làm_khó": 4203,
      "tương_xứng": 4204,
      "thuật": 4205,
      "may_m": 4206,
      "linh_": 4207,
      "##n_luôn": 4208,
      "thể_hiện": 4209,
      "thể_loại": 4210,
      "tối_om": 4211,
      "2016": 4212,
      "trang_w": 4213,
      "bùn": 4214,
      "450": 4215,
      "hưng": 4216,
      "phông_chữ": 4217,
      "chủ_đề": 4218,
      "thị_xã": 4219,
      "lung_linh": 4220,
      "inter": 4221,
      "##ass": 4222,
      "dis": 4223,
      "tưởng_tượng": 4224,
      "lum": 4225,
      "##mobile": 4226,
      "bốn": 4227,
      "anh_chị_em": 4228,
      "black": 4229,
      "999": 4230,
      "bữa_nay": 4231,
      "##n_diện": 4232,
      "nguyê": 4233,
      "nguyên_": 4234,
      "kinh_do": 4235,
      "nhiu": 4236,
      "##m_chạp": 4237,
      "đăng_nhập": 4238,
      "pin_trâu": 4239,
      "mjk": 4240,
      "gaming": 4241,
      "dep": 4242,
      "##n_giang": 4243,
      "mục_đích": 4244,
      "##kkkkkkkk": 4245,
      "cà_mau": 4246,
      "hà_nội": 4247,
      "hối_tiếc": 4248,
      "ssa": 4249,
      "##n_nhẹ": 4250,
      "legend": 4251,
      "chậm_r": 4252,
      "chậm_chạp": 4253,
      "trạng_thái": 4254,
      "gọn_nhẹ": 4255,
      "tiêu_dùng": 4256,
      "bất_kỳ": 4257,
      "hết_mình": 4258,
      "##n_khoăn": 4259,
      "tỉ_lệ": 4260,
      "##tion": 4261,
      "bến_tre": 4262,
      "môi_trường": 4263,
      "nốt_ru": 4264,
      "yếu_": 4265,
      "tàm_tạm": 4266,
      "mediatek": 4267,
      "băn_khoăn": 4268,
      "cẩn_thận": 4269,
      "vmast": 4270,
      "vọg": 4271,
      "thơm": 4272,
      "##n_hoà": 4273,
      "mất_mạng": 4274,
      "gopro": 4275,
      "lướt_f": 4276,
      "bằg": 4277,
      "hữu_ích": 4278,
      "lcd": 4279,
      "luôn_luôn": 4280,
      "lenovo": 4281,
      "vlog": 4282,
      "y_chang": 4283,
      "ân_cần": 4284,
      "đời_đầu": 4285,
      "mua_sắm": 4286,
      "nói_tóm_lại": 4287,
      "sáng_suốt": 4288,
      "thích_nghi": 4289,
      "đội_ngũ": 4290,
      "độc_quyền": 4291,
      "oppo_reno": 4292,
      "thua_kém": 4293,
      "kết_hợp": 4294,
      "trang_web": 4295,
      "internet": 4296,
      "kinh_doanh": 4297,
      "chậm_rì": 4298,
      "nốt_ruồi": 4299,
      "00": 4300,
      "190": 4301,
      "52": 4302,
      "53": 4303,
      "62": 4304,
      "74": 4305,
      "83": 4306,
      "94": 4307,
      "av": 4308,
      "at": 4309,
      "am": 4310,
      "al": 4311,
      "ao": 4312,
      "all": 4313,
      "bk": 4314,
      "bụng": 4315,
      "buô": 4316,
      "bậy": 4317,
      "bắc_": 4318,
      "bọc": 4319,
      "bth": 4320,
      "bẩn": 4321,
      "biêt": 4322,
      "cn": 4323,
      "cành": 4324,
      "cac": 4325,
      "cặp": 4326,
      "cậu": 4327,
      "cool": 4328,
      "dầ": 4329,
      "dx": 4330,
      "dị": 4331,
      "dơ": 4332,
      "dáng": 4333,
      "dộng": 4334,
      "dực": 4335,
      "dương": 4336,
      "dọc": 4337,
      "dat": 4338,
      "duo": 4339,
      "fe": 4340,
      "fr": 4341,
      "ge": 4342,
      "gầ": 4343,
      "gí": 4344,
      "gm": 4345,
      "hg": 4346,
      "hí": 4347,
      "hậ": 4348,
      "hđ": 4349,
      "ham": 4350,
      "hùng": 4351,
      "hân": 4352,
      "hang": 4353,
      "hào": 4354,
      "hồn": 4355,
      "hnay": 4356,
      "hel": 4357,
      "hữu": 4358,
      "hẻo": 4359,
      "kt": 4360,
      "kô": 4361,
      "ko": 4362,
      "kk": 4363,
      "kỉ": 4364,
      "kiể": 4365,
      "kẹt": 4366,
      "lg": 4367,
      "lẹ": 4368,
      "lụ": 4369,
      "lq": 4370,
      "lặ": 4371,
      "lôi": 4372,
      "lạy": 4373,
      "lăng": 4374,
      "mù": 4375,
      "mât": 4376,
      "mõi": 4377,
      "mép": 4378,
      "mến": 4379,
      "ne": 4380,
      "nf": 4381,
      "nm": 4382,
      "nộ": 4383,
      "nan": 4384,
      "neo": 4385,
      "oi": 4386,
      "oled": 4387,
      "pv": 4388,
      "pb": 4389,
      "pải": 4390,
      "pim": 4391,
      "qc": 4392,
      "rì": 4393,
      "răng": 4394,
      "rực": 4395,
      "rớt_": 4396,
      "si": 4397,
      "só": 4398,
      "sẻ": 4399,
      "sân": 4400,
      "siê": 4401,
      "sắm": 4402,
      "sước": 4403,
      "sương": 4404,
      "suống": 4405,
      "suất": 4406,
      "sách": 4407,
      "sám": 4408,
      "slo": 4409,
      "sọt": 4410,
      "sdt": 4411,
      "tạ": 4412,
      "tồ": 4413,
      "tâ": 4414,
      "tù": 4415,
      "tỷ": 4416,
      "tao": 4417,
      "tem": 4418,
      "tim": 4419,
      "tiv": 4420,
      "tiêng": 4421,
      "tẹt": 4422,
      "tụi": 4423,
      "tks": 4424,
      "vó": 4425,
      "viện": 4426,
      "ving": 4427,
      "vâng": 4428,
      "vĩnh": 4429,
      "xá": 4430,
      "xxx": 4431,
      "za": 4432,
      "zo": 4433,
      "ào": 4434,
      "ái": 4435,
      "íu": 4436,
      "ôk": 4437,
      "úp": 4438,
      "đê": 4439,
      "đơi": 4440,
      "đồi": 4441,
      "đào": 4442,
      "đức": 4443,
      "đấu": 4444,
      "ẻm": 4445,
      "ủa": 4446,
      "ứg": 4447,
      "ức": 4448,
      "##gì": 4449,
      "##era": 4450,
      "##ist": 4451,
      "##nở": 4452,
      "##nd": 4453,
      "##sh": 4454,
      "##tg": 4455,
      "##ần_th": 4456,
      "##_anh": 4457,
      "##_ứng": 4458,
      "##_sung": 4459,
      "##_qu": 4460,
      "##_an": 4461,
      "##_ổn": 4462,
      "##ếp": 4463,
      "##pad": 4464,
      "##mg": 4465,
      "##mi_": 4466,
      "##àu": 4467,
      "##ìm": 4468,
      "##xt": 4469,
      "##lm": 4470,
      "##lạc": 4471,
      "##live": 4472,
      "##ởm": 4473,
      "##bg": 4474,
      "##ble": 4475,
      "##ber": 4476,
      "##oà": 4477,
      "##oy": 4478,
      "##oppo": 4479,
      "##dy": 4480,
      "##kiện": 4481,
      "##âý": 4482,
      "##yên": 4483,
      "##ời_": 4484,
      "##ăc": 4485,
      "##định": 4486,
      "##ãm": 4487,
      "##ão": 4488,
      "##joy": 4489,
      "##ĩnh_": 4490,
      "##ngày": 4491,
      "##nhân": 4492,
      "thg": 4493,
      "thê": 4494,
      "thỏ": 4495,
      "thề": 4496,
      "tháy": 4497,
      "them": 4498,
      "thẳng": 4499,
      "thât": 4500,
      "thu_nh": 4501,
      "chó": 4502,
      "cham": 4503,
      "chon": 4504,
      "chan": 4505,
      "châm": 4506,
      "chọc": 4507,
      "chưởng": 4508,
      "chuối": 4509,
      "chèn": 4510,
      "nhạ": 4511,
      "nhỡ": 4512,
      "nhức": 4513,
      "nhịu": 4514,
      "nhằm": 4515,
      "khg": 4516,
      "khổ": 4517,
      "khiếp": 4518,
      "##n_pin": 4519,
      "máy_tính": 4520,
      "máy_cái": 4521,
      "trà": 4522,
      "trần": 4523,
      "trứng": 4524,
      "trách": 4525,
      "##ink": 4526,
      "ngâm": 4527,
      "##_tập": 4528,
      "giọng": 4529,
      "giực": 4530,
      "giành": 4531,
      "như_không": 4532,
      "phản": 4533,
      "phỏng": 4534,
      "nói_": 4535,
      "quê": 4536,
      "quỳ": 4537,
      "quăng": 4538,
      "quản": 4539,
      "##i_x": 4540,
      "tốt_b": 4541,
      "tốt_đẹp": 4542,
      "san": 4543,
      "sanh": 4544,
      "sale": 4545,
      "okee": 4546,
      "##t_c": 4547,
      "##t_d": 4548,
      "bịt": 4549,
      "cáu": 4550,
      "tum": 4551,
      "##_long": 4552,
      "##_lâm": 4553,
      "##_lịch": 4554,
      "##_lắng": 4555,
      "nhanh_nh": 4556,
      "##_da": 4557,
      "##_dân": 4558,
      "##_vì": 4559,
      "##_vò": 4560,
      "##_việt": 4561,
      "##_viện": 4562,
      "##m_m": 4563,
      "##m_nở": 4564,
      "ngày_giờ": 4565,
      "camer": 4566,
      "##_tháp": 4567,
      "##ỗi_tội": 4568,
      "chỉ_m": 4569,
      "##n_phức": 4570,
      "##_hệ": 4571,
      "##_hổi": 4572,
      "##_hào": 4573,
      "##_hạn": 4574,
      "##_đại": 4575,
      "##_đời": 4576,
      "##_đen": 4577,
      "##_đảo": 4578,
      "##_đồng": 4579,
      "##_đón": 4580,
      "tay_tr": 4581,
      "loè": 4582,
      "lo_lắng": 4583,
      "sao_ch": 4584,
      "##_nhã": 4585,
      "##c_c": 4586,
      "##c_x": 4587,
      "##c_kia": 4588,
      "##c_ăn": 4589,
      "tuyêt": 4590,
      "##0000": 4591,
      "nóng_b": 4592,
      "nóng_hổi": 4593,
      "thức_ăn": 4594,
      "##uyến": 4595,
      "lan": 4596,
      "lai_v": 4597,
      "##nh_b": 4598,
      "quad": 4599,
      "quanh": 4600,
      "khoa": 4601,
      "khoái": 4602,
      "tiến_tr": 4603,
      "email": 4604,
      "##ườn": 4605,
      "101": 4606,
      "sams": 4607,
      "map": 4608,
      "đth": 4609,
      "thiết_": 4610,
      "##n_đồ": 4611,
      "##pper": 4612,
      "liên_lạc": 4613,
      "tự_hào": 4614,
      "##_mua": 4615,
      "##acebook": 4616,
      "##_bỏ": 4617,
      "##_bút": 4618,
      "##_bẩy": 4619,
      "##ena": 4620,
      "mất_công": 4621,
      "##_chay": 4622,
      "##_chạm": 4623,
      "##_chừng": 4624,
      "bình_dân": 4625,
      "##_sổ": 4626,
      "##_sợ": 4627,
      "##nghĩ": 4628,
      "thế_hệ": 4629,
      "dow": 4630,
      "doanh": 4631,
      "màu_da": 4632,
      "##roup": 4633,
      "you": 4634,
      "bật_tắt": 4635,
      "lưới": 4636,
      "chip_snap": 4637,
      "dù_sao": 4638,
      "khó_tính": 4639,
      "thoy": 4640,
      "mặt_trời": 4641,
      "xuống_cấp": 4642,
      "điều_kh": 4643,
      "xiu": 4644,
      "xinh_x": 4645,
      "colo": 4646,
      "vô_dụng": 4647,
      "##_phát": 4648,
      "##ream": 4649,
      "đa_phần": 4650,
      "ghz": 4651,
      "hỗn_h": 4652,
      "đồng_bộ": 4653,
      "đồng_tháp": 4654,
      "##i_lại": 4655,
      "maxset": 4656,
      "chiếu": 4657,
      "mobe": 4658,
      "##_khiếp": 4659,
      "##_xử": 4660,
      "redme": 4661,
      "cơ_hội": 4662,
      "film": 4663,
      "bà_con": 4664,
      "sự_cố": 4665,
      "bất_ổn": 4666,
      "tiếp_đón": 4667,
      "thuận_": 4668,
      "hiển": 4669,
      "mpx": 4670,
      "chảo": 4671,
      "mesenger": 4672,
      "chờn": 4673,
      "add": 4674,
      "##api": 4675,
      "chiều_tối": 4676,
      "khuyết": 4677,
      "712": 4678,
      "trang_trí": 4679,
      "bluetoo": 4680,
      "trắng_đen": 4681,
      "161": 4682,
      "405": 4683,
      "4030": 4684,
      "settings": 4685,
      "virus": 4686,
      "khủng_khiếp": 4687,
      "đỉnh_cao": 4688,
      "##_thuận": 4689,
      "##_thuật_v": 4690,
      "đèn_pin": 4691,
      "ưu_đãi": 4692,
      "volu": 4693,
      "dởm": 4694,
      "va_chạm": 4695,
      "bla": 4696,
      "bóng_bẩy": 4697,
      "quản_lí": 4698,
      "huwei": 4699,
      "kìa": 4700,
      "chú_ý": 4701,
      "cây_bút": 4702,
      "pit": 4703,
      "pixel": 4704,
      "ttbh": 4705,
      "mjnh": 4706,
      "tôn": 4707,
      "châu_thành": 4708,
      "trước_m": 4709,
      "trước_kia": 4710,
      "danh_sách": 4711,
      "hazzz": 4712,
      "ncl": 4713,
      "kéo_dài": 4714,
      "phải_chi": 4715,
      "văn_bản": 4716,
      "thư_viện": 4717,
      "box": 4718,
      "lừa_đảo": 4719,
      "tươi_sáng": 4720,
      "##store": 4721,
      "##i_nói": 4722,
      "toàn_diện": 4723,
      "##pppppppp": 4724,
      "nguyễn_tr": 4725,
      "mìn": 4726,
      "niềm_nở": 4727,
      "sum": 4728,
      "tele": 4729,
      "vietnam": 4730,
      "439": 4731,
      "trực_tuyến": 4732,
      "kkkk": 4733,
      "ngược_lại": 4734,
      "bjo": 4735,
      "ruồi": 4736,
      "áp_dụng": 4737,
      "##_dương_vương": 4738,
      "bất_kì": 4739,
      "hết_mức": 4740,
      "candy": 4741,
      "hehe": 4742,
      "mươt": 4743,
      "##_toán": 4744,
      "thành_ra": 4745,
      "ctkm": 4746,
      "gram": 4747,
      "lễ_phép": 4748,
      "mặt_hàng": 4749,
      "##redmi_note": 4750,
      "megapi": 4751,
      "tần_số": 4752,
      "sms": 4753,
      "đút_túi": 4754,
      "thẩm_định": 4755,
      "phổ_thông": 4756,
      "quốc_tế": 4757,
      "xiaomi_": 4758,
      "message": 4759,
      "##iiiii": 4760,
      "tiêu_chuẩn": 4761,
      "grab": 4762,
      "lấp_vò": 4763,
      "mxh": 4764,
      "mụn": 4765,
      "tẩy_chay": 4766,
      "very": 4767,
      "đương_nhiên": 4768,
      "##outube": 4769,
      "chóng_mặt": 4770,
      "khẩu_trang": 4771,
      "phiền_phức": 4772,
      "chuyển_đổi": 4773,
      "may_mắn": 4774,
      "linh_kiện": 4775,
      "nguyên_nhân": 4776,
      "bthuong": 4777,
      "coolpad": 4778,
      "geam": 4779,
      "helio": 4780,
      "rớt_giá": 4781,
      "sámung": 4782,
      "slow": 4783,
      "tồn_kho": 4784,
      "tỷ_lệ": 4785,
      "tivi": 4786,
      "vingroup": 4787,
      "thu_nhập": 4788,
      "nhanh_nhạy": 4789,
      "chỉ_mỗi_tội": 4790,
      "nóng_bỏng": 4791,
      "lai_vung": 4792,
      "điều_khiển": 4793,
      "hỗn_hợp": 4794,
      "mobell": 4795,
      "##_thuật_viên": 4796,
      "trước_mắt": 4797,
      "09": 4798,
      "05": 4799,
      "06": 4800,
      "2000": 4801,
      "290": 4802,
      "38": 4803,
      "39": 4804,
      "390": 4805,
      "42": 4806,
      "46": 4807,
      "56": 4808,
      "77": 4809,
      "82": 4810,
      "88": 4811,
      "87": 4812,
      "84": 4813,
      "93": 4814,
      "900": 4815,
      "au": 4816,
      "ass": 4817,
      "bg": 4818,
      "bc": 4819,
      "bx": 4820,
      "bở": 4821,
      "bó": 4822,
      "bậ": 4823,
      "bẻ": 4824,
      "bùng": 4825,
      "bắc": 4826,
      "băng": 4827,
      "cở": 4828,
      "cất": 4829,
      "cay": 4830,
      "cạn": 4831,
      "cườ": 4832,
      "car": 4833,
      "căn": 4834,
      "cầy": 4835,
      "cằm": 4836,
      "dế": 4837,
      "dr": 4838,
      "dẫ": 4839,
      "dọ": 4840,
      "dử": 4841,
      "dz": 4842,
      "dong": 4843,
      "dân_": 4844,
      "diệu": 4845,
      "dầu": 4846,
      "dro": 4847,
      "dựa": 4848,
      "dầy": 4849,
      "ex": 4850,
      "ed": 4851,
      "fon": 4852,
      "fhd": 4853,
      "gê": 4854,
      "gy": 4855,
      "gó": 4856,
      "gật": 4857,
      "gan": 4858,
      "gạt": 4859,
      "gãy": 4860,
      "gồm": 4861,
      "há": 4862,
      "hp": 4863,
      "hm": 4864,
      "hột": 4865,
      "hạn": 4866,
      "hóng": 4867,
      "hây": 4868,
      "hạch": 4869,
      "hớt": 4870,
      "hít": 4871,
      "hieu": 4872,
      "hứa": 4873,
      "hcm": 4874,
      "is": 4875,
      "kỷ": 4876,
      "kung": 4877,
      "kiê": 4878,
      "kêt": 4879,
      "ly": 4880,
      "lổ": 4881,
      "lạc": 4882,
      "lục": 4883,
      "lỏi": 4884,
      "lte": 4885,
      "liv": 4886,
      "lâm": 4887,
      "lọc": 4888,
      "lãi": 4889,
      "lắng": 4890,
      "lặp": 4891,
      "line": 4892,
      "lọt": 4893,
      "lứa": 4894,
      "lĩnh": 4895,
      "lởm": 4896,
      "link": 4897,
      "mí": 4898,
      "mông": 4899,
      "mên": 4900,
      "mao": 4901,
      "mườ": 4902,
      "mét": 4903,
      "mực": 4904,
      "mảng": 4905,
      "mus": 4906,
      "méo": 4907,
      "nê": 4908,
      "ny": 4909,
      "nề": 4910,
      "nài": 4911,
      "nấy": 4912,
      "nâu": 4913,
      "nướ": 4914,
      "nát": 4915,
      "nêu": 4916,
      "nầy": 4917,
      "nice": 4918,
      "op": 4919,
      "oan": 4920,
      "otg": 4921,
      "pes": 4922,
      "pug": 4923,
      "qr": 4924,
      "riết": 4925,
      "rinh": 4926,
      "rừng": 4927,
      "rắn": 4928,
      "rie": 4929,
      "rồng": 4930,
      "sf": 4931,
      "sủ": 4932,
      "sụng": 4933,
      "sứng": 4934,
      "sục": 4935,
      "sữa": 4936,
      "sậm": 4937,
      "sàn": 4938,
      "sấu": 4939,
      "sóc": 4940,
      "shi": 4941,
      "sụp": 4942,
      "sưu": 4943,
      "săc": 4944,
      "tứ": 4945,
      "tl": 4946,
      "tb": 4947,
      "tè": 4948,
      "tủ": 4949,
      "tông": 4950,
      "tph": 4951,
      "tắm": 4952,
      "tang": 4953,
      "tường": 4954,
      "tát": 4955,
      "tướng": 4956,
      "tạch": 4957,
      "tấc": 4958,
      "tẹo": 4959,
      "un": 4960,
      "ud": 4961,
      "uống": 4962,
      "vù": 4963,
      "vất": 4964,
      "vùng": 4965,
      "vấp": 4966,
      "vương": 4967,
      "vướng": 4968,
      "view": 4969,
      "vĩnh_": 4970,
      "wet": 4971,
      "xg": 4972,
      "xr": 4973,
      "xó": 4974,
      "xúc": 4975,
      "xac": 4976,
      "zậy": 4977,
      "êm_": 4978,
      "ít_nh": 4979,
      "ô_t": 4980,
      "ăn_c": 4981,
      "đứ": 4982,
      "đệ": 4983,
      "đam": 4984,
      "đay": 4985,
      "đùng": 4986,
      "đanh": 4987,
      "địch": 4988,
      "đẩy": 4989,
      "đéo": 4990,
      "đi_lại": 4991,
      "̣c": 4992,
      "ẩm": 4993,
      "ớn": 4994,
      "##10": 4995,
      "##ge": 4996,
      "##gdd": 4997,
      "##vi": 4998,
      "##ik": 4999
    },
    "merges": [
      "##n ##g",
      "##n ##h",
      "t ##h",
      "c ##h",
      "n ##h",
      "k ##h",
      "##n ##_",
      "##ì ##nh",
      "##ư ##ợ",
      "##á ##y",
      "m ##áy",
      "##ấ ##t",
      "##u ##a",
      "t ##r",
      "##ô ##ng",
      "##a ##m",
      "##i ##n",
      "kh ##ông",
      "n ##g",
      "p ##in",
      "##ớ ##i",
      "m ##ua",
      "##ê ##n",
      "##ượ ##c",
      "th ##ì",
      "đ ##ược",
      "##i ##ệ",
      "##_ ##t",
      "##am ##e",
      "r ##ất",
      "m ##à",
      "g ##i",
      "##à ##y",
      "##à ##i",
      "##ơ ##i",
      "l ##à",
      "nh ##ư",
      "p ##h",
      "c ##ó",
      "##ạ ##i",
      "t ##ố",
      "m ##ình",
      "n ##ó",
      "##a ##y",
      "q ##u",
      "##ù ##ng",
      "##c ##h",
      "##i ##_",
      "##ấ ##y",
      "##i ##ế",
      "##â ##u",
      "m ##ới",
      "tố ##t",
      "v ##à",
      "g ##ame",
      "##o ##ng",
      "d ##ùng",
      "s ##a",
      "o ##k",
      "ch ##ơi",
      "##u ##ng",
      "qu ##á",
      "##o ##n",
      "##a ##nh",
      "##i ##ề",
      "##t ##_",
      "như ##ng",
      "##á ##ng",
      "##ẹ ##p",
      "b ##ị",
      "gi ##á",
      "đ ##ẹp",
      "c ##á",
      "c ##ả",
      "##ạ ##c",
      "n ##ày",
      "m ##ượ",
      "##ầ ##n",
      "##p ##h",
      "t ##u",
      "##h ##ình",
      "kh ##á",
      "##ầ ##m",
      "##r ##a",
      "##_ ##l",
      "nh ##anh",
      "##â ##n",
      "##_ ##d",
      "c ##ũ",
      "##_ ##v",
      "s ##ạc",
      "##i ##ên",
      "##g ##i",
      "##n_ ##t",
      "mượ ##t",
      "##m ##_",
      "ng ##ày",
      "v ##ới",
      "c ##ame",
      "cũ ##ng",
      "##i ##d",
      "##_t ##h",
      "ổ ##n",
      "came ##ra",
      "ch ##ụ",
      "##ò ##n",
      "chụ ##p",
      "c ##òn",
      "##ụ ##ng",
      "##ơ ##n",
      "th ##ấy",
      "l ##ại",
      "##ọ ##i",
      "##ờ ##i",
      "##ỗ ##i",
      "##iề ##u",
      "##ậ ##t",
      "x ##ài",
      "t ##ầm",
      "s ##ả",
      "##ẩ ##m",
      "tr ##âu",
      "##a ##o",
      "ch ##o",
      "h ##ơn",
      "##u ##_",
      "##n_ ##hình",
      "kh ##i",
      "mà ##n_hình",
      "v ##ề",
      "##_d ##ụng",
      "##ồ ##i",
      "n ##ên",
      "ch ##ỉ",
      "##n_ ##ph",
      "##ư ##ớ",
      "tr ##ong",
      "##â ##n_",
      "h ##ơi",
      "##ú ##c",
      "##ả ##i",
      "##_ ##h",
      "##iệ ##t",
      "s ##ử",
      "##n_ph ##ẩm",
      "l ##ỗi",
      "sả ##n_phẩm",
      "##_ ##đ",
      "##i ##ê",
      "cả ##m_",
      "t ##ay",
      "##ắ ##t",
      "th ##áng",
      "##ân_ ##v",
      "##ô ##i",
      "h ##ình",
      "đ ##ã",
      "##ế ##t",
      "ng ##h",
      "##ân_v ##iên",
      "nh ##ân_viên",
      "r ##ồi",
      "đ ##ể",
      "h ##ay",
      "##ạ ##y",
      "l ##o",
      "nh ##iều",
      "l ##úc",
      "sa ##o",
      "c ##ủ",
      "m ##ọi",
      "cá ##i",
      "c ##on",
      "##_ ##nh",
      "r ##a",
      "đ ##iệ",
      "##o ##ại",
      "##à ##ng",
      "sử ##_dụng",
      "s ##ài",
      "##u ##ô",
      "##c ##_",
      "sa ##u",
      "##ò ##ng",
      "##n_t ##h",
      "##ư ##a",
      "##ẫ ##n",
      "tu ##y",
      "##i_ ##ch",
      "ph ##ải",
      "##ắ ##m",
      "##ậ ##n",
      "##e ##m",
      "##i ##ể",
      "nh ##iệt",
      "g ##ì",
      "h ##ết",
      "củ ##a",
      "nó ##i_ch",
      "v ##ẫn",
      "##ứ ##ng",
      "v ##ân",
      "ngh ##e",
      "##0 ##0",
      "th ##e",
      "cá ##c",
      "ng ##on",
      "nói_ch ##ung",
      "##_t ##ình",
      "nó ##ng",
      "nhiệt ##_tình",
      "ch ##ưa",
      "th ##ứ",
      "##ụ ##c",
      "##ổ ##i",
      "l ##ắm",
      "##_ ##c",
      "##ế ##u",
      "##a ##ng",
      "##uô ##n",
      "##o ##id",
      "##u ##y",
      "l ##a",
      "l ##uôn",
      "##nh ##_",
      "lo ##a",
      "##iế ##t",
      "q ##ua",
      "##ọ ##ng",
      "##à ##o",
      "đ ##ầ",
      "##iề ##n",
      "l ##âu",
      "##ộ ##t",
      "##ữ ##a",
      "ng ##ư",
      "m ##ạ",
      "##ậ ##y",
      "ngư ##ời",
      "t ##ệ",
      "##ạ ##n",
      "tuy ##ệ",
      "##u ##ố",
      "##_t ##r",
      "##f ##i",
      "l ##ên",
      "kh ##o",
      "##ắ ##c",
      "##á ##n",
      "c ##ấ",
      "t ##iế",
      "##gi ##oid",
      "##id ##ong",
      "##gioid ##idong",
      "the ##gioididong",
      "##ướ ##c",
      "ả ##nh",
      "la ##g",
      "w ##i",
      "##ượ ##ng",
      "##iệ ##n",
      "##ă ##ng",
      "khá ##c",
      "e ##m",
      "b ##ả",
      "##n_th ##oại",
      "điệ ##n_thoại",
      "##ư ##ờ",
      "x ##em",
      "nó ##i",
      "1 ##0",
      "l ##iê",
      "##ườ ##ng",
      "n ##ữa",
      "wi ##fi",
      "đ ##ề",
      "s ##am",
      "##ỏ ##i",
      "m ##ấy",
      "t ##ư",
      "l ##ần",
      "##ụ ##t",
      "và ##o",
      "k ##é",
      "đề ##u",
      "đ ##ổi",
      "##u_ ##hình",
      "cấ ##u_hình",
      "b ##ạn",
      "b ##iết",
      "##í ##ch",
      "##ậ ##p",
      "h ##àng",
      "##é ##t",
      "##ừ ##a",
      "n ##ào",
      "t ##ôi",
      "đ ##ơ",
      "##ộ ##ng",
      "##o ##o",
      "##ặ ##t",
      "s ##áng",
      "t ##ừ",
      "m ##a",
      "đ ##t",
      "tu ##ần",
      "đ ##ế",
      "##ạ ##m",
      "##s ##ung",
      "##á ##o",
      "##iế ##n",
      "t ##o",
      "ké ##m",
      "##ự ##c",
      "##ó ##ng",
      "th ##ất",
      "đế ##n",
      "##i ##m",
      "##á ##c",
      "##ả ##ng",
      "sam ##sung",
      "t ##ụt",
      "v ##ừa",
      "h ##ài",
      "nh ##ạy",
      "ch ##ạy",
      "v ##ậy",
      "##u ##b",
      "th ##iế",
      "##a ##i",
      "##ê ##m",
      "##n_ ##đ",
      "tr ##ước",
      "##_v ##ọng",
      "gi ##ật",
      "##_l ##òng",
      "cảm_ ##ứng",
      "##_v ##ụ",
      "h ##ô",
      "##t_ ##v",
      "h ##o",
      "##e ##b",
      "##à ##nh",
      "th ##ích",
      "hài ##_lòng",
      "##ấ ##n",
      "##p ##p",
      "##t_ ##k",
      "c ##am",
      "t ##iền",
      "##â ##y",
      "##t_v ##ời",
      "tuyệ ##t_vời",
      "thất ##_vọng",
      "c ##ao",
      "##ị ##nh",
      "th ##ôi",
      "##iệ ##m",
      "##ướ ##t",
      "b ##ắt",
      "đ ##á",
      "s ##o",
      "t ##ạm",
      "##ú ##t",
      "##q ##u",
      "##n ##ăng",
      "##a ##l",
      "nh ##ất",
      "##n_ ##m",
      "đ ##i",
      "##_l ##ượng",
      "liê ##n_",
      "g ##ọi",
      "m ##ở",
      "đ ##ang",
      "ứ ##ng",
      "##iể ##m",
      "ch ##ứ",
      "v ##ì",
      "s ##óng",
      "t ##ự",
      "##m ##_th",
      "##_ ##m",
      "tr ##ả",
      "n ##ét",
      "##a ##c",
      "l ##ướt",
      "n ##o",
      "##a ##n",
      "##t ##e",
      "g ##ần",
      "m ##ột",
      "y ##ếu",
      "##gi ##á",
      "thiế ##t_k",
      "thiết_k ##ế",
      "bả ##o",
      "2 ##0",
      "##_ ##b",
      "##ậ ##m",
      "ch ##ê",
      "s ##ẽ",
      "##e ##n",
      "m ##ất",
      "##_ ##ch",
      "##qu ##ân",
      "h ##iệ",
      "##_v ##ấn",
      "tư ##_vấn",
      "liên_ ##quân",
      "a ##i",
      "t ##ắt",
      "##u ##t",
      "là ##m",
      "##on ##e",
      "tiế ##ng",
      "##ấ ##p",
      "ch ##ậm",
      "##t_ ##m",
      "##ợ ##p",
      "##i_ ##đ",
      "đầ ##u",
      "##ằ ##ng",
      "##ơ ##ng",
      "##ứ ##c",
      "ch ##ất",
      "##ồ ##n",
      "gi ##ờ",
      "##ph ##one",
      "ứng ##_dụng",
      "b ##ình",
      "mạ ##ng",
      "đ ##áng",
      "##ặ ##c",
      "##_ ##s",
      "f ##ac",
      "##ng ##h",
      "ch ##án",
      "ng ##o",
      "##iệ ##u",
      "th ##ế",
      "đầ ##y",
      "##ữ ##ng",
      "n ##ếu",
      "##e ##o",
      "đ ##ó",
      "i ##phone",
      "##u ##ồn",
      "ch ##i",
      "nh ##ững",
      "##iể ##u",
      "c ##ập",
      "t ##í",
      "ph ##ục",
      "d ##o",
      "##à ##n",
      "c ##ực",
      "c ##ứ",
      "d ##òng",
      "đá ##nh_",
      "m ##ong",
      "đ ##ộ",
      "tr ##ên",
      "mạ ##nh",
      "đánh_ ##giá",
      "mà ##u",
      "##pp ##o",
      "mượ ##t_m",
      "ngo ##ài",
      "mượt_m ##à",
      "b ##ằng",
      "##_nh ##ật",
      "o ##ppo",
      "##_th ##ường",
      "##uố ##n",
      "##m ##i",
      "chất ##_lượng",
      "r ##õ",
      "phục ##_vụ",
      "##oo ##k",
      "##ặ ##ng",
      "##i ##nh",
      "##iê ##u",
      "cập ##_nhật",
      "m ##uốn",
      "##á ##t",
      "đ ##ồ",
      "##ố ##i",
      "##eb ##ook",
      "##ầ ##u",
      "t ##ại",
      "##ả ##n",
      "c ##ầm",
      "##r ##o",
      "fac ##ebook",
      "m ##ỗi",
      "##_ ##gi",
      "ph ##ẩm",
      "##uy ##ên",
      "nh ##a",
      "nh ##ì",
      "r ##e",
      "##ự ##c_",
      "y ##o",
      "##k ##h",
      "nh ##ận",
      "cả ##m_th",
      "##_c ##ả",
      "cảm_th ##ấy",
      "##_ ##n",
      "sả ##n",
      "t ##ới",
      "##ố ##ng",
      "tu ##ột",
      "##i_đ ##ộng",
      "##ư ##ơng",
      "yo ##ut",
      "b ##ật",
      "h ##ã",
      "sa ##ng",
      "##í ##nh",
      "bình ##_thường",
      "d ##ễ",
      "nh ##ỏ",
      "##t_ ##n",
      "##ub ##e",
      "l ##ư",
      "hô ##m",
      "##ă ##m",
      "b ##ao",
      "m ##ức",
      "##e ##t",
      "##_h ##ành",
      "th ##ua",
      "nh ##ẹ",
      "gi ##ả",
      "##ub ##g",
      "##n_đ ##ịnh",
      "no ##te",
      "ổ ##n_định",
      "điệ ##n",
      "yout ##ube",
      "kh ##ỏi",
      "th ##êm",
      "##_th ##ể",
      "chi ##p",
      "##a ##r",
      "##ọ ##n",
      "d ##ù",
      "đ ##âu",
      "tr ##ung",
      "h ##ỏi",
      "nhì ##n",
      "nh ##ạc",
      "kh ##ó",
      "##ngh ##iệm",
      "##q ##ua",
      "th ##oại",
      "s ##iêu",
      "##á ##i",
      "##ú ##ng",
      "kho ##ảng",
      "hô ##m_",
      "##b ##iến",
      "ng ##uồn",
      "##i ##v",
      "th ##ật",
      "cảm_ ##biến",
      "##i_ ##nghiệm",
      "trả ##i_nghiệm",
      "p ##ubg",
      "##ậ ##n_",
      "##t_ ##s",
      "đ ##ủ",
      "##l ##e",
      "ph ##im",
      "1 ##1",
      "b ##ên",
      "đ ##êm",
      "t ##ất",
      "##e ##s",
      "th ##ờ",
      "##uố ##ng",
      "##ấ ##m",
      "th ##o",
      "hã ##ng",
      "##ấ ##u",
      "m ##ặt",
      "v ##id",
      "nh ##é",
      "##l ##u",
      "##00 ##0",
      "tuyệ ##t",
      "v ##iên",
      "í ##t",
      "##_đ ##ộ",
      "vid ##eo",
      "v ##ài",
      "##ng ##_h",
      "tố ##i",
      "n ##ăm",
      "r ##ẻ",
      "##i_ ##h",
      "đ ##ây",
      "##â ##m",
      "x ##uống",
      "bảo ##_hành",
      "1 ##00",
      "đ ##iều",
      "##ị ##u",
      "nh ##ân",
      "##al ##o",
      "m ##i",
      "x ##i",
      "kho ##ẻ",
      "l ##ấy",
      "##ắ ##c_",
      "nh ##ận_",
      "c ##o",
      "n ##ay",
      "##ử ##a",
      "mà ##n",
      "thờ ##i_",
      "z ##alo",
      "k ##ế",
      "đ ##iểm",
      "##m ##ar",
      "m ##ờ",
      "##ả ##nh",
      "hiệ ##u_",
      "1 ##2",
      "c ##ần",
      "v ##iệ",
      "b ##ỏ",
      "d ##ụng",
      "##u ##i",
      "##ọ ##c",
      "##_l ##ại",
      "đ ##úng",
      "bả ##n",
      "3 ##0",
      "m ##ặc",
      "v ##ô",
      "cá ##ch",
      "w ##eb",
      "##ao ##mi",
      "x ##ong",
      "##ừ ##ng",
      "##gi ##an",
      "l ##ớ",
      "lư ##ng",
      "tất ##_cả",
      "thời_ ##gian",
      "ủ ##ng_h",
      "##ộ ##i",
      "ch ##ắc",
      "ủng_h ##ộ",
      "qua ##y",
      "##mar ##t",
      "x ##ấu",
      "##_d ##ù",
      "hiệu_ ##năng",
      "k ##i",
      "##_ ##ph",
      "ph ##ần",
      "##_h ##ợp",
      "the ##o",
      "r ##am",
      "th ##ậ",
      "ph ##ầ",
      "liê ##n_t",
      "b ##áo",
      "h ##ợp",
      "n ##ặng",
      "p ##ro",
      "t ##ác",
      "t ##ai",
      "ch ##u",
      "xi ##aomi",
      "liên_t ##ục",
      "##r ##e",
      "##ề ##n",
      "s ##ố",
      "đ ##a",
      "##_h ##àng",
      "##_nh ##iên",
      "b ##án",
      "g ##h",
      "h ##ỗ",
      "tr ##iệu",
      "ch ##ế",
      "mặc ##_dù",
      "##_đ ##iều",
      "lớ ##n",
      "##ợ ##i",
      "th ##ử",
      "a ##n",
      "k ##iểu",
      "ư ##ng",
      "##ắ ##n",
      "th ##ường",
      "##_l ##âu",
      "kho ##á",
      "c ##ùng",
      "h ##ao",
      "##u_ ##đ",
      "##nh ##ận",
      "cảm_ ##nhận",
      "ch ##iến",
      "##i_ ##v",
      "##_tr ##ợ",
      "hỗ ##_trợ",
      "t ##ình",
      "##ã ##i",
      "kh ##uô",
      "##n_m ##ặt",
      "khuô ##n_mặt",
      "a ##nh",
      "s ##ắc",
      "##m ##e",
      "ph ##í",
      "qu ##ảng",
      "c ##ài",
      "##t_s ##ự",
      "thậ ##t_sự",
      "##ạ ##ng",
      "đồ ##ng",
      "5 ##0",
      "v ##s",
      "##ỉ ##nh",
      "nh ##à",
      "kh ##uyên",
      "tr ##ừ",
      "ma ##u",
      "g ##b",
      "hiệ ##n_t",
      "tác ##_vụ",
      "d ##ung",
      "##i_ ##l",
      "lâu ##_lâu",
      "##_ ##ảnh",
      "##ề ##m",
      "b ##ấm",
      "s ##im",
      "ng ##ay",
      "ma ##x",
      "c ##ực_",
      "như ##_v",
      "##_c ##áo",
      "cực_ ##k",
      "x ##anh",
      "##u_ ##c",
      "hôm_ ##qua",
      "chế ##_độ",
      "quảng ##_cáo",
      "v ##iv",
      "đ ##em",
      "##9 ##0",
      "kh ##ở",
      "##u ##ất",
      "##ph ##ục",
      "giả ##m",
      "như_v ##ậy",
      "##ạ ##t",
      "có ##_thể",
      "viv ##o",
      "th ##ông",
      "##t_ ##đ",
      "nhận_ ##d",
      "vs ##mart",
      "h ##iểu",
      "kh ##ắc_",
      "##u_c ##ầu",
      "khắc_ ##phục",
      "â ##m_th",
      "##_ ##k",
      "##ê ##u",
      "âm_th ##anh",
      "1 ##5",
      "đ ##ừng",
      "##ự ##a",
      "đ ##ứng",
      "ch ##iế",
      "ho ##ặc",
      "##_gi ##ờ",
      "##lu ##s",
      "b ##a",
      "ố ##p",
      "##l ##l",
      "ph ##ù",
      "##n_m ##ềm",
      "phầ ##n_mềm",
      "p ##lus",
      "##ấ ##n_đ",
      "##u ##ộ",
      "an ##d",
      "khở ##i_động",
      "v ##ấn_đ",
      "x ##o",
      "##_ ##ý",
      "th ##i",
      "ch ##uy",
      "vấn_đ ##ề",
      "ch ##í",
      "##n_ ##b",
      "b ##in",
      "đ ##ặ",
      "##ả ##n_",
      "##ó ##c",
      "##_t ##iền",
      "có ##_điều",
      "##t_n ##ối",
      "kế ##t_nối",
      "d ##i_động",
      "m ##o",
      "ch ##ung",
      "##ả ##y",
      "ch ##út",
      "b ##àn",
      "##b ##iệt",
      "nh ##u_cầu",
      "##_l ##ý",
      "##p ##s",
      "nhận_d ##iện",
      "phù ##_hợp",
      "##i_ ##m",
      "khá ##ch",
      "h ##d",
      "hình ##_ảnh",
      "##c_ ##biệt",
      "m ##ang",
      "##â ##n_th",
      "##ủ ##ng",
      "th ##ấp",
      "chiế ##c",
      "##_ ##kh",
      "tiế ##c",
      "thế ##_gi",
      "t ##ải",
      "##_n ##ào",
      "##t_n ##am",
      "việ ##t_nam",
      "thế_gi ##ới",
      "##_ ##x",
      "h ##ố",
      "ph ##ân",
      "##ướ ##ng",
      "##ỏ ##ng",
      "##_ch ##ịu",
      "đ ##ò",
      "ch ##ọn",
      "kh ##úc",
      "##_l ##à",
      "re ##d",
      "h ##ai",
      "l ##iên",
      "##ạ ##ch",
      "c ##ơ",
      "f ##i",
      "##n_ ##n",
      "khó ##_chịu",
      "7 ##0",
      "c ##ông",
      "f ##u",
      "t ##ặng",
      "v ##u",
      "ch ##u_đ",
      "chu_đ ##áo",
      "b ##ộ",
      "d ##ư",
      "g ##oo",
      "tu ##i",
      "##_nh ##ận",
      "##c_ ##năng",
      "chứ ##c_năng",
      "tí ##nh_",
      "đặ ##c_biệt",
      "c ##uộ",
      "t ##in",
      "##á ##nh",
      "tính_ ##năng",
      "a ##pp",
      "r ##è",
      "##i ##ng",
      "##ể ##n",
      "##i_h ##ận",
      "hố ##i_hận",
      "b ##ền",
      "##ú ##i",
      "f ##ps",
      "t ##es",
      "đ ##ọc",
      "cảm_ ##ơn",
      "tuy ##_nhiên",
      "ch ##ấp",
      "mà ##ng",
      "ph ##út",
      "qu ##ân",
      "cả ##m",
      "##_h ##o",
      "##_tr ##ọng",
      "red ##mi",
      "m ##n",
      "đ ##en",
      "ch ##ính",
      "##gi ##ác",
      "cảm_ ##giác",
      "v ##iệt",
      "##í ##u",
      "##r ##oid",
      "##ở ##ng",
      "nh ##ảy",
      "là ##m_",
      "tư ##ơng",
      "fu ##ll",
      "x ##a",
      "##o ##s",
      "##_t ##ội",
      "tho ##ả",
      "cực_k ##ì",
      "5 ##000",
      "d ##án",
      "b ##à",
      "h ##ồi",
      "h ##iện",
      "x ##ứng",
      "##2 ##0",
      "##o ##ảng",
      "##_t ##ra",
      "##iê ##ng",
      "and ##roid",
      "s ##ự",
      "gi ##ống",
      "sa ##i",
      "##_đ ##ộng",
      "##_tr ##ạng",
      "##i_v ##ẻ",
      "vu ##i_vẻ",
      "dư ##ới",
      "5 ##1",
      "b ##ất",
      "t ##i",
      "ả ##o",
      "##e ##r",
      "##m ##x",
      "##_th ##oảng",
      "tiế ##p",
      "cuộ ##c_",
      "##t ##h",
      "##_ ##ngh",
      "th ##u",
      "##_c ##ấp",
      "re ##al",
      "sang ##_trọng",
      "co ##i",
      "tình ##_trạng",
      "xo ##á",
      "tes ##t",
      "b ##uồn",
      "ê ##m",
      "##g ##ọi",
      "##ị ##ch",
      "##ẳ ##ng",
      "th ##ay",
      "ngh ##ĩ",
      "hiện_t ##ượng",
      "chấp ##_nhận",
      "c ##ửa",
      "h ##iể",
      "##ẩ ##n",
      "gi ##ao",
      "cuộc_ ##gọi",
      "b ##ây",
      "m ##p",
      "ch ##ả",
      "##_nh ##iệm",
      "ho ##à",
      "mỗi ##_tội",
      "dung ##_lượng",
      "chuy ##ển",
      "real ##me",
      "k ##ính",
      "m ##es",
      "đ ##ô",
      "##ắ ##ng",
      "##_đ ##ịnh",
      "##_m ##à",
      "##_b ##ản",
      "cơ ##_bản",
      "##i ##a",
      "##ớ ##t",
      "ma ##h",
      "##i_h ##ỏi",
      "chí ##p",
      "khách ##_hàng",
      "đò ##i_hỏi",
      "##_t ##iên",
      "lo ##ạn",
      "đa ##_nhiệm",
      "##i_m ##ái",
      "thoả ##i_mái",
      "m ##ộ",
      "t ##ậ",
      "v ##iền",
      "##n ##ay",
      "##ặ ##p",
      "th ##ân_th",
      "ch ##ờ",
      "m ##ay",
      "n ##út",
      "x ##íu",
      "##ạ ##o",
      "##n_th ##ị",
      "tự ##_động",
      "a ##d",
      "k ##êu",
      "l ##i",
      "##ắ ##p",
      "n ##ổi",
      "o ##n",
      "r ##iêng",
      "ấ ##m",
      "##a ##p",
      "##ó ##p",
      "ch ##ỗ",
      "điệ ##n_m",
      "phí ##m",
      "hiể ##n_thị",
      "điện_m ##áy",
      "a ##nh_",
      "đ ##ịnh",
      "##ú ##p",
      "##ả ##o",
      "ch ##ạm",
      "##n_t ##r",
      "đầu ##_tiên",
      "ki ##nh_",
      "4 ##000",
      "##s ##ắc",
      "##ó ##m",
      "##n_t ##âm",
      "to ##àn",
      "hôm_ ##nay",
      "t ##úi",
      "ă ##n",
      "##k ##ia",
      "ch ##ịu",
      "##n_ ##l",
      "##_th ##ương",
      "nhất ##_là",
      "dễ ##_thương",
      "g ##ặp",
      "x ##in",
      "##e ##l",
      "##m ##in",
      "##x ##y",
      "##ă ##n",
      "##ù ##i",
      "ch ##iều",
      "nh ##ỉ",
      "ki ##a",
      "cửa ##_hàng",
      "h ##ộ",
      "##t ##t",
      "##á ##ch",
      "th ##ỉnh",
      "ph ##át",
      "##uố ##t",
      "##i_l ##ầm",
      "x ##uất",
      "##_ ##r",
      "mà ##u_",
      "##_nh ##ư",
      "hợp ##_lý",
      "b ##ác",
      "â ##m",
      "th ##ể",
      "##_b ##ình",
      "bây ##_giờ",
      "ad ##min",
      "màu_ ##sắc",
      "c ##ục",
      "ch ##ị",
      "nh ##ựa",
      "cả ##i",
      "##n_ph ##í",
      "##_đ ##áng",
      "##nh_ ##s",
      "mes ##s",
      "thân_th ##iện",
      "k ##iểm",
      "n ##ửa",
      "t ##óm",
      "##h ##o",
      "##i ##e",
      "##w ##e",
      "##x ##ét",
      "##ổ ##ng",
      "th ##ương",
      "ch ##ữ",
      "6 ##0",
      "h ##ệ",
      "r ##ung",
      "đ ##ấy",
      "##n ##ap",
      "##ầ ##y",
      "ng ##oại",
      "gi ##úp",
      "tố ##i_",
      "thiế ##u",
      "##en ##o",
      "việ ##c",
      "ưng ##_ý",
      "kiểm ##_tra",
      "ph ##ụ",
      "##_đ ##iểm",
      "##oo ##th",
      "fac ##e",
      "##kh ##ủng",
      "goo ##g",
      "xứng ##_đáng",
      "kinh_ ##khủng",
      "##a ##t",
      "##_ ##ng",
      "##k ##k",
      "th ##ao",
      "chỉ ##nh",
      "no ##kia",
      "trung ##_bình",
      "##iv ##e",
      "đồng ##_tiền",
      "bà ##n_phí",
      "goog ##le",
      "bàn_phí ##m",
      "x ##ạc",
      "##â ##ng",
      "##ử ##i",
      "kh ##uy",
      "##_t ##ác",
      "sa ##i_lầm",
      "20 ##1",
      "##_ho ##ạ",
      "7 ##1",
      "g ##ọn",
      "h ##ua",
      "s ##ung",
      "th ##á",
      "th ##ực_",
      "ch ##ẳng",
      "tr ##ang",
      "tr ##eo",
      "không ##_thể",
      "ph ##ản_",
      "##_nh ##ớ",
      "đồ ##_hoạ",
      "ba ##n_đ",
      "bộ ##_nhớ",
      "tậ ##n_t",
      "##we ##i",
      "1 ##3",
      "b ##ù",
      "c ##àng",
      "g ##óc",
      "g ##ửi",
      "n ##ước",
      "s ##et",
      "##_ ##g",
      "##è ##m",
      "##_th ##ế",
      "##_đ ##ợi",
      "lo ##ại",
      "đá ##nh",
      "##_s ##ao",
      "thế ##_nào",
      "thỉnh ##_thoảng",
      "n ##t",
      "s ##nap",
      "##s ##ự",
      "##ệ ##t",
      "##n_ ##ch",
      "và ##ng",
      "##lu ##et",
      "thực_ ##sự",
      "tận_t ##ình",
      "4 ##5",
      "b ##luet",
      "c ##ắm",
      "r ##ộng",
      "x ##ử",
      "đ ##ợi",
      "##ớ ##m",
      "##á ##t_",
      "##b ##i",
      "nh ##ược",
      "tr ##ận",
      "tho ##át",
      "tương ##_đ",
      "c ##ân_",
      "j ##o",
      "m ##ẫ",
      "u ##p",
      "##á ##m",
      "##_đ ##ặt",
      "thao ##_tác",
      "hua ##wei",
      "h ##ư",
      "##ạ ##nh",
      "##u ##o",
      "##ẳ ##n",
      "##n_ ##c",
      "tr ##ắng",
      "##_l ##u",
      "##_d ##ài",
      "tự ##_nhiên",
      "mong ##_đợi",
      "##re ##e",
      "cài ##_đặt",
      "##_kh ##i",
      "b ##t",
      "d ##uy",
      "h ##ẳn",
      "k ##èm",
      "m ##ắt",
      "m ##ỏng",
      "y ##ê",
      "##t ##ing",
      "##ư ##ởng",
      "ch ##ập",
      "ch ##ống",
      "##ượ ##t",
      "##iệ ##c",
      "có ##_khi",
      "##_v ##iệc",
      "##_tr ##í",
      "ho ##ạ",
      "tại ##_sao",
      "nhược ##_điểm",
      "1 ##6",
      "4 ##0",
      "9 ##0",
      "d ##ự",
      "m ##inh",
      "n ##âng",
      "ấ ##y",
      "##nh ##ắc",
      "tr ##ở",
      "như ##_thế",
      "ph ##ông",
      "tí ##nh",
      "hiện_t ##ại",
      "bluet ##ooth",
      "cân_ ##nhắc",
      "b ##i",
      "b ##ắ",
      "f ##ree",
      "k ##ỹ",
      "l ##ồi",
      "r ##eno",
      "s ##ướng",
      "s ##ớm",
      "t ##iệ",
      "ô ##ng",
      "cho ##i",
      "##_x ##uyên",
      "tóm ##_lại",
      "khuy ##ế",
      "c ##al",
      "i ##p",
      "l ##ựa",
      "s ##ợ",
      "v ##ạch",
      "w ##e",
      "ấ ##n",
      "##a ##xy",
      "##_ ##ra",
      "gi ##ới",
      "##_h ##iệu",
      "bao ##_giờ",
      "nhận_ ##xét",
      "chu ##ẩn",
      "gh ##ê",
      "thường ##_xuyên",
      "4 ##8",
      "b ##é",
      "g ##al",
      "h ##ề",
      "n ##ản",
      "đ ##ặt",
      "##ư ##ng",
      "##p ##_",
      "tr ##c",
      "sử ##a",
      "cal ##l",
      "k ##g",
      "l ##ắc",
      "t ##a",
      "t ##ì",
      "##e ##ng",
      "##s ##ao",
      "##u ##ổi",
      "##ệ ##n",
      "th ##ời",
      "ch ##ủ",
      "nh ##o",
      "ng ##ang",
      "gi ##ải",
      "ph ##ê",
      "##gi ##ải",
      "##ân_ ##giải",
      "từ ##ng",
      "##_ch ##ờ",
      "mi ##ui",
      "##t_đ ##ộng",
      "túi ##_tiền",
      "##bi ##le",
      "jo ##y",
      "hoạ ##t_động",
      "gal ##axy",
      "d ##ài",
      "h ##ọ",
      "r ##o",
      "đ ##ối",
      "nh ##ớ",
      "##n_ ##h",
      "tố ##c",
      "tiế ##t_k",
      "lư ##u",
      "làm_ ##sao",
      "thương ##_hiệu",
      "set ##ting",
      "tiết_k ##iệm",
      "6 ##4",
      "h ##i",
      "h ##ướng",
      "l ##ỗ",
      "s ##ho",
      "v ##ăng",
      "##h ##ồi",
      "th ##ui",
      "nh ##ắn",
      "##u_ ##m",
      "##_m ##ắt",
      "##_s ##ố",
      "1 ##8",
      "3 ##2",
      "c ##ường",
      "d ##k",
      "d ##ịch",
      "i ##os",
      "l ##ời",
      "v ##i",
      "v ##ọng",
      "đ ##mx",
      "##_ ##y",
      "##ư ##ỡ",
      "kh ##ủng",
      "##in ##e",
      "tố ##n",
      "qu ##y",
      "##i_ ##kh",
      "nhưng ##_mà",
      "tu ##ỳ",
      "##_c ##ùng",
      "20 ##20",
      "vô ##_cùng",
      "##n_b ##ản",
      "phản_ ##hồi",
      "chập ##_chờ",
      "chập_chờ ##n",
      "b ##ực_",
      "r ##ưỡ",
      "t ##âm",
      "##ứ ##t",
      "##x ##uất",
      "##ắ ##n_t",
      "ch ##s",
      "nh ##ắn_t",
      "giá ##_cả",
      "##_b ##ò",
      "##_ch ##ọn",
      "cực_k ##ỳ",
      "hộ ##p",
      "tương_đ ##ối",
      "lựa ##_chọn",
      "tốc ##_độ",
      "rưỡ ##i",
      "nhắn_t ##in",
      "1 ##9",
      "m ##át",
      "m ##ãi",
      "t ##ận",
      "y ##êu",
      "ý ##_định",
      "##u ##p",
      "th ##ị",
      "##_t ##ay",
      "##_l ##í",
      "##_l ##ực",
      "##_d ##iện",
      "củ ##ng",
      "on ##l",
      "tối_ ##ư",
      "nho ##è",
      "sho ##p",
      "r ##ớt",
      "v ##in",
      "x ##e",
      "đ ##ỉnh",
      "##h ##i",
      "##ị ##n",
      "##_th ##u",
      "trâu ##_bò",
      "lâu ##_dài",
      "ho ##ài",
      "độ ##_ph",
      "nha ##u",
      "giả ##m_",
      "mi ##c",
      "chu ##ông",
      "đô ##i_kh",
      "anh_ ##em",
      "đôi_kh ##i",
      "c ##ùi",
      "l ##ung",
      "s ##ống",
      "v ##ỡ",
      "##ố ##c",
      "##z ##z",
      "th ##ẻ",
      "tr ##ầy",
      "ho ##i",
      "li ##te",
      "độ_ph ##ân_giải",
      "giảm_ ##giá",
      "0 ##00",
      "d ##mx",
      "h ##ơ",
      "đ ##è",
      "ng ##uyên",
      "##_d ##áng",
      "##_th ##iện",
      "##i_đ ##ộ",
      "ngoài ##_ra",
      "mi ##k",
      "mo ##bile",
      "cải ##_thiện",
      "thá ##i_độ",
      "cường ##_lực",
      "1 ##4",
      "i ##n",
      "k ##ĩ",
      "đ ##k",
      "ư ##u_đ",
      "##a ##s",
      "##a ##u",
      "##m ##ình",
      "##_v ##ẻ",
      "với ##_lại",
      "đá ##p_",
      "##_m ##ật",
      "bảo ##_mật",
      "12 ##8",
      "##_k ##iến",
      "##_g ##óp",
      "yê ##n_tâm",
      "đáp_ ##ứng",
      "9 ##90",
      "f ##an",
      "k ##ết",
      "m ##ẹ",
      "á ##m",
      "##_ ##giá",
      "##_ ##qua",
      "##í ##t",
      "##d ##a",
      "##ồ ##ng",
      "th ##ực",
      "tr ##ợ",
      "ph ##à",
      "có ##_vẻ",
      "##iế ##ng",
      "##_th ##iệu",
      "##_b ##áo",
      "##_s ##ắc",
      "##_s ##ánh",
      "quay ##_ph",
      "thông ##_báo",
      "giao ##_diện",
      "ban_đ ##ầu",
      "45 ##00",
      "nâng ##_cấp",
      "giới ##_thiệu",
      "quay_ph ##im",
      "d ##i",
      "r ##ơi",
      "v ##n",
      "w ##a",
      "đ ##ắt",
      "đ ##ập",
      "##o ##k",
      "##ó ##n",
      "##_t ##ung",
      "gi ##a",
      "ph ##iê",
      "##uy ##ện",
      "##_tr ##ời",
      "tư ##ởng",
      "thế ##_n",
      "nhì ##n_ch",
      "##_k ##iện",
      "xử ##_lý",
      "chủ ##_y",
      "phiê ##n_bản",
      "thế_n ##ày",
      "nhìn_ch ##ung",
      "chủ_y ##ếu",
      "d ##ành",
      "h ##z",
      "l ##u",
      "s ##el",
      "v ##o",
      "v ##ui",
      "ý ##_kiến",
      "##s ##et",
      "##á ##p",
      "##â ##t",
      "nh ##ập",
      "ng ##ầm",
      "sa ##c",
      "ngh ##iệm",
      "##c_ ##ch",
      "goo ##d",
      "bực_ ##mình",
      "sel ##fi",
      "2 ##5",
      "2 ##4",
      "c ##uố",
      "h ##ạ",
      "k ##ể",
      "l ##ượng",
      "v ##uốt",
      "đ ##ường",
      "ơ ##i",
      "##u ##g",
      "##l ##ay",
      "##ó ##i",
      "##q ##uố",
      "th ##anh",
      "qu ##ả",
      "qu ##ần",
      "##_th ##ành",
      "##_h ##iện",
      "kho ##ản",
      "trả ##_góp",
      "hã ##y",
      "##t_s ##ố",
      "##i_l ##úc",
      "đô ##i_lúc",
      "mộ ##t_số",
      "tối_ư ##u",
      "ưu_đ ##iểm",
      "##da ##te",
      "##quố ##c",
      "h ##ở",
      "s ##ụt",
      "s ##ập",
      "w ##f",
      "đ ##ời",
      "đ ##ộng",
      "##ê ##n_",
      "##m ##o",
      "kh ##ả",
      "##_d ##ẫn",
      "##u_ ##nh",
      "##_tr ##ừ",
      "cấ ##u",
      "ngo ##n_l",
      "##_điều ##_hành",
      "mo ##i",
      "fi ##re",
      "##_ngh ##ệ",
      "nt ##n",
      "up ##date",
      "we ##d",
      "tì ##m",
      "##eng ##er",
      "dịch ##_vụ",
      "ngon_l ##ành",
      "a ##c",
      "b ##ổ",
      "b ##ực",
      "d ##ở",
      "l ##ác",
      "l ##ive",
      "n ##ền",
      "v ##ời",
      "v ##ãi",
      "á ##nh_s",
      "đ ##ố",
      "ứ ##c_ch",
      "##ợ ##t",
      "##ự ##ng",
      "th ##ành",
      "ch ##e",
      "ch ##ai",
      "nh ##ấn",
      "loa ##d",
      "no ##t",
      "công ##_nghệ",
      "hoà ##n_h",
      "hệ ##_điều_hành",
      "mẫ ##u_m",
      "##_lu ##ận",
      "giải ##_trí",
      "lung ##_tung",
      "ánh_s ##áng",
      "ức_ch ##ế",
      "hoàn_h ##ảo",
      "mẫu_m ##ã",
      "6 ##6",
      "8 ##0",
      "b ##ố",
      "b ##iến",
      "h ##k",
      "t ##ăng",
      "t ##ổng",
      "v ##ụ",
      "x ##ịn",
      "##e ##e",
      "##_ ##quốc",
      "##ị ##p",
      "ch ##ân_th",
      "##_t ##iện",
      "##ch ##ị",
      "##iể ##n",
      "xem ##_lại",
      "##im ##e",
      "bình ##_luận",
      "##ro ##i",
      "kiểu ##_dáng",
      "##n_n ##ữa",
      "mộ ##t_",
      "anh_ ##chị",
      "201 ##9",
      "onl ##ine",
      "hơ ##n_nữa",
      "selfi ##e",
      "b ##uổi",
      "d ##ữ",
      "h ##ỏng",
      "m ##iếng",
      "n ##s",
      "o ##ut",
      "t ##ý",
      "v ##a",
      "đ ##e",
      "##g ##ạo",
      "##õ ##i",
      "nh ##ung",
      "ng ##ón",
      "##_t ##ế",
      "##_t ##iề",
      "##_t ##ính",
      "gi ##ữ",
      "##c_ ##s",
      "cao ##_cấp",
      "##_s ##ản_",
      "đồng ##_tiề",
      "nhà ##_sản_",
      "##n_b ##át_",
      "ti ##n_t",
      "ngoại ##_trừ",
      "khuyế ##n_m",
      "đồng_tiề ##n_bát_",
      "nhà_sản_ ##xuất",
      "đồng_tiền_bát_ ##gạo",
      "5 ##00",
      "b ##l",
      "c ##ụ",
      "c ##ạnh",
      "g ##ái",
      "o ##f",
      "r ##út",
      "s ##inh",
      "s ##ạt",
      "t ##iết",
      "x ##ước",
      "##i ##i",
      "##ố ##t",
      "##q ##uy",
      "##ù ##m",
      "ch ##ă",
      "ch ##ấm",
      "ch ##ắc_",
      "kh ##u",
      "gi ##ây",
      "##ch ##ắn",
      "giá ##_như",
      "##_l ##iệu",
      "##_th ##ời",
      "##u_ ##h",
      "##_c ##àng",
      "##oo ##m",
      "rõ ##_r",
      "re ##set",
      "app ##le",
      "##n_tr ##ọng",
      "##tt ##tt",
      "xuất ##_sắc",
      "như_thế ##_nào",
      "##_thu ##ật",
      "đè ##n",
      "chắc_ ##chắn",
      "3 ##5",
      "7 ##20",
      "9 ##1",
      "9 ##9",
      "b ##ữa",
      "b ##óng",
      "l ##ý",
      "l ##ổi",
      "n ##am",
      "##a ##g",
      "nh ##ạt",
      "kh ##ựng",
      "##n_ ##d",
      "##m_ ##s",
      "thích ##_hợp",
      "no ##i",
      "##le ##d",
      "and ##roi",
      "##ản_ ##l",
      "công ##_việc",
      "bất ##_tiện",
      "mess ##enger",
      "khuyến_m ##ãi",
      "f ##l",
      "l ##òng",
      "n ##ữ",
      "s ##uy",
      "t ##g",
      "x ##inh",
      "##ù ##a",
      "kh ##ung",
      "ng ##ắt",
      "ng ##uy",
      "##_t ##iết",
      "như ##g",
      "ph ##ả",
      "qu ##ản_l",
      "##i_ ##âm",
      "##t_ ##nh",
      "chụ ##c",
      "##_h ##ưởng",
      "##_tr ##ình",
      "ké ##p",
      "giả ##i_",
      "trung ##_quốc",
      "hợp ##_lí",
      "thông ##_số",
      "thi ##_thoảng",
      "##_ngh ##ĩ",
      "âm ##_lượng",
      "##u_nh ##ư",
      "8 ##5",
      "c ##âu",
      "d ##ày",
      "h ##y",
      "k ##inh",
      "p ##r",
      "r ##ùi",
      "đ ##ưa",
      "đ ##ợt",
      "##g ##on",
      "##_ ##hình",
      "##_ ##năng",
      "##ế ##t_đ",
      "##d ##ra",
      "nh ##i",
      "nh ##ậy",
      "tr ##ưa",
      "qu ##à",
      "qu ##en",
      "##t_ ##h",
      "##_d ##o",
      "hình ##_như",
      "##_nh ##ân",
      "##n_th ##iện",
      "##_c ##ái",
      "ảnh ##_hưởng",
      "chi ##_tiết",
      "gh ##i_âm",
      "##i_v ##ới",
      "hoà ##n_thiện",
      "quy ##ết_đ",
      "đố ##i_với",
      "##dra ##gon",
      "quyết_đ ##ịnh",
      "9 ##8",
      "a ##k",
      "h ##u",
      "n ##ổ",
      "n ##ắm",
      "n ##ăng",
      "s ##e",
      "t ##ết",
      "t ##iện",
      "v ##á",
      "v ##ỏ",
      "##m ##ẽ",
      "th ##an",
      "máy ##_ảnh",
      "tr ##ời",
      "ng ##e",
      "##_t ##ục",
      "mà ##_c",
      "##ch ##út",
      "##m_ ##ch",
      "##_c ##ông",
      "##nh_ ##mẽ",
      "mạ ##nh_mẽ",
      "so ##_sánh",
      "làm ##_việc",
      "##_ph ##òng",
      "##t_đ ##ầu",
      "fi ##x",
      "##n_n ##àn",
      "phụ ##_kiện",
      "##uo ##c",
      "dự ##_phòng",
      "bắ ##t_đầu",
      "phà ##n_nàn",
      "một_ ##chút",
      "suy ##_nghĩ",
      "mà_c ##òn",
      "2 ##1",
      "b ##ài",
      "c ##m",
      "c ##ung",
      "g ##o",
      "k ##ì",
      "l ##ỡ",
      "m ##h",
      "t ##à",
      "t ##iề",
      "t ##ấm",
      "đ ##ư",
      "đ ##o",
      "đ ##ỡ",
      "đ ##ăng",
      "##a ##ra",
      "##u ##s",
      "ch ##ú",
      "ch ##ân",
      "kh ##iến",
      "tr ##ải",
      "##_t ##í",
      "ph ##át_",
      "##i_ ##b",
      "##t_ ##b",
      "đẹp ##_mắt",
      "##_nh ##ất",
      "qua ##n_trọng",
      "##te ##l",
      "co ##m",
      "xo ##ay",
      "đò ##i",
      "tiếp ##_tục",
      "ngoại ##_hình",
      "duy ##_nhất",
      "hướng ##_dẫn",
      "khả ##_năng",
      "##quy ##ết",
      "chă ##m_s",
      "phát_ ##h",
      "chăm_s ##óc",
      "a ##mo",
      "b ##ắn",
      "b ##ắp",
      "c ##ỡ",
      "c ##ây",
      "d ##ây",
      "d ##ính",
      "h ##ế",
      "p ##lay",
      "s ##mart",
      "t ##ùm",
      "v ##os",
      "đ ##ổ",
      "đ ##eo",
      "##t ##ra",
      "##_ ##ai",
      "##ò ##i",
      "##9 ##90",
      "ch ##úng",
      "##iệ ##p",
      "##_t ##in",
      "##iế ##m",
      "##_l ##oại",
      "##_đ ##ầu",
      "##_nh ##iêu",
      "nói_ch ##uyện",
      "##t_m ##ắt",
      "những ##_ai",
      "chu ##p",
      "gh ##i",
      "xuất ##_hiện",
      "##ie ##u",
      "snap ##dragon",
      "mẫ ##u",
      "ro ##m",
      "thị ##_tr",
      "kể ##_cả",
      "quản_l ##ý",
      "3 ##1",
      "c ##ố",
      "g ##óp",
      "m ##ã",
      "p ##i",
      "t ##t",
      "t ##ên",
      "t ##ức",
      "u ##l",
      "ơ ##n",
      "##n ##ày",
      "##l ##o",
      "##ở ##i",
      "##o ##àn",
      "##ẹ ##t",
      "##ằ ##m",
      "##ụ ##i",
      "ch ##ương",
      "kh ##en",
      "được ##_cái",
      "##_t ##úi",
      "sa ##u_",
      "##_v ##iên",
      "##_th ##ống",
      "##_đ ##ủ",
      "##ân_v ##ân",
      "ra ##_mắt",
      "##_tr ##ong",
      "##ac ##k",
      "hiệ ##u",
      "đáng ##_giá",
      "đầy ##_đủ",
      "bao ##_nhiêu",
      "##qua ##n",
      "ban_đ ##êm",
      "bắ ##t_mắt",
      "giải_ ##quyết",
      "hy ##_vọng",
      "amo ##led",
      "sau_ ##này",
      "c ##ân",
      "d ##ám",
      "g ##õ",
      "h ##ành",
      "l ##í",
      "m ##j",
      "n ##ế",
      "s ##uốt",
      "v ##òng",
      "v ##ặt",
      "v ##ấn",
      "z ##oom",
      "ấ ##n_t",
      "##s ##s",
      "##t ##ive",
      "##ấ ##u_h",
      "##ẩ ##y",
      "##i_ ##c",
      "##iế ##p",
      "cá ##_nhân",
      "mượ ##n",
      "##_l ##ẽ",
      "##_d ##ưng",
      "ngày ##_càng",
      "##_đ ##ổi",
      "để ##_ý",
      "ra ##t",
      "vậy ##_mà",
      "tự ##_dưng",
      "##_m ##ới",
      "kế ##t_",
      "phầ ##n_c",
      "phí ##a",
      "chí ##nh_s",
      "hệ ##_thống",
      "dữ ##_liệu",
      "rõ_r ##àng",
      "chương ##_trình",
      "ấn_t ##ượng",
      "phần_c ##ứng",
      "chính_s ##ách",
      "c ##l",
      "g ##am",
      "g ##ây",
      "h ##ọc",
      "l ##iền",
      "n ##ơi",
      "q ##á",
      "r ##ỗ",
      "t ##ô",
      "v ##ẻ",
      "đ ##ả",
      "đ ##ôi",
      "##k ##s",
      "##ữ ##u",
      "##è ##o",
      "##ã ##n",
      "##ơ ##c",
      "##ọ ##t",
      "##ẻ ##o",
      "ch ##âu",
      "nh ##ờ",
      "nh ##ật",
      "tr ##ò",
      "tr ##ướ",
      "tr ##ường",
      "ph ##ân_vân",
      "qu ##ét",
      "##i_ ##ng",
      "giá ##_thành",
      "cũ ##g",
      "##n_t ##oàn",
      "la ##i",
      "cam ##ara",
      "##_ch ##ắc",
      "đáng ##_k",
      "cầm ##_chắc",
      "##uộ ##c",
      "thay ##_đổi",
      "##n_l ##ợi",
      "##ie ##w",
      "##_lu ##m",
      "cuố ##i",
      "tin_t ##ưởng",
      "phát_h ##iện",
      "đáng_k ##ể",
      "b ##h",
      "d ##e",
      "d ##ừng",
      "f ##f",
      "l ##ạ",
      "m ##e",
      "m ##ướt",
      "n ##è",
      "s ##t",
      "s ##ẵ",
      "t ##am",
      "t ##ồi",
      "v ##ượt",
      "x ##ác",
      "x ##ảy",
      "đ ##ông",
      "##i ##p",
      "##b ##e",
      "##k ##e",
      "##ủ ##a",
      "th ##à",
      "th ##iết",
      "kh ##ô",
      "##n_ ##gi",
      "tr ##uy",
      "gi ##ữa",
      "ph ##one",
      "##i_ ##nh",
      "##_l ##ời",
      "##_h ##ơi",
      "##_nh ##àng",
      "cấ ##p",
      "thiế ##t_b",
      "ho ##me",
      "trả ##_lời",
      "##_b ##ị",
      "nha ##h",
      "nhẹ ##_nhàng",
      "12 ##0",
      "chắc ##_tay",
      "##_ph ##ải",
      "thông ##_thường",
      "##n_n ##ào",
      "trang ##_bị",
      "kỹ ##_thuật",
      "tiệ ##n_lợi",
      "hi ##hi",
      "ac ##tive",
      "tùm ##_lum",
      "ul ##tra",
      "thiết_b ##ị",
      "2 ##7",
      "3 ##000",
      "7 ##6",
      "b ##ám",
      "c ##ong",
      "d ##a",
      "d ##anh",
      "d ##ấu_h",
      "e ##xy",
      "h ##a",
      "h ##ầ",
      "h ##ồ",
      "h ##inh",
      "h ##ồng",
      "k ##ích",
      "k ##ịp",
      "l ##ịch",
      "m ##ục",
      "m ##ỏi",
      "n ##c",
      "p ##up",
      "s ##ở",
      "s ##ắp",
      "t ##ả",
      "t ##ài",
      "v ##ị",
      "v ##ẩn",
      "x ##s",
      "x ##ã",
      "##v ##a",
      "##ớ ##p",
      "##ê ##t",
      "##ẩ ##u",
      "##ễ ##n",
      "th ##ủ",
      "tr ##àn",
      "tr ##ãi",
      "ng ##ủ",
      "mà ##_lại",
      "ph ##ong",
      "ph ##òng",
      "ok ##i",
      "##m_ ##c",
      "##_th ##ích",
      "lúc ##_nào",
      "##_tr ##iển",
      "ké ##o",
      "vừa ##_mới",
      "liên_ ##quan",
      "tự ##a",
      "đồ ##ng_h",
      "##_n ##ay",
      "bỏ ##_túi",
      "chuy ##ên_",
      "##_tra ##ng",
      "##kk ##kk",
      "##uo ##t",
      "thực ##_tế",
      "cụ ##m",
      "phả ##i_ch",
      "pr ##ime",
      "đư ##ơc",
      "smart ##phone",
      "dấu_h ##iệu",
      "pup ##g",
      "đồng_h ##ồ",
      "1 ##7",
      "4 ##90",
      "b ##u",
      "b ##ề",
      "b ##an",
      "b ##ụi",
      "c ##ầ",
      "c ##ày",
      "c ##ứng",
      "c ##ộng",
      "c ##ổng",
      "d ##ạo",
      "g ##ấp",
      "h ##ổ",
      "h ##i_v",
      "i ##u",
      "i ##m",
      "k ##im",
      "l ##ê",
      "l ##ang",
      "l ##iệu",
      "m ##ê",
      "m ##ắc",
      "m ##ái",
      "m ##ùa",
      "r ##ằng",
      "s ##p",
      "s ##ong",
      "s ##ạch",
      "t ##p",
      "t ##iê",
      "v ##ă",
      "v ##ợ",
      "v ##iết",
      "đ ##ung",
      "##v ##iew",
      "##_ ##ok",
      "##p ##u",
      "##ú ##a",
      "##é ##p",
      "##é ##m",
      "##d ##e",
      "##ộ ##c",
      "##ó ##t",
      "##ợ ##t_nh",
      "##3 ##0",
      "th ##ư",
      "ch ##ảnh",
      "nh ##iệm",
      "nh ##ợt_nh",
      "kh ##ong",
      "##n_ ##s",
      "tr ##ình",
      "ng ##ồi",
      "ph ##á",
      "mới ##_đầu",
      "game ##s",
      "cá ##m_",
      "##m_ ##h",
      "##_th ##ức",
      "hay ##_là",
      "##_c ##ủa",
      "##nh_ ##x",
      "qua ##n_tâm",
      "wi ##f",
      "##_m ##ặt",
      "##_m ##inh",
      "##ngh ##iệp",
      "ngoài ##_trời",
      "re ##view",
      "đa ##u",
      "an ##t",
      "thông ##_tin",
      "##t_đ ##iểm",
      "làm_ ##ăn",
      "khuyế ##t_điểm",
      "66 ##0",
      "chân_th ##ành",
      "bl ##ut",
      "tà ##u",
      "tiề ##n_nào",
      "chuyên_ ##nghiệp",
      "hi_v ##ọng",
      "nhợt_nh ##ạt",
      "cám_ ##ơn",
      "tiền_nào ##_của",
      "2 ##2",
      "2 ##8",
      "2 ##3",
      "b ##á",
      "b ##o",
      "b ##ể",
      "b ##iế",
      "b ##iệt",
      "d ##iện",
      "d ##ut",
      "d ##ấu",
      "g ##g",
      "h ##ả",
      "h ##ên",
      "k ##ỳ",
      "l ##ừa",
      "l ##át",
      "l ##ắp",
      "v ##v",
      "y ##t",
      "đ ##iên",
      "đ ##ặc",
      "##n ##os",
      "##ạ ##p",
      "##ú ##n",
      "##d ##ung",
      "##ự ##t",
      "##ặ ##n",
      "th ##ừa",
      "ch ##úc",
      "ch ##át",
      "nh ##ầm",
      "nh ##ug",
      "##n_ ##ng",
      "tr ##ống",
      "tr ##ái",
      "ng ##ã",
      "ng ##ại",
      "##_t ##ư",
      "##_t ##iến",
      "quá ##_trời",
      "cả ##nh",
      "tu ##ộc",
      "##_v ##ị",
      "##_th ##ị",
      "cấ ##n",
      "ma ##i",
      "vừa ##_ý",
      "tạm ##_thời",
      "##ut ##u",
      "##i_đ ##iểm",
      "thờ ##i_điểm",
      "##ắc_ ##m",
      "chu ##g",
      "gh ##ét",
      "##me ##ra",
      "nhận_d ##ạng",
      "ti ##k",
      "##_r ##ồi",
      "sinh ##_viên",
      "85 ##5",
      "##t_h ##àng",
      "trường ##_hợp",
      "exy ##nos",
      "kim ##_loại",
      "6 ##7",
      "a ##h",
      "b ##n",
      "c ##à",
      "g ##em",
      "g ##ắn",
      "h ##à",
      "k ##iếm",
      "l ##m",
      "m ##á",
      "m ##ỏ",
      "n ##ắp",
      "r ##ỏ",
      "t ##ung",
      "t ##inh",
      "x ##ung",
      "x ##ai",
      "đ ##ầm",
      "đ ##óng",
      "đ ##ồn",
      "##t ##a",
      "##o ##ài",
      "th ##ân",
      "th ##iệt",
      "th ##ang",
      "th ##áo",
      "th ##ắc_m",
      "nh ##u",
      "nh ##á",
      "##n_ ##kh",
      "tr ##o",
      "có ##_lẽ",
      "tố ##i_đ",
      "này ##_n",
      "##_d ##àng",
      "##_h ##ữu",
      "ngh ##ỉ",
      "la ##u",
      "##fi ##re",
      "tư ##ơi",
      "cam ##mera",
      "##qu ##ả",
      "no ##va",
      "một ##_tí",
      "đa ##g",
      "hoà ##n_toàn",
      "phát ##_triển",
      "cải ##_tiến",
      "xử ##_lí",
      "trở ##_lại",
      "tiệ ##m_c",
      "we ##p",
      "xe ##m_",
      "cuố ##i_c",
      "fl ##as",
      "sẵ ##n",
      "hầ ##u_như",
      "sở ##_hữu",
      "vị ##_trí",
      "ant ##utu",
      "dut ##y",
      "thắc_m ##ắc",
      "tối_đ ##a",
      "này_n ##ọ",
      "tiệm_c ##ận",
      "cuối_c ##ùng",
      "3 ##3",
      "6 ##5",
      "9 ##6",
      "b ##út",
      "b ##ớt",
      "d ##ã",
      "d ##i_ch",
      "d ##ậy",
      "g ##ốc",
      "h ##ụt",
      "h ##út",
      "h ##ối",
      "l ##am",
      "l ##ầm",
      "m ##b",
      "p ##k",
      "q ##t",
      "s ##s",
      "s ##âu",
      "s ##át",
      "s ##up",
      "t ##ượng",
      "t ##ội",
      "u ##ổng",
      "v ##an",
      "z ##ing",
      "đ ##à",
      "đ ##ỏ",
      "đ ##ành",
      "##i ##c",
      "##2 ##2",
      "##s ##t",
      "##c ##ro",
      "##é ##o",
      "##o ##be",
      "##d ##d",
      "##ồ ##n_b",
      "ch ##ua",
      "ch ##ro",
      "nh ##an",
      "##n_ ##nh",
      "##n_ ##xuất",
      "tr ##ẻ",
      "tr ##ieu",
      "gi ##à",
      "gi ##an",
      "gi ##ựt",
      "ph ##an",
      "##i_ ##n",
      "nhanh ##_ch",
      "##_th ##ì",
      "##_th ##ật",
      "sả ##n_xuất",
      "để ##_ch",
      "##_c ##ập",
      "##uy ##ển",
      "đề ##_ngh",
      "ma ##cro",
      "to ##à",
      "ho ##k",
      "##pp ##pp",
      "##_m ##ờ",
      "##t_m ##ấy",
      "mờ ##_mờ",
      "phầ ##n_tr",
      "##i_l ##à",
      "thá ##g",
      "##n_ch ##ế",
      "bi ##t",
      "tiệ ##n_",
      "vi ##en",
      "hạ ##n_chế",
      "##tttt ##tttt",
      "nguy ##ễ",
      "cm ##t",
      "phải_ch ##ăng",
      "sp ##en",
      "##m_h ##iểu",
      "biế ##t_mấy",
      "xem_ ##xét",
      "di_ch ##uyển",
      "sup ##er",
      "nhanh_ch ##óng",
      "để_ch ##ế",
      "đề_ngh ##ị",
      "phần_tr ##ăm",
      "2 ##6",
      "9 ##2",
      "b ##ạ",
      "b ##óc",
      "c ##a",
      "c ##ua",
      "c ##ận",
      "c ##ầu",
      "h ##ằng",
      "i ##d",
      "i ##tel",
      "l ##e",
      "l ##ẫn",
      "l ##ượt",
      "m ##ì",
      "m ##ềm",
      "m ##ún",
      "n ##iề",
      "n ##ằm",
      "r ##ât",
      "s ##u",
      "s ##ọc",
      "t ##e",
      "v ##ứt",
      "x ##u",
      "ă ##n_đ",
      "đ ##ại",
      "đ ##áo",
      "đ ##ạt",
      "##_ ##p",
      "##ế ##n",
      "##c ##re",
      "##ứ ##a",
      "##o ##m",
      "##ả ##m",
      "##ễ ##u",
      "th ##ò",
      "th ##ụt",
      "ch ##at",
      "nh ##e",
      "nh ##áy",
      "máy ##_s",
      "tr ##ai",
      "mà ##y",
      "gi ##ọt",
      "##iế ##u",
      "cá ##p",
      "tu ##ổi",
      "##_l ##ệ",
      "##_h ##ội",
      "##_đ ##ây",
      "##n_th ##ân",
      "bả ##n_thân",
      "to ##i",
      "vừa ##_phải",
      "sóng ##_sánh",
      "##_ch ##ơi",
      "##_s ##ự",
      "##_n ##ấy",
      "yout ##obe",
      "dễ ##_dàng",
      "siêu ##_thị",
      "tho ##i",
      "tho ##ảng",
      "thông ##_minh",
      "hai ##zz",
      "##_ho ##à",
      "##_ng ##ày",
      "yê ##u_cầu",
      "tì ##m_hiểu",
      "họ ##c_s",
      "ro ##i",
      "vi ##et",
      "vo ##i",
      "66 ##5",
      "tổng ##_thể",
      "đe ##p",
      "nổ ##i_b",
      "than ##ks",
      "lí ##_do",
      "nế ##u_như",
      "truy ##_cập",
      "bu ##ồn_b",
      "cầ ##n_th",
      "tiền_nào_của ##_nấy",
      "tiện_ ##ích",
      "ăn_đ ##ứt",
      "học_s ##inh",
      "nổi_b ##ật",
      "buồn_b ##uồn",
      "4 ##3",
      "6 ##1",
      "6 ##90",
      "9 ##7",
      "b ##ức",
      "c ##ột",
      "c ##ăng",
      "c ##ai",
      "c ##ug",
      "d ##ể",
      "d ##ần",
      "f ##p",
      "g ##ương",
      "h ##t",
      "j ##i",
      "l ##ẽ",
      "l ##ong",
      "l ##inh",
      "l ##õi",
      "l ##òi",
      "m ##ậ",
      "m ##ệt",
      "n ##et",
      "n ##ứt",
      "q ##úa",
      "s ##ơn",
      "t ##ua",
      "u ##s",
      "u ##y",
      "v ##ay",
      "v ##án",
      "x ##ì",
      "y ##_như",
      "á ##nh",
      "đ ##ất",
      "đ ##ụng",
      "đ ##ỗi",
      "##f ##t",
      "##u ##c",
      "##p ##lay",
      "##o ##c",
      "##o ##r",
      "##8 ##0",
      "##ĩ ##nh",
      "th ##am",
      "ch ##a",
      "ch ##ậ",
      "ch ##ân_",
      "ch ##ết",
      "ch ##i_nh",
      "tr ##a",
      "tr ##ễ",
      "tr ##ông",
      "tr ##ực",
      "ng ##ta",
      "##_t ##ự",
      "##_t ##ượng",
      "ph ##ú",
      "ph ##óng",
      "qu ##ài",
      "cá ##o",
      "khá ##c_biệt",
      "##_d ##õi",
      "##n_t ##uổi",
      "##_th ##ủ",
      "chỉ ##nh_s",
      "hình ##_thức",
      "##_c ##ứ",
      "##ang ##_m",
      "qua ##n",
      "##_tr ##ữ",
      "ho ##ang_m",
      "##_m ##ẹ",
      "##_b ##ạ",
      "##en ##t",
      "mi ##ễn",
      "lớ ##n_tuổi",
      "theo ##_dõi",
      "thậ ##m_ch",
      "chuy ##ện",
      "##n_b ##è",
      "đặ ##t_hàng",
      "mo ##d",
      "fi ##le",
      "công ##_nhận",
      "cuộ ##c",
      "##_ho ##ạt",
      "bất ##_ng",
      "ti ##n_d",
      "tậ ##u",
      "thân_th ##iết",
      "bộ_nhớ ##_trong",
      "tương_đ ##ương",
      "duy ##ệt",
      "dự ##t",
      "đối ##_thủ",
      "lưu ##_trữ",
      "##hi ##p",
      "vo ##te",
      "##c_s ##au",
      "nhi ##ễu",
      "thị_tr ##ường",
      "thị_tr ##ấn",
      "mj ##h",
      "kết_ ##quả",
      "cl ##ip",
      "trướ ##c_sau",
      "lịch ##_sự",
      "vă ##n_ph",
      "##nh_x ##ác",
      "mỏ ##i_m",
      "tro ##g",
      "flas ##h",
      "chro ##me",
      "bạ ##n_bè",
      "##cre ##en",
      "cần_th ##iết",
      "chi_nh ##ánh",
      "trực ##_t",
      "chỉnh_s ##ửa",
      "hoang_m ##ang",
      "thậm_ch ##í",
      "bất_ng ##ờ",
      "tin_d ##ùng",
      "2 ##00",
      "6 ##3",
      "7 ##90",
      "a ##s",
      "a ##p",
      "a ##i_ng",
      "b ##ò",
      "b ##ạc",
      "b ##ít",
      "c ##ô",
      "c ##ận_",
      "c ##pu",
      "d ##el",
      "g ##ỡ",
      "g ##ởi",
      "h ##ông",
      "h ##et",
      "k ##kk",
      "l ##á",
      "l ##ã",
      "l ##ướ",
      "m ##uot",
      "r ##ực_",
      "s ##ơ",
      "s ##ắt",
      "t ##y",
      "t ##iên",
      "t ##ục",
      "v ##ẽ",
      "v ##l",
      "v ##õ",
      "đ ##ẳng",
      "ư ##a",
      "ư ##u",
      "ẩ ##n",
      "##e ##y",
      "##n ##n",
      "##a ##d",
      "##s ##mart",
      "##c ##ảnh",
      "##ố ##n",
      "##r ##ỡ",
      "##l ##ượng",
      "##ỉ ##u",
      "th ##ưa",
      "ch ##play",
      "kh ##e",
      "##n_ ##x",
      "máy ##_b",
      "tr ##ọng",
      "tr ##ăm",
      "tr ##ạng",
      "ng ##ược",
      "##_t ##ệ",
      "là ##_hơi",
      "qu ##ên",
      "##iê ##m",
      "##_c ##ách",
      "##uố ##i",
      "cấ ##m",
      "##_ch ##ữa",
      "##ut ##o",
      "##i_đ ##áp",
      "chi ##a",
      "độ ##t_",
      "bao ##_lâu",
      "dù ##g",
      "điều ##_kiện",
      "mi ##h",
      "thời_ ##lượng",
      "##mar ##t_",
      "nặng ##_tay",
      "thi ##k",
      "chí ##nh_xác",
      "##i_m ##ới",
      "bất ##_cứ",
      "ti ##eng",
      "li ##en",
      "tối_ ##qua",
      "##_ng ##oài",
      "201 ##7",
      "bi ##k",
      "sửa ##_chữa",
      "thời ##_trang",
      "##_qua ##n",
      "thành ##_công",
      "tin_t ##ức",
      "of ##f",
      "đổ ##i_mới",
      "tô ##t",
      "st ##ar",
      "danh ##_bạ",
      "bề ##_ngoài",
      "phá ##t_s",
      "qt ##v",
      "máy_s ##ài",
      "fp ##t",
      "us ##b",
      "chân_ ##dung",
      "văn_ph ##òng",
      "mỏi_m ##ắt",
      "ai_ng ##ờ",
      "cận_ ##cảnh",
      "rực_ ##rỡ",
      "máy_b ##ay",
      "2 ##9",
      "3 ##6",
      "5 ##5",
      "7 ##30",
      "a ##uto",
      "b ##j",
      "b ##ong",
      "b ##ệt",
      "c ##s",
      "d ##ân",
      "d ##ạng",
      "f ##in",
      "g ##ọ",
      "g ##ạch",
      "h ##êt",
      "k ##ê",
      "k ##eo",
      "l ##ô",
      "l ##ệ",
      "l ##ương",
      "m ##ơi",
      "m ##ây",
      "m ##ền",
      "n ##x",
      "n ##ắng",
      "n ##ãn",
      "p ##o",
      "q ##a",
      "r ##u",
      "r ##ác",
      "s ##on",
      "t ##ập",
      "t ##iêu",
      "t ##ime",
      "v ##c",
      "v ##í",
      "v ##ượng",
      "x ##ét",
      "á ##p",
      "ầ ##m_",
      "ọ ##p_",
      "ổ ##n_",
      "##g ##o",
      "##g ##d",
      "##h ##u",
      "##h ##ẩu",
      "##v ##v",
      "##a ##x",
      "##t ##ok",
      "##r ##u",
      "##ô ##n",
      "##m ##ent",
      "##x ##el",
      "##b ##ảo",
      "##o ##re",
      "##â ##p",
      "##ẹ ##n",
      "##ộ ##p",
      "##3 ##3",
      "th ##iện",
      "ch ##á",
      "ch ##ổ",
      "ch ##ay",
      "ch ##ặn",
      "kh ##a",
      "tr ##ụ",
      "ph ##ầm",
      "ph ##ết",
      "ph ##ai",
      "##i_ ##s",
      "ok ##ie",
      "##_l ##o",
      "##_d ##ương",
      "cho ##_dù",
      "##u_ ##ch",
      "##_đ ##ình",
      "##_đ ##ẹp",
      "tay ##_trong",
      "ra ##n",
      "##n_th ##ui",
      "##_tr ##ung",
      "##_tr ##ội",
      "10 ##80",
      "đơ ##n_gi",
      "##oo ##c",
      "đế ##n_n",
      "##t_k ##hẩu",
      "##te ##r",
      "##_ch ##ỉnh",
      "##_s ##ơ",
      "khó ##_kh",
      "##es ##t",
      "điều ##_chỉnh",
      "mặc ##_định",
      "50 ##20",
      "khở ##i",
      "ba ##n_ng",
      "thi ##ch",
      "hd ##r",
      "tương ##_tự",
      "bất ##_thường",
      "bất ##_k",
      "thu ##ong",
      "li ##ke",
      "định ##_vị",
      "201 ##8",
      "71 ##0",
      "quy ##ết",
      "vin ##smart",
      "in ##ch",
      "##as ##t",
      "##_qua ##nh",
      "quả ##_thật",
      "ac ##e",
      "đe ##n_thui",
      "sinh ##_nhật",
      "35 ##00",
      "##_tí ##n",
      "com ##ment",
      "hế ##t_m",
      "trò ##_chơi",
      "khô ##g",
      "kích ##_hoạt",
      "blut ##ooth",
      "yt ##b",
      "##n_kh ##o",
      "##_p ##ubg",
      "mậ ##t_khẩu",
      "uy ##_tín",
      "del ##ay",
      "đẳng ##_cấp",
      "son ##y",
      "ầm_ ##ầm",
      "ọp_ ##ẹp",
      "ổn_ ##áp",
      "đơn_gi ##ản",
      "đến_n ##ỗi",
      "khó_kh ##ăn",
      "ban_ng ##ày",
      "9 ##5",
      "a ##_",
      "a ##n_tâm",
      "b ##ung",
      "b ##át",
      "b ##ốc",
      "b ##ee",
      "b ##ởi",
      "c ##k",
      "c ##ã",
      "c ##ử",
      "c ##an",
      "d ##ạ",
      "d ##ò",
      "d ##è",
      "d ##uoc",
      "f ##im",
      "h ##e",
      "h ##on",
      "h ##ận",
      "h ##ảo",
      "h ##ỉu",
      "i ##c",
      "k ##ệ",
      "l ##ộ",
      "l ##iệt",
      "m ##ư",
      "m ##u",
      "m ##ùng",
      "m ##ưa",
      "m ##iết",
      "n ##i",
      "n ##ua",
      "n ##ỗi",
      "n ##ội",
      "r ##át",
      "r ##ùa",
      "s ##x",
      "s ##ữ",
      "s ##ánh",
      "t ##v",
      "t ##ầ",
      "t ##ú",
      "t ##ỉ",
      "t ##q",
      "t ##ản",
      "t ##ỉnh",
      "t ##ft",
      "u ##i",
      "v ##e",
      "v ##ơi",
      "v ##ết",
      "v ##ây",
      "v ##ội",
      "v ##ăn",
      "w ##á",
      "x ##ưa",
      "x ##aomi",
      "x ##ót",
      "z ##in",
      "ô ##n",
      "ô ##m",
      "đ ##ục",
      "đ ##ằng",
      "đ ##uoc",
      "ủ ##ng",
      "##h ##d",
      "##i ##o",
      "##s ##hip",
      "##t ##i",
      "##u ##ch",
      "##p ##e",
      "##b ##ội",
      "##o ##te",
      "##ậ ##u",
      "##ụ ##p",
      "##ã ##y",
      "##ơ ##n_tr",
      "th ##ù",
      "th ##ằng",
      "th ##ánh",
      "th ##uộc",
      "ch ##uyên",
      "ch ##ốt",
      "ch ##ớp",
      "nh ##iệ",
      "nh ##iên",
      "kh ##uôn",
      "kh ##ui",
      "kh ##ớp",
      "##n_ ##v",
      "tr ##í",
      "tr ##óc",
      "tr ##ơn_tr",
      "##in ##a",
      "ng ##ắn",
      "##_t ##o",
      "##_t ##ừ",
      "##_t ##inh",
      "ph ##ế",
      "ph ##iền",
      "qu ##ất",
      "##n_t ##ử",
      "##m_ ##bảo",
      "ngày ##_nay",
      "##_th ##ân",
      "##_th ##ực",
      "##_th ##eo",
      "##u_ ##ho",
      "##_h ##uy",
      "lỗi ##_thời",
      "##_đ ##ịch",
      "##iê ##t",
      "hình ##_sắc",
      "để ##u",
      "lo ##á",
      "điệ ##n_tử",
      "##c_ ##m",
      "##uy ##ệt",
      "ngư ##ờ",
      "ma ##k",
      "vừa ##_lòng",
      "##ai ##l",
      "##n_đ ##o",
      "trước ##_đây",
      "##t_v ##ài",
      "mở ##_m",
      "##_m ##uốn",
      "##_b ##ai",
      "chê ##_bai",
      "##en ##d",
      "##_ch ##ỉ",
      "hiệ ##n_n",
      "thế ##_là",
      "mong ##_muốn",
      "##_cả ##m",
      "giả ##i_đáp",
      "dù ##m",
      "co ##d",
      "vô ##_địch",
      "tác ##_dụng",
      "vs ##mart_",
      "ba ##t",
      "##_kh ##o",
      "##_x ##ã",
      "##_x ##ước",
      "##_x ##íu",
      "mộ ##t_vài",
      "##_ng ##ửa",
      "càng ##_ngày",
      "ngang ##_ngửa",
      "giải ##_thích",
      "lỗ ##i_lầm",
      "bực_ ##bội",
      "tối_ư ##u_ho",
      "trầy ##_xước",
      "kĩ ##_thuật",
      "lu ##c",
      "rõ_r ##ệt",
      "lý ##_do",
      "##ag ##ship",
      "fl ##agship",
      "tg ##gd",
      "hu ##hu",
      "se ##al",
      "com ##b",
      "hế ##t_s",
      "chúng ##_t",
      "đả ##m_bảo",
      "me ##d",
      "thà ##nh_",
      "xã ##_hội",
      "tik ##tok",
      "xung ##_quanh",
      "niề ##m",
      "linh ##_tinh",
      "tua ##n",
      "as ##us",
      "ty ##pe",
      "phát_s ##inh",
      "trơn_tr ##u",
      "mở_m ##àn",
      "hiện_n ##ay",
      "càng_ngày ##_càng",
      "tối_ưu_ho ##á",
      "0 ##4",
      "3 ##00",
      "4 ##1",
      "4 ##990",
      "7 ##5",
      "8 ##6",
      "a ##r",
      "b ##e",
      "b ##ế",
      "b ##ự",
      "b ##ận",
      "b ##est",
      "c ##t",
      "c ##u",
      "c ##ắt",
      "c ##ạch",
      "d ##u",
      "d ##ô",
      "d ##ì",
      "d ##ỡ",
      "d ##th",
      "d ##ag",
      "f ##a",
      "f ##ai",
      "g ##a",
      "g ##r",
      "g ##à",
      "g ##ạo",
      "h ##s",
      "h ##ong",
      "h ##ời",
      "h ##uyện",
      "k ##m",
      "k ##b",
      "k ##em",
      "l ##n",
      "l ##ă",
      "l ##ễ",
      "l ##ên_",
      "m ##ồ",
      "m ##ơ",
      "m ##ỹ",
      "m ##ặ",
      "m ##ng",
      "m ##ôi",
      "n ##ố",
      "n ##ối",
      "r ##ẽ",
      "r ##ổ",
      "r ##ước",
      "r ##oom",
      "s ##ứ",
      "s ##ò",
      "t ##ào",
      "t ##ây",
      "t ##at",
      "u ##ng",
      "v ##d",
      "v ##ật",
      "v ##ooc",
      "x ##ò",
      "x ##ui",
      "y ##ế",
      "é ##p",
      "đ ##ắ",
      "đ ##ậm",
      "ư ##ớt",
      "ỗ ##n",
      "##1 ##1",
      "##_ ##em",
      "##_ ##fire",
      "##ạ ##n_x",
      "##ớ ##n",
      "##ớ ##c",
      "##c ##e",
      "##c ##m",
      "##x ##uống",
      "##l ##i",
      "##l ##ine",
      "##b ##o",
      "##o ##t",
      "##ắ ##t_",
      "##ẫ ##m",
      "##ẩ ##m_",
      "##đ ##ẹp",
      "##ơ ##t",
      "th ##a",
      "ch ##ói",
      "ch ##ina",
      "nh ##ac",
      "kh ##áng",
      "##n_ ##g",
      "tr ##ơn",
      "tr ##ượt",
      "tr ##ưng",
      "ph ##in",
      "ph ##ut",
      "ph ##ân_giải",
      "qu ##ận",
      "qu ##ạt",
      "##i_ ##d",
      "##i_ ##ph",
      "##iế ##c",
      "ok ##ey",
      "chơi ##_pubg",
      "##t_ ##ra",
      "giá ##_tr",
      "cá ##m",
      "##_l ##ao",
      "##_l ##ai",
      "##_d ##ụ",
      "##_d ##uyệt",
      "##_v ##ệ",
      "##_v ##ực",
      "##_v ##ương",
      "##n_t ##ập",
      "##n_t ##ăn",
      "##_th ##ước",
      "##_th ##ượng",
      "##_h ##ôi",
      "##_h ##ộp",
      "hình ##_dáng",
      "ngh ##ệ",
      "ngh ##iêm",
      "lo ##go",
      "lo ##ạn_x",
      "##oo ##l",
      "từ ##_từ",
      "ma ##n",
      "to ##t",
      "vừa ##_rồi",
      "ho ##àn",
      "đi ##nh",
      "##_m ##an",
      "bảo ##_vệ",
      "##i_đ ##ầu",
      "##_s ##ách",
      "tí ##m",
      "cầm ##_hơi",
      "##_n ##ên",
      "mức ##_độ",
      "khoảng ##_cách",
      "tho ##ai",
      "##lu ##ận",
      "rẻ ##_tiền",
      "hiệu_ ##ứng",
      "vô ##_tư",
      "##_ph ##ần",
      "##_ph ##ép",
      "##re ##d",
      "gh ##é",
      "##t_đ ##ộ",
      "ba ##ss",
      "xo ##g",
      "##_kh ##ông",
      "##_kh ##ảo",
      "fu ##n",
      "làm_ ##đẹp",
      "bà ##n_c",
      "tiếp ##_theo",
      "on ##e",
      "kinh_ ##nghiệm",
      "##_r ##ớt",
      "phụ ##_huy",
      "phản_ ##ánh",
      "free ##fire",
      "thời ##_thượng",
      "dài ##_dài",
      "hi ##c",
      "##u_m ##à",
      "mic ##ro",
      "rơi ##_rớt",
      "đập ##_hộp",
      "gia ##_công",
      "vui ##_tính",
      "chân_th ##ật",
      "chân_th ##ực",
      "khu ##ân",
      "tà ##m",
      "góp ##_ý",
      "nế ##u_mà",
      "kết_ ##luận",
      "me ##g",
      "vượt ##_trội",
      "xác ##_định",
      "hồ ##_sơ",
      "kích ##_thước",
      "trình ##_duyệt",
      "wif ##fi",
      "dã ##_man",
      "mì ##h",
      "viet ##tel",
      "gương ##_mặt",
      "tham ##_khảo",
      "trực_t ##iếp",
      "63 ##2",
      "fin ##d",
      "lệ ##ch",
      "cử ##_chỉ",
      "tầ ##n_s",
      "tú ##m",
      "nhiệ ##t_độ",
      "comb ##at",
      "med ##ia",
      "lă ##n_tăn",
      "lên_ ##xuống",
      "mồ ##_hôi",
      "tào ##_lao",
      "đắ ##n_đo",
      "giá_tr ##ị",
      "loạn_x ##ạ",
      "bàn_c ##ãi",
      "phụ_huy ##nh",
      "0 ##2",
      "0 ##3",
      "3 ##4",
      "4 ##4",
      "4 ##00",
      "b ##b",
      "b ##ă",
      "b ##ay",
      "b ##ước",
      "b ##iểu",
      "b ##ubg",
      "b ##óp",
      "b ##uộc",
      "c ##g",
      "c ##v",
      "c ##ư",
      "c ##ổ",
      "c ##ẩ",
      "c ##ù",
      "c ##anh",
      "c ##âm",
      "c ##au",
      "d ##ụ",
      "d ##ay",
      "d ##ật",
      "d ##ẫn",
      "d ##em",
      "f ##m",
      "g ##ò",
      "g ##ps",
      "g ##ói",
      "g ##pu",
      "h ##ì",
      "h ##j",
      "h ##uy",
      "h ##ấp",
      "h ##át",
      "h ##ạng",
      "h ##ạt",
      "h ##iếm",
      "i ##t",
      "i ##ph",
      "j ##ack",
      "k ##iến",
      "l ##ẻ",
      "l ##ao",
      "l ##ận",
      "l ##en",
      "l ##ăm",
      "l ##ấm",
      "l ##ợi",
      "l ##uot",
      "m ##ược",
      "m ##anh",
      "n ##ọ",
      "n ##ong",
      "n ##ịnh",
      "n ##inh",
      "n ##uốt",
      "n ##ém",
      "o ##r",
      "p ##t",
      "p ##m",
      "p ##ing",
      "r ##ật",
      "r ##ôi",
      "r ##ít",
      "s ##v",
      "s ##m",
      "s ##ờ",
      "s ##ức",
      "t ##n",
      "t ##ắc",
      "t ##ích",
      "t ##ái",
      "t ##ạo",
      "v ##ê",
      "v ##m",
      "v ##k",
      "v ##ọ",
      "v ##ao",
      "v ##èo",
      "w ##j",
      "x ##ách",
      "y ##ên",
      "z ##l",
      "á ##o",
      "ô ##i",
      "ă ##n_th",
      "đ ##u",
      "đ ##út",
      "đ ##ống",
      "đ ##ứt",
      "đ ##uối",
      "ấ ##p",
      "ồ ##n",
      "##g ##g",
      "##h ##e",
      "##h ##ệ",
      "##e ##c",
      "##v ##e",
      "##v ##er",
      "##s ##creen",
      "##_ ##w",
      "##ấ ##c",
      "##c ##o",
      "##r ##us",
      "##p ##o",
      "##p ##in",
      "##ú ##_vị",
      "##m ##i_n",
      "##x ##x",
      "##é ##n",
      "##d ##t",
      "##ồ ##m",
      "##ổ ##n",
      "##ậ ##t_v",
      "##ẩ ##n_b",
      "##ị ##t",
      "##ng ##ột",
      "th ##ô",
      "th ##ả",
      "th ##ơ",
      "th ##ây",
      "th ##ẩm_",
      "th ##ú_vị",
      "ch ##iêu",
      "ch ##ât",
      "nh ##ấp",
      "nh ##ỉnh",
      "nh ##ám",
      "nh ##ịp",
      "kh ##ối",
      "##n_ ##ho",
      "tr ##u",
      "tr ##ục",
      "tr ##ánh",
      "tr ##uyện",
      "ng ##u",
      "ng ##ờ",
      "ng ##uo",
      "ng ##ốn",
      "##_t ##ả",
      "##_t ##âm",
      "##_t ##ốc",
      "##_t ##iếng",
      "ph ##ổ",
      "ph ##ương",
      "ph ##iếu",
      "ph ##ẫm",
      "qu ##ốc",
      "##t_ ##ru",
      "##_d ##ùng",
      "##_d ##ành",
      "##m_ ##r",
      "##_th ##úc",
      "cho ##_rồi",
      "##u_ ##ý",
      "##_h ##d",
      "##_h ##ại",
      "##_đ ##ề",
      "##_đ ##ài",
      "##_đ ##ắn",
      "tay ##_phải",
      "ngh ##i",
      "ngh ##iêng",
      "để ##_dành",
      "##_nh ##áy",
      "thứ ##c",
      "qua ##ng_h",
      "người ##_thân",
      "tệ ##_hại",
      "##_tr ##ường",
      "##_tr ##ặc",
      "bả ##ng",
      "##oo ##d",
      "ma ##g",
      "ma ##t",
      "ma ##i_m",
      "ma ##de",
      "to ##k",
      "to ##uch",
      "thất ##_b",
      "ho ##a",
      "ho ##á",
      "thôi ##_thì",
      "nhất ##_định",
      "đi ##en",
      "liên_ ##hệ",
      "##_b ##ộ",
      "mất ##_m",
      "##_ch ##i_là",
      "##_s ##ơn",
      "##_gi ##a",
      "##kh ##ó",
      "##_n ##ói",
      "nhỏ ##_xíu",
      "lư ##u_ý",
      "trung ##_thành",
      "xi ##ao",
      "đúng ##_đắn",
      "thậ ##t_ra",
      "chu ##ẩn_b",
      "đa ##_số",
      "chiế ##m",
      "mo ##bi",
      "##_x ##ưa",
      "tương ##_lai",
      "full ##_hd",
      "##_tra ##i",
      "thu ##ần",
      "tậ ##n_tâm",
      "on ##screen",
      "##n_tr ##âu",
      "mess ##ag",
      "dự ##_định",
      "bi ##et",
      "free ##_fire",
      "48 ##0",
      "ta ##b",
      "vin ##a",
      "sống ##_động",
      "##zz ##z",
      "kết ##_thúc",
      "thực ##_hiện",
      "di ##en",
      "gia ##_đình",
      "bố ##_mẹ",
      "tổng ##_quan",
      "tổng ##_đài",
      "cụ ##_thể",
      "##ii ##ii",
      "khu ##ông",
      "khu ##_vực",
      "phả ##m",
      "hu ##m",
      "than ##k",
      "go ##p",
      "chú ##t_",
      "tt ##dd",
      "tồi ##_tệ",
      "tài ##_kho",
      "tiê ##u_ch",
      "kỳ ##_vọng",
      "67 ##5",
      "##ic ##e",
      "##22 ##22",
      "toà ##n_tập",
      "##tttttttt ##tttttttt",
      "mod ##em",
      "lã ##i_s",
      "lướ ##t_",
      "đột_ ##ngột",
      "off ##line",
      "po ##p",
      "ví ##_dụ",
      "ic ##on",
      "hết_s ##ức",
      "chúng_t ##a",
      "biểu ##_tượng",
      "hấp ##_dẫn",
      "iph ##on",
      "ăn_th ##ua",
      "##mi_n ##ote",
      "trục ##_trặc",
      "nguo ##i",
      "quang_h ##ọc",
      "mai_m ##ốt",
      "thất_b ##ại",
      "chuẩn_b ##ị",
      "tài_kho ##ản",
      "lãi_s ##uất",
      "0 ##1",
      "0 ##8",
      "0 ##7",
      "1 ##000",
      "3 ##7",
      "4 ##7",
      "5 ##9",
      "6 ##00",
      "7 ##9",
      "7 ##00",
      "8 ##00",
      "a ##n_toàn",
      "b ##ằ",
      "b ##inh",
      "b ##ack",
      "c ##ú",
      "c ##ẩm",
      "c ##ọc",
      "c ##úp",
      "c ##ưng",
      "c ##âp",
      "c ##ắt_",
      "d ##s",
      "d ##ẹp",
      "d ##ao",
      "d ##ịp",
      "g ##ra",
      "h ##ữ",
      "h ##qua",
      "h ##au",
      "h ##ẹn",
      "i ##ps",
      "k ##í",
      "k ##ẻ",
      "k ##ẻo",
      "l ##c",
      "l ##uô",
      "l ##ực",
      "l ##ấp",
      "l ##ỏng",
      "l ##eno",
      "l ##ạnh",
      "m ##ô",
      "m ##x",
      "m ##ò",
      "m ##ụ",
      "m ##ự",
      "m ##en",
      "m ##ầu",
      "m ##ui",
      "m ##ịn",
      "n ##v",
      "n ##u",
      "n ##é",
      "n ##ch",
      "n ##ao",
      "n ##ai",
      "n ##en",
      "n ##ốt",
      "o ##pp",
      "p ##j",
      "p ##ay",
      "r ##ò",
      "r ##àng",
      "r ##òi",
      "s ##n",
      "s ##á",
      "s ##úng",
      "s ##creen",
      "t ##ớ",
      "t ##ê",
      "t ##ổ",
      "t ##iệt",
      "t ##áo",
      "t ##iệm",
      "t ##ẩy",
      "t ##ịt",
      "v ##ớ",
      "v ##ững",
      "v ##ọc",
      "v ##er",
      "v ##ầy",
      "v ##lo",
      "x ##uyên",
      "y ##_ch",
      "z ##ay",
      "â ##n_c",
      "đ ##g",
      "đ ##x",
      "đ ##ờ",
      "đ ##ị",
      "đ ##ài",
      "đ ##iể",
      "đ ##ét",
      "đ ##ương",
      "đ ##ạo",
      "đ ##ứa",
      "##g ##end",
      "##h ##a",
      "##v ##o",
      "##i ##s",
      "##i ##t",
      "##i ##en",
      "##i ##ll",
      "##n ##am",
      "##n ##et",
      "##_ ##f",
      "##ư ##u",
      "##ớ ##t_",
      "##c ##k",
      "##u ##u",
      "##u ##m",
      "##u ##ong",
      "##u ##ẩn",
      "##r ##y",
      "##r ##bo",
      "##ô ##m",
      "##m ##áy",
      "##à ##m",
      "##ì ##n",
      "##b ##h",
      "##o ##ut",
      "##k ##m",
      "##ẹ ##o",
      "##ộ ##m",
      "##ẫ ##y",
      "##ă ##t",
      "##è ##n",
      "##ợ ##n",
      "##ã ##ng",
      "##ể ##n_đ",
      "##ũ ##ng",
      "##ủ ##i",
      "##ẵ ##ng",
      "th ##ần",
      "th ##iên",
      "th ##ậm",
      "th ##èm",
      "th ##ít",
      "ch ##áy",
      "ch ##óng",
      "ch ##ừng",
      "ch ##ắn",
      "nh ##ay",
      "nh ##ân_",
      "nh ##ắc",
      "nh ##ieu",
      "kh ##ỏ",
      "kh ##ắc",
      "kh ##ẩu",
      "máy ##_ok",
      "tr ##òn",
      "##am ##sung",
      "ng ##ọc",
      "mua ##_s",
      "##_t ##ắt",
      "##_t ##ạm",
      "##_t ##ối",
      "##_t ##óm",
      "##_t ##iếc",
      "rất ##_chi_là",
      "gi ##o",
      "gi ##ấy",
      "là ##n",
      "là ##nh",
      "như ##_ý",
      "ph ##anh",
      "ph ##iề",
      "ph ##úc",
      "ph ##án",
      "ph ##âm",
      "##i_ ##qu",
      "quá ##_trình",
      "giá ##c",
      "##ph ##á",
      "tu ##ân",
      "tu ##rbo",
      "##_l ##ộ",
      "##_l ##inh",
      "##_v ##ă",
      "##gi ##ang",
      "##n_t ##ay",
      "##n_t ##re",
      "ngày ##_xưa",
      "came ##re",
      "##_th ##ọ",
      "##_th ##ông",
      "##_th ##iết",
      "##_th ##ái",
      "sả ##m",
      "##u_ ##b",
      "##u_ ##ích",
      "chỉ ##_số",
      "##_h ##iểm",
      "##_đ ##ích",
      "lo ##i",
      "lo ##ve",
      "##_nh ##ập",
      "##c_ ##ng",
      "##c_ ##sắc",
      "##c_ ##quy",
      "##n_th ##ận",
      "##_c ##ố",
      "##_c ##on",
      "##_c ##ao",
      "qua ##ng",
      "tuyệ ##t_đ",
      "tiế ##g",
      "nói ##_tóm",
      "sáng ##_s",
      "##n_đ ##ại",
      "ho ##àng",
      "thích ##_ngh",
      "đá ##p",
      "tự ##_tin",
      "##_m ##áy",
      "##_m ##ai",
      "##_m ##au",
      "##_m ##ax",
      "##te ##k",
      "##_ch ##ữ",
      "##_ch ##ủ",
      "hiệ ##n_đại",
      "đầu ##_tư",
      "chất ##_liệu",
      "bình ##_dương",
      "##_s ##áng",
      "##_s ##nap",
      "cực ##_độ",
      "độ ##c",
      "độ ##i_ng",
      "độ ##c_quy",
      "oppo ##_r",
      "##_cả ##nh",
      "##_n ##iên",
      "##_n ##ội",
      "thua ##_k",
      "trung ##_thực",
      "khó ##a",
      "tho ##ải",
      "kế ##t_h",
      "bỏ ##_qua",
      "đa ##_điểm",
      "gh ##e",
      "gh ##im",
      "##i_l ##òng",
      "thông ##_cảm",
      "chuy ##ển_đ",
      "đặ ##c_sắc",
      "hd ##h",
      "##_x ##ứng",
      "hố ##t",
      "hai ##z",
      "cơ ##_mà",
      "vu ##i_lòng",
      "làm_ ##khó",
      "tương ##_xứng",
      "thu ##ật",
      "may ##_m",
      "li ##nh_",
      "##n_l ##uôn",
      "thể ##_hiện",
      "thể ##_loại",
      "tối_ ##om",
      "201 ##6",
      "trang ##_w",
      "bù ##n",
      "45 ##0",
      "hư ##ng",
      "phông ##_chữ",
      "chủ ##_đề",
      "thị ##_xã",
      "lung ##_linh",
      "in ##ter",
      "##as ##s",
      "di ##s",
      "tưởng ##_tượng",
      "lu ##m",
      "##mo ##bile",
      "bố ##n",
      "anh_chị ##_em",
      "bl ##ack",
      "99 ##9",
      "bữa ##_nay",
      "##n_d ##iện",
      "nguy ##ê",
      "nguy ##ên_",
      "kinh ##_do",
      "nhi ##u",
      "##m_ch ##ạp",
      "đăng ##_nhập",
      "pi ##n_trâu",
      "mj ##k",
      "gam ##ing",
      "de ##p",
      "##n_gi ##ang",
      "mục ##_đích",
      "##kkkk ##kkkk",
      "cà ##_mau",
      "hà ##_nội",
      "hối ##_tiếc",
      "ss ##a",
      "##n_nh ##ẹ",
      "le ##gend",
      "chậ ##m_r",
      "chậ ##m_chạp",
      "trạng ##_thái",
      "gọ ##n_nhẹ",
      "tiêu ##_dùng",
      "bất_k ##ỳ",
      "hết_m ##ình",
      "##n_kho ##ăn",
      "tỉ ##_lệ",
      "##ti ##on",
      "bế ##n_tre",
      "môi ##_trường",
      "nố ##t_ru",
      "yế ##u_",
      "tàm ##_tạm",
      "media ##tek",
      "bă ##n_khoăn",
      "cẩ ##n_thận",
      "vm ##ast",
      "vọ ##g",
      "thơ ##m",
      "##n_ho ##à",
      "mất_m ##ạng",
      "gop ##ro",
      "lướt_ ##f",
      "bằ ##g",
      "hữ ##u_ích",
      "lc ##d",
      "luô ##n_luôn",
      "leno ##vo",
      "vlo ##g",
      "y_ch ##ang",
      "ân_c ##ần",
      "đờ ##i_đầu",
      "mua_s ##ắm",
      "nói_tóm ##_lại",
      "sáng_s ##uốt",
      "thích_ngh ##i",
      "đội_ng ##ũ",
      "độc_quy ##ền",
      "oppo_r ##eno",
      "thua_k ##ém",
      "kết_h ##ợp",
      "trang_w ##eb",
      "inter ##net",
      "kinh_do ##anh",
      "chậm_r ##ì",
      "nốt_ru ##ồi",
      "0 ##0",
      "1 ##90",
      "5 ##2",
      "5 ##3",
      "6 ##2",
      "7 ##4",
      "8 ##3",
      "9 ##4",
      "a ##v",
      "a ##t",
      "a ##m",
      "a ##l",
      "a ##o",
      "a ##ll",
      "b ##k",
      "b ##ụng",
      "b ##uô",
      "b ##ậy",
      "b ##ắc_",
      "b ##ọc",
      "b ##th",
      "b ##ẩn",
      "b ##iêt",
      "c ##n",
      "c ##ành",
      "c ##ac",
      "c ##ặp",
      "c ##ậu",
      "c ##ool",
      "d ##ầ",
      "d ##x",
      "d ##ị",
      "d ##ơ",
      "d ##áng",
      "d ##ộng",
      "d ##ực",
      "d ##ương",
      "d ##ọc",
      "d ##at",
      "d ##uo",
      "f ##e",
      "f ##r",
      "g ##e",
      "g ##ầ",
      "g ##í",
      "g ##m",
      "h ##g",
      "h ##í",
      "h ##ậ",
      "h ##đ",
      "h ##am",
      "h ##ùng",
      "h ##ân",
      "h ##ang",
      "h ##ào",
      "h ##ồn",
      "h ##nay",
      "h ##el",
      "h ##ữu",
      "h ##ẻo",
      "k ##t",
      "k ##ô",
      "k ##o",
      "k ##k",
      "k ##ỉ",
      "k ##iể",
      "k ##ẹt",
      "l ##g",
      "l ##ẹ",
      "l ##ụ",
      "l ##q",
      "l ##ặ",
      "l ##ôi",
      "l ##ạy",
      "l ##ăng",
      "m ##ù",
      "m ##ât",
      "m ##õi",
      "m ##ép",
      "m ##ến",
      "n ##e",
      "n ##f",
      "n ##m",
      "n ##ộ",
      "n ##an",
      "n ##eo",
      "o ##i",
      "o ##led",
      "p ##v",
      "p ##b",
      "p ##ải",
      "p ##im",
      "q ##c",
      "r ##ì",
      "r ##ăng",
      "r ##ực",
      "r ##ớt_",
      "s ##i",
      "s ##ó",
      "s ##ẻ",
      "s ##ân",
      "s ##iê",
      "s ##ắm",
      "s ##ước",
      "s ##ương",
      "s ##uống",
      "s ##uất",
      "s ##ách",
      "s ##ám",
      "s ##lo",
      "s ##ọt",
      "s ##dt",
      "t ##ạ",
      "t ##ồ",
      "t ##â",
      "t ##ù",
      "t ##ỷ",
      "t ##ao",
      "t ##em",
      "t ##im",
      "t ##iv",
      "t ##iêng",
      "t ##ẹt",
      "t ##ụi",
      "t ##ks",
      "v ##ó",
      "v ##iện",
      "v ##ing",
      "v ##âng",
      "v ##ĩnh",
      "x ##á",
      "x ##xx",
      "z ##a",
      "z ##o",
      "à ##o",
      "á ##i",
      "í ##u",
      "ô ##k",
      "ú ##p",
      "đ ##ê",
      "đ ##ơi",
      "đ ##ồi",
      "đ ##ào",
      "đ ##ức",
      "đ ##ấu",
      "ẻ ##m",
      "ủ ##a",
      "ứ ##g",
      "ứ ##c",
      "##g ##ì",
      "##e ##ra",
      "##i ##st",
      "##n ##ở",
      "##n ##d",
      "##s ##h",
      "##t ##g",
      "##ầ ##n_th",
      "##_ ##anh",
      "##_ ##ứng",
      "##_ ##sung",
      "##_ ##qu",
      "##_ ##an",
      "##_ ##ổn",
      "##ế ##p",
      "##p ##ad",
      "##m ##g",
      "##m ##i_",
      "##à ##u",
      "##ì ##m",
      "##x ##t",
      "##l ##m",
      "##l ##ạc",
      "##l ##ive",
      "##ở ##m",
      "##b ##g",
      "##b ##le",
      "##b ##er",
      "##o ##à",
      "##o ##y",
      "##o ##ppo",
      "##d ##y",
      "##k ##iện",
      "##â ##ý",
      "##y ##ên",
      "##ờ ##i_",
      "##ă ##c",
      "##đ ##ịnh",
      "##ã ##m",
      "##ã ##o",
      "##j ##oy",
      "##ĩ ##nh_",
      "##ng ##ày",
      "##nh ##ân",
      "th ##g",
      "th ##ê",
      "th ##ỏ",
      "th ##ề",
      "th ##áy",
      "th ##em",
      "th ##ẳng",
      "th ##ât",
      "th ##u_nh",
      "ch ##ó",
      "ch ##am",
      "ch ##on",
      "ch ##an",
      "ch ##âm",
      "ch ##ọc",
      "ch ##ưởng",
      "ch ##uối",
      "ch ##èn",
      "nh ##ạ",
      "nh ##ỡ",
      "nh ##ức",
      "nh ##ịu",
      "nh ##ằm",
      "kh ##g",
      "kh ##ổ",
      "kh ##iếp",
      "##n_ ##pin",
      "máy ##_tính",
      "máy ##_cái",
      "tr ##à",
      "tr ##ần",
      "tr ##ứng",
      "tr ##ách",
      "##in ##k",
      "ng ##âm",
      "##_t ##ập",
      "gi ##ọng",
      "gi ##ực",
      "gi ##ành",
      "như ##_không",
      "ph ##ản",
      "ph ##ỏng",
      "nó ##i_",
      "qu ##ê",
      "qu ##ỳ",
      "qu ##ăng",
      "qu ##ản",
      "##i_ ##x",
      "tốt ##_b",
      "tốt ##_đẹp",
      "sa ##n",
      "sa ##nh",
      "sa ##le",
      "ok ##ee",
      "##t_ ##c",
      "##t_ ##d",
      "bị ##t",
      "cá ##u",
      "tu ##m",
      "##_l ##ong",
      "##_l ##âm",
      "##_l ##ịch",
      "##_l ##ắng",
      "nhanh ##_nh",
      "##_d ##a",
      "##_d ##ân",
      "##_v ##ì",
      "##_v ##ò",
      "##_v ##iệt",
      "##_v ##iện",
      "##m_ ##m",
      "##m_ ##nở",
      "ngày ##_giờ",
      "came ##r",
      "##_th ##áp",
      "##ỗi ##_tội",
      "chỉ ##_m",
      "##n_ph ##ức",
      "##_h ##ệ",
      "##_h ##ổi",
      "##_h ##ào",
      "##_h ##ạn",
      "##_đ ##ại",
      "##_đ ##ời",
      "##_đ ##en",
      "##_đ ##ảo",
      "##_đ ##ồng",
      "##_đ ##ón",
      "tay ##_tr",
      "lo ##è",
      "lo ##_lắng",
      "sao ##_ch",
      "##_nh ##ã",
      "##c_ ##c",
      "##c_ ##x",
      "##c_ ##kia",
      "##c_ ##ăn",
      "tuy ##êt",
      "##00 ##00",
      "nóng ##_b",
      "nóng ##_hổi",
      "thứ ##c_ăn",
      "##uy ##ến",
      "la ##n",
      "la ##i_v",
      "##nh_ ##b",
      "qua ##d",
      "qua ##nh",
      "kho ##a",
      "kho ##ái",
      "tiế ##n_tr",
      "em ##ail",
      "##ườ ##n",
      "10 ##1",
      "sam ##s",
      "ma ##p",
      "đt ##h",
      "thiế ##t_",
      "##n_đ ##ồ",
      "##pp ##er",
      "liên_ ##lạc",
      "tự ##_hào",
      "##_m ##ua",
      "##ac ##ebook",
      "##_b ##ỏ",
      "##_b ##út",
      "##_b ##ẩy",
      "##en ##a",
      "mất ##_công",
      "##_ch ##ay",
      "##_ch ##ạm",
      "##_ch ##ừng",
      "bình ##_dân",
      "##_s ##ổ",
      "##_s ##ợ",
      "##ngh ##ĩ",
      "thế ##_hệ",
      "do ##w",
      "do ##anh",
      "màu ##_da",
      "##ro ##up",
      "yo ##u",
      "bật ##_tắt",
      "lư ##ới",
      "chip ##_snap",
      "dù ##_sao",
      "khó ##_tính",
      "tho ##y",
      "mặt ##_trời",
      "xuống ##_cấp",
      "điều ##_kh",
      "xi ##u",
      "xi ##nh_x",
      "co ##lo",
      "vô ##_dụng",
      "##_ph ##át",
      "##re ##am",
      "đa ##_phần",
      "gh ##z",
      "hỗ ##n_h",
      "đồng ##_bộ",
      "đồng ##_tháp",
      "##i_l ##ại",
      "max ##set",
      "chiế ##u",
      "mo ##be",
      "##_kh ##iếp",
      "##_x ##ử",
      "red ##me",
      "cơ ##_hội",
      "fi ##lm",
      "bà ##_con",
      "sự ##_cố",
      "bất ##_ổn",
      "tiếp ##_đón",
      "thu ##ận_",
      "hiể ##n",
      "mp ##x",
      "chả ##o",
      "mes ##enger",
      "chờ ##n",
      "ad ##d",
      "##ap ##i",
      "chiều ##_tối",
      "khuy ##ết",
      "71 ##2",
      "trang ##_trí",
      "bluet ##oo",
      "trắng ##_đen",
      "16 ##1",
      "40 ##5",
      "40 ##30",
      "setting ##s",
      "vi ##rus",
      "khủng ##_khiếp",
      "đỉnh ##_cao",
      "##_thu ##ận",
      "##_thu ##ật_v",
      "đè ##n_pin",
      "ưu_đ ##ãi",
      "vo ##lu",
      "dở ##m",
      "va ##_chạm",
      "bl ##a",
      "bóng ##_bẩy",
      "quản_l ##í",
      "hu ##wei",
      "kì ##a",
      "chú ##_ý",
      "cây ##_bút",
      "pi ##t",
      "pi ##xel",
      "tt ##bh",
      "mj ##nh",
      "tô ##n",
      "châu ##_thành",
      "trướ ##c_m",
      "trướ ##c_kia",
      "danh ##_sách",
      "ha ##zzz",
      "nc ##l",
      "kéo ##_dài",
      "phải_ch ##i",
      "vă ##n_bản",
      "thư ##_viện",
      "bo ##x",
      "lừa ##_đảo",
      "tươi ##_sáng",
      "##st ##ore",
      "##i_n ##ói",
      "toà ##n_diện",
      "##pppp ##pppp",
      "nguyễ ##n_tr",
      "mì ##n",
      "niề ##m_nở",
      "su ##m",
      "te ##le",
      "viet ##nam",
      "43 ##9",
      "trực_t ##uyến",
      "kkk ##k",
      "ngược ##_lại",
      "bj ##o",
      "ru ##ồi",
      "áp ##_dụng",
      "##_dương ##_vương",
      "bất_k ##ì",
      "hết_m ##ức",
      "can ##dy",
      "he ##he",
      "mư ##ơt",
      "##_to ##án",
      "thành_ ##ra",
      "ct ##km",
      "gr ##am",
      "lễ ##_phép",
      "mặ ##t_hàng",
      "##red ##mi_note",
      "meg ##api",
      "tần_s ##ố",
      "sm ##s",
      "đút ##_túi",
      "thẩm_ ##định",
      "phổ ##_thông",
      "quốc ##_tế",
      "xiao ##mi_",
      "messag ##e",
      "##iiii ##i",
      "tiêu_ch ##uẩn",
      "gra ##b",
      "lấp ##_vò",
      "mx ##h",
      "mụ ##n",
      "tẩy ##_chay",
      "ver ##y",
      "đương ##_nhiên",
      "##out ##ube",
      "chóng ##_mặt",
      "khẩu ##_trang",
      "phiề ##n_phức",
      "chuyển_đ ##ổi",
      "may_m ##ắn",
      "linh_ ##kiện",
      "nguyên_ ##nhân",
      "bth ##uong",
      "cool ##pad",
      "ge ##am",
      "hel ##io",
      "rớt_ ##giá",
      "sám ##ung",
      "slo ##w",
      "tồ ##n_kho",
      "tỷ ##_lệ",
      "tiv ##i",
      "ving ##roup",
      "thu_nh ##ập",
      "nhanh_nh ##ạy",
      "chỉ_m ##ỗi_tội",
      "nóng_b ##ỏng",
      "lai_v ##ung",
      "điều_kh ##iển",
      "hỗn_h ##ợp",
      "mobe ##ll",
      "##_thuật_v ##iên",
      "trước_m ##ắt",
      "0 ##9",
      "0 ##5",
      "0 ##6",
      "2 ##000",
      "2 ##90",
      "3 ##8",
      "3 ##9",
      "3 ##90",
      "4 ##2",
      "4 ##6",
      "5 ##6",
      "7 ##7",
      "8 ##2",
      "8 ##8",
      "8 ##7",
      "8 ##4",
      "9 ##3",
      "9 ##00",
      "a ##u",
      "a ##ss",
      "b ##g",
      "b ##c",
      "b ##x",
      "b ##ở",
      "b ##ó",
      "b ##ậ",
      "b ##ẻ",
      "b ##ùng",
      "b ##ắc",
      "b ##ăng",
      "c ##ở",
      "c ##ất",
      "c ##ay",
      "c ##ạn",
      "c ##ườ",
      "c ##ar",
      "c ##ăn",
      "c ##ầy",
      "c ##ằm",
      "d ##ế",
      "d ##r",
      "d ##ẫ",
      "d ##ọ",
      "d ##ử",
      "d ##z",
      "d ##ong",
      "d ##ân_",
      "d ##iệu",
      "d ##ầu",
      "d ##ro",
      "d ##ựa",
      "d ##ầy",
      "e ##x",
      "e ##d",
      "f ##on",
      "f ##hd",
      "g ##ê",
      "g ##y",
      "g ##ó",
      "g ##ật",
      "g ##an",
      "g ##ạt",
      "g ##ãy",
      "g ##ồm",
      "h ##á",
      "h ##p",
      "h ##m",
      "h ##ột",
      "h ##ạn",
      "h ##óng",
      "h ##ây",
      "h ##ạch",
      "h ##ớt",
      "h ##ít",
      "h ##ieu",
      "h ##ứa",
      "h ##cm",
      "i ##s",
      "k ##ỷ",
      "k ##ung",
      "k ##iê",
      "k ##êt",
      "l ##y",
      "l ##ổ",
      "l ##ạc",
      "l ##ục",
      "l ##ỏi",
      "l ##te",
      "l ##iv",
      "l ##âm",
      "l ##ọc",
      "l ##ãi",
      "l ##ắng",
      "l ##ặp",
      "l ##ine",
      "l ##ọt",
      "l ##ứa",
      "l ##ĩnh",
      "l ##ởm",
      "l ##ink",
      "m ##í",
      "m ##ông",
      "m ##ên",
      "m ##ao",
      "m ##ườ",
      "m ##ét",
      "m ##ực",
      "m ##ảng",
      "m ##us",
      "m ##éo",
      "n ##ê",
      "n ##y",
      "n ##ề",
      "n ##ài",
      "n ##ấy",
      "n ##âu",
      "n ##ướ",
      "n ##át",
      "n ##êu",
      "n ##ầy",
      "n ##ice",
      "o ##p",
      "o ##an",
      "o ##tg",
      "p ##es",
      "p ##ug",
      "q ##r",
      "r ##iết",
      "r ##inh",
      "r ##ừng",
      "r ##ắn",
      "r ##ie",
      "r ##ồng",
      "s ##f",
      "s ##ủ",
      "s ##ụng",
      "s ##ứng",
      "s ##ục",
      "s ##ữa",
      "s ##ậm",
      "s ##àn",
      "s ##ấu",
      "s ##óc",
      "s ##hi",
      "s ##ụp",
      "s ##ưu",
      "s ##ăc",
      "t ##ứ",
      "t ##l",
      "t ##b",
      "t ##è",
      "t ##ủ",
      "t ##ông",
      "t ##ph",
      "t ##ắm",
      "t ##ang",
      "t ##ường",
      "t ##át",
      "t ##ướng",
      "t ##ạch",
      "t ##ấc",
      "t ##ẹo",
      "u ##n",
      "u ##d",
      "u ##ống",
      "v ##ù",
      "v ##ất",
      "v ##ùng",
      "v ##ấp",
      "v ##ương",
      "v ##ướng",
      "v ##iew",
      "v ##ĩnh_",
      "w ##et",
      "x ##g",
      "x ##r",
      "x ##ó",
      "x ##úc",
      "x ##ac",
      "z ##ậy",
      "ê ##m_",
      "í ##t_nh",
      "ô ##_t",
      "ă ##n_c",
      "đ ##ứ",
      "đ ##ệ",
      "đ ##am",
      "đ ##ay",
      "đ ##ùng",
      "đ ##anh",
      "đ ##ịch",
      "đ ##ẩy",
      "đ ##éo",
      "đ ##i_lại",
      "̣ ##c",
      "ẩ ##m",
      "ớ ##n",
      "##1 ##0",
      "##g ##e",
      "##g ##dd",
      "##v ##i",
      "##i ##k"
    ]
  }
}