{
  "version": "1.0",
  "truncation": null,
  "padding": null,
  "added_tokens": [
    {
      "id": 0,
      "content": "<pad>",
      "single_word": false,
      "lstrip": false,
      "rstrip": false,
      "normalized": false,
      "special": true
    },
    {
      "id": 1,
      "content": "<unk>",
      "single_word": false,
      "lstrip": false,
      "rstrip": false,
      "normalized": false,
      "special": true
    },
    {
      "id": 2,
      "content": "<bos>",
      "single_word": false,
      "lstrip": false,
      "rstrip": false,
      "normalized": false,
      "special": true
    },
    {
      "id": 3,
      "content": "<eos>",
      "single_word": false,
      "lstrip": false,
      "rstrip": false,
      "normalized": false,
      "special": true
    }
  ],
  "normalizer": {
    "type": "Sequence",
    "normalizers": [
      {
        "type": "NFKC"
      },
      {
        "type": "Strip",
        "strip_left": true,
        "strip_right": true
      },
      {
        "type": "Replace",
        "pattern": {
          "String": "\\s{2,}"
        },
        "content": " "
      },
      {
        "type": "Lowercase"
      },
      {
        "type": "Replace",
        "pattern": {
          "Regex": "\\b(ko)\\b"
        },
        "content": "không"
      },
      {
        "type": "Replace",
        "pattern": {
          "Regex": "\\b(đc)\\b"
        },
        "content": "được"
      },
      {
        "type": "Replace",
        "pattern": {
          "Regex": "\\b(dc)\\b"
        },
        "content": "được"
      },
      {
        "type": "Replace",
        "pattern": {
          "Regex": "\\b(tgdd)\\b"
        },
        "content": "thegioididong"
      },
      {
        "type": "Replace",
        "pattern": {
          "Regex": "\\b(vs)\\b"
        },
        "content": "với"
      },
      {
        "type": "Replace",
        "pattern": {
          "Regex": "\\b(sp)\\b"
        },
        "content": "sản phẩm"
      },
      {
        "type": "Replace",
        "pattern": {
          "Regex": "\\b(fb)\\b"
        },
        "content": "facebook"
      },
      {
        "type": "Replace",
        "pattern": {
          "Regex": "\\b(dt)\\b"
        },
        "content": "điện thoại"
      },
      {
        "type": "Replace",
        "pattern": {
          "Regex": "\\b(tgdđ)\\b"
        },
        "content": "thegioididong"
      },
      {
        "type": "Replace",
        "pattern": {
          "Regex": "\\b(nv)\\b"
        },
        "content": "nhân viên"
      },
      {
        "type": "Replace",
        "pattern": {
          "Regex": "\\b(ss)\\b"
        },
        "content": "samsung"
      },
      {
        "type": "Replace",
        "pattern": {
          "Regex": "\\b(ip)\\b"
        },
        "content": "iphone"
      },
      {
        "type": "Replace",
        "pattern": {
          "Regex": "\\b(oke)\\b"
        },
        "content": "ok"
      },
      {
        "type": "Replace",
        "pattern": {
          "Regex": "\\b(mk)\\b"
        },
        "content": "mình"
      },
      {
        "type": "Replace",
        "pattern": {
          "Regex": "\\b(sd)\\b"
        },
        "content": "sử dụng"
      },
      {
        "type": "Replace",
        "pattern": {
          "Regex": "\\b(ae)\\b"
        },
        "content": "anh em"
      },
      {
        "type": "Replace",
        "pattern": {
          "Regex": "\\b(lq)\\b"
        },
        "content": "liên quân"
      },
      {
        "type": "Replace",
        "pattern": {
          "Regex": "\\b(lqmb)\\b"
        },
        "content": "liên quân mobile"
      },
      {
        "type": "Replace",
        "pattern": {
          "Regex": "\\b(lun)\\b"
        },
        "content": "luôn"
      },
      {
        "type": "Replace",
        "pattern": {
          "Regex": "\\b(ng)\\b"
        },
        "content": "người"
      },
      {
        "type": "Replace",
        "pattern": {
          "Regex": "\\b(ad)\\b"
        },
        "content": "admin"
      },
      {
        "type": "Replace",
        "pattern": {
          "Regex": "\\b(ms)\\b"
        },
        "content": "mới"
      },
      {
        "type": "Replace",
        "pattern": {
          "Regex": "\\b(cx)\\b"
        },
        "content": "cũng"
      },
      {
        "type": "Replace",
        "pattern": {
          "Regex": "\\b(nhìu)\\b"
        },
        "content": "nhiều"
      },
      {
        "type": "Replace",
        "pattern": {
          "Regex": "\\b(bth)\\b"
        },
        "content": "bình thường"
      },
      {
        "type": "Replace",
        "pattern": {
          "Regex": "\\b(bthg)\\b"
        },
        "content": "bình thường"
      }
    ]
  },
  "pre_tokenizer": {
    "type": "Sequence",
    "pretokenizers": [
      {
        "type": "Split",
        "pattern": {
          "Regex": "[😀-🙏🌀-🗿🚀-🛿🇠-🇿✂-➰Ⓜ-🉑🤦-🤷𐀀-􏿿‍♀-♂☀-⭕⏏⏩⌚〰️√]"
        },
        "behavior": "Isolated",
        "invert": false
      },
      {
        "type": "Digits",
        "individual_digits": false
      },
      {
        "type": "Split",
        "pattern": {
          "Regex": "[!\"\\#\\$%\\&'\\(\\)\\*\\+,\\-\\./:;<=>\\?@\\[\\\\\\]\\^`\\{\\|\\}\\~]"
        },
        "behavior": "Isolated",
        "invert": false
      },
      {
        "type": "WhitespaceSplit"
      }
    ]
  },
  "post_processor": {
    "type": "Sequence",
    "processors": [
      {
        "type": "TemplateProcessing",
        "single": [
          {
            "SpecialToken": {
              "id": "<bos>",
              "type_id": 0
            }
          },
          {
            "Sequence": {
              "id": "A",
              "type_id": 9
            }
          },
          {
            "SpecialToken": {
              "id": "<eos>",
              "type_id": 0
            }
          }
        ],
        "pair": [
          {
            "SpecialToken": {
              "id": "<bos>",
              "type_id": 0
            }
          },
          {
            "Sequence": {
              "id": "A",
              "type_id": 0
            }
          },
          {
            "SpecialToken": {
              "id": "<eos>",
              "type_id": 0
            }
          },
          {
            "Sequence": {
              "id": "B",
              "type_id": 1
            }
          },
          {
            "SpecialToken": {
              "id": "<eos>",
              "type_id": 1
            }
          }
        ],
        "special_tokens": {
          "<bos>": {
            "id": "<bos>",
            "ids": [
              2
            ],
            "tokens": [
              "<bos>"
            ]
          },
          "<eos>": {
            "id": "<eos>",
            "ids": [
              3
            ],
            "tokens": [
              "<eos>"
            ]
          }
        }
      }
    ]
  },
  "decoder": {
    "type": "BPEDecoder",
    "suffix": "</w>"
  },
  "model": {
    "type": "BPE",
    "dropout": null,
    "unk_token": "<unk>",
    "continuing_subword_prefix": "##",
    "end_of_word_suffix": null,
    "fuse_unk": false,
    "byte_fallback": false,
    "ignore_merges": false,
    "vocab": {
      "<pad>": 0,
      "<unk>": 1,
      "<bos>": 2,
      "<eos>": 3,
      "!": 4,
      "\"": 5,
      "#": 6,
      "%": 7,
      "&": 8,
      "'": 9,
      "(": 10,
      ")": 11,
      "*": 12,
      "+": 13,
      ",": 14,
      "-": 15,
      ".": 16,
      "/": 17,
      "0": 18,
      "1": 19,
      "2": 20,
      "3": 21,
      "4": 22,
      "5": 23,
      "6": 24,
      "7": 25,
      "8": 26,
      "9": 27,
      ":": 28,
      ";": 29,
      "<": 30,
      "=": 31,
      ">": 32,
      "?": 33,
      "@": 34,
      "[": 35,
      "\\": 36,
      "]": 37,
      "^": 38,
      "_": 39,
      "`": 40,
      "a": 41,
      "b": 42,
      "c": 43,
      "d": 44,
      "e": 45,
      "f": 46,
      "g": 47,
      "h": 48,
      "i": 49,
      "j": 50,
      "k": 51,
      "l": 52,
      "m": 53,
      "n": 54,
      "o": 55,
      "p": 56,
      "q": 57,
      "r": 58,
      "s": 59,
      "t": 60,
      "u": 61,
      "v": 62,
      "w": 63,
      "x": 64,
      "y": 65,
      "z": 66,
      "{": 67,
      "|": 68,
      "}": 69,
      "~": 70,
      "°": 71,
      "×": 72,
      "à": 73,
      "á": 74,
      "â": 75,
      "ã": 76,
      "è": 77,
      "é": 78,
      "ê": 79,
      "ì": 80,
      "í": 81,
      "ò": 82,
      "ó": 83,
      "ô": 84,
      "õ": 85,
      "÷": 86,
      "ù": 87,
      "ú": 88,
      "ý": 89,
      "ă": 90,
      "ą": 91,
      "đ": 92,
      "ě": 93,
      "ĩ": 94,
      "ő": 95,
      "ũ": 96,
      "ū": 97,
      "ơ": 98,
      "ư": 99,
      "ǹ": 100,
      "̀": 101,
      "́": 102,
      "̉": 103,
      "̣": 104,
      "ạ": 105,
      "ả": 106,
      "ấ": 107,
      "ầ": 108,
      "ẩ": 109,
      "ẫ": 110,
      "ậ": 111,
      "ắ": 112,
      "ằ": 113,
      "ẳ": 114,
      "ẵ": 115,
      "ặ": 116,
      "ẹ": 117,
      "ẻ": 118,
      "ẽ": 119,
      "ế": 120,
      "ề": 121,
      "ể": 122,
      "ễ": 123,
      "ệ": 124,
      "ỉ": 125,
      "ị": 126,
      "ọ": 127,
      "ỏ": 128,
      "ố": 129,
      "ồ": 130,
      "ổ": 131,
      "ỗ": 132,
      "ộ": 133,
      "ớ": 134,
      "ờ": 135,
      "ở": 136,
      "ỡ": 137,
      "ợ": 138,
      "ụ": 139,
      "ủ": 140,
      "ứ": 141,
      "ừ": 142,
      "ử": 143,
      "ữ": 144,
      "ự": 145,
      "ỳ": 146,
      "ỵ": 147,
      "ỷ": 148,
      "ỹ": 149,
      "–": 150,
      "’": 151,
      "•": 152,
      "₫": 153,
      "∆": 154,
      "√": 155,
      "☆": 156,
      "☹": 157,
      "☺": 158,
      "♥": 159,
      "✋": 160,
      "✓": 161,
      "❤": 162,
      "⬆": 163,
      "⭐": 164,
      "。": 165,
      "冷": 166,
      "廊": 167,
      "掠": 168,
      "朗": 169,
      "樂": 170,
      "殺": 171,
      "浪": 172,
      "珞": 173,
      "盧": 174,
      "臘": 175,
      "若": 176,
      "藍": 177,
      "蠟": 178,
      "裸": 179,
      "襤": 180,
      "郎": 181,
      "": 182,
      "": 183,
      "": 184,
      "": 185,
      "": 186,
      "": 187,
      "": 188,
      "": 189,
      "": 190,
      "": 191,
      "": 192,
      "": 193,
      "": 194,
      "": 195,
      "": 196,
      "": 197,
      "": 198,
      "": 199,
      "": 200,
      "": 201,
      "": 202,
      "": 203,
      "": 204,
      "": 205,
      "": 206,
      "": 207,
      "": 208,
      "": 209,
      "": 210,
      "": 211,
      "": 212,
      "": 213,
      "": 214,
      "": 215,
      "": 216,
      "": 217,
      "": 218,
      "": 219,
      "": 220,
      "": 221,
      "": 222,
      "": 223,
      "": 224,
      "": 225,
      "": 226,
      "": 227,
      "": 228,
      "": 229,
      "": 230,
      "": 231,
      "": 232,
      "": 233,
      "": 234,
      "": 235,
      "": 236,
      "": 237,
      "": 238,
      "": 239,
      "": 240,
      "": 241,
      "": 242,
      "": 243,
      "": 244,
      "": 245,
      "️": 246,
      "￲": 247,
      "##h": 248,
      "##ă": 249,
      "##c": 250,
      "##u": 251,
      "##a": 252,
      "##y": 253,
      "##_": 254,
      "##t": 255,
      "##í": 256,
      "##i": 257,
      "##ệ": 258,
      "##n": 259,
      "##r": 260,
      "##ì": 261,
      "##đ": 262,
      "##ộ": 263,
      "##w": 264,
      "##ủ": 265,
      "##g": 266,
      "##é": 267,
      "##p": 268,
      "##á": 269,
      "##m": 270,
      "##ơ": 271,
      "##l": 272,
      "##ẹ": 273,
      "##ử": 274,
      "##ó": 275,
      "##à": 276,
      "##ư": 277,
      "##ớ": 278,
      "##d": 279,
      "##ấ": 280,
      "##ô": 281,
      "##ợ": 282,
      "##ồ": 283,
      "##ỏ": 284,
      "##ự": 285,
      "##ỡ": 286,
      "##ò": 287,
      "##ể": 288,
      "##ổ": 289,
      "##â": 290,
      "##e": 291,
      "##s": 292,
      "##ụ": 293,
      "##o": 294,
      "##b": 295,
      "##ứ": 296,
      "##z": 297,
      "##ờ": 298,
      "##f": 299,
      "##ễ": 300,
      "##x": 301,
      "##è": 302,
      "##ặ": 303,
      "##ã": 304,
      "##0": 305,
      "##2": 306,
      "##4": 307,
      "##ù": 308,
      "##k": 309,
      "##v": 310,
      "##ê": 311,
      "##ạ": 312,
      "##ẻ": 313,
      "##1": 314,
      "##ố": 315,
      "##ắ": 316,
      "##ẽ": 317,
      "##9": 318,
      "##ú": 319,
      "##6": 320,
      "##ỷ": 321,
      "##ề": 322,
      "##ả": 323,
      "##ế": 324,
      "##ỉ": 325,
      "##ẵ": 326,
      "##q": 327,
      "##ừ": 328,
      "##ậ": 329,
      "##ý": 330,
      "##ở": 331,
      "##ẳ": 332,
      "##ọ": 333,
      "##ị": 334,
      "##ẩ": 335,
      "##ầ": 336,
      "##ằ": 337,
      "##õ": 338,
      "##8": 339,
      "##5": 340,
      "##ũ": 341,
      "##3": 342,
      "##ĩ": 343,
      "##ẫ": 344,
      "##ỗ": 345,
      "##ữ": 346,
      "##ỳ": 347,
      "##j": 348,
      "##ỹ": 349,
      "##7": 350,
      "##ū": 351,
      "##ỵ": 352,
      "##ě": 353,
      "##ą": 354,
      "##ő": 355,
      "##ǹ": 356,
      "##•": 357,
      "##̉": 358,
      "##́": 359,
      "##ng": 360,
      "##nh": 361,
      "th": 362,
      "ch": 363,
      "nh": 364,
      "kh": 365,
      "##n_": 366,
      "##ình": 367,
      "##ượ": 368,
      "##áy": 369,
      "máy": 370,
      "##ất": 371,
      "##ua": 372,
      "##ông": 373,
      "tr": 374,
      "##am": 375,
      "##in": 376,
      "không": 377,
      "ng": 378,
      "pin": 379,
      "##ới": 380,
      "mua": 381,
      "##ên": 382,
      "##ược": 383,
      "thì": 384,
      "được": 385,
      "##iệ": 386,
      "##_t": 387,
      "##ame": 388,
      "rất": 389,
      "mà": 390,
      "gi": 391,
      "##ày": 392,
      "##ài": 393,
      "##ơi": 394,
      "là": 395,
      "như": 396,
      "ph": 397,
      "có": 398,
      "##ại": 399,
      "tố": 400,
      "mình": 401,
      "nó": 402,
      "##ay": 403,
      "qu": 404,
      "##ùng": 405,
      "##ch": 406,
      "##i_": 407,
      "##ấy": 408,
      "##iế": 409,
      "##âu": 410,
      "mới": 411,
      "tốt": 412,
      "và": 413,
      "game": 414,
      "dùng": 415,
      "##ong": 416,
      "sa": 417,
      "ok": 418,
      "chơi": 419,
      "##ung": 420,
      "quá": 421,
      "##on": 422,
      "##anh": 423,
      "##iề": 424,
      "##t_": 425,
      "nhưng": 426,
      "##áng": 427,
      "##ẹp": 428,
      "bị": 429,
      "giá": 430,
      "đẹp": 431,
      "cá": 432,
      "cả": 433,
      "##ạc": 434,
      "này": 435,
      "mượ": 436,
      "##ần": 437,
      "##ph": 438,
      "tu": 439,
      "##hình": 440,
      "khá": 441,
      "##ầm": 442,
      "##ra": 443,
      "##_l": 444,
      "nhanh": 445,
      "##ân": 446,
      "##_d": 447,
      "cũ": 448,
      "##_v": 449,
      "sạc": 450,
      "##iên": 451,
      "##gi": 452,
      "##n_t": 453,
      "mượt": 454,
      "##m_": 455,
      "ngày": 456,
      "với": 457,
      "came": 458,
      "cũng": 459,
      "##id": 460,
      "##_th": 461,
      "ổn": 462,
      "camera": 463,
      "chụ": 464,
      "##òn": 465,
      "chụp": 466,
      "còn": 467,
      "##ụng": 468,
      "##ơn": 469,
      "thấy": 470,
      "lại": 471,
      "##ọi": 472,
      "##ời": 473,
      "##ỗi": 474,
      "##iều": 475,
      "##ật": 476,
      "xài": 477,
      "tầm": 478,
      "sả": 479,
      "##ẩm": 480,
      "trâu": 481,
      "##ao": 482,
      "cho": 483,
      "hơn": 484,
      "##u_": 485,
      "##n_hình": 486,
      "khi": 487,
      "màn_hình": 488,
      "về": 489,
      "##_dụng": 490,
      "##ồi": 491,
      "nên": 492,
      "chỉ": 493,
      "##n_ph": 494,
      "##ướ": 495,
      "trong": 496,
      "##ân_": 497,
      "hơi": 498,
      "##úc": 499,
      "##ải": 500,
      "##_h": 501,
      "##iệt": 502,
      "sử": 503,
      "##n_phẩm": 504,
      "lỗi": 505,
      "sản_phẩm": 506,
      "##_đ": 507,
      "##iê": 508,
      "cảm_": 509,
      "tay": 510,
      "##ắt": 511,
      "tháng": 512,
      "##ân_v": 513,
      "##ôi": 514,
      "hình": 515,
      "đã": 516,
      "##ết": 517,
      "ngh": 518,
      "##ân_viên": 519,
      "nhân_viên": 520,
      "rồi": 521,
      "để": 522,
      "hay": 523,
      "##ạy": 524,
      "lo": 525,
      "nhiều": 526,
      "lúc": 527,
      "sao": 528,
      "củ": 529,
      "mọi": 530,
      "cái": 531,
      "con": 532,
      "##_nh": 533,
      "ra": 534,
      "điệ": 535,
      "##oại": 536,
      "##àng": 537,
      "sử_dụng": 538,
      "sài": 539,
      "##uô": 540,
      "##c_": 541,
      "sau": 542,
      "##òng": 543,
      "##n_th": 544,
      "##ưa": 545,
      "##ẫn": 546,
      "tuy": 547,
      "##i_ch": 548,
      "phải": 549,
      "##ắm": 550,
      "##ận": 551,
      "##em": 552,
      "##iể": 553,
      "nhiệt": 554,
      "gì": 555,
      "hết": 556,
      "của": 557,
      "nói_ch": 558,
      "vẫn": 559,
      "##ứng": 560,
      "vân": 561,
      "nghe": 562,
      "##00": 563,
      "các": 564,
      "ngon": 565,
      "the": 566,
      "nói_chung": 567,
      "##_tình": 568,
      "nóng": 569,
      "nhiệt_tình": 570,
      "chưa": 571,
      "thứ": 572,
      "##ục": 573,
      "##ổi": 574,
      "lắm": 575,
      "##_c": 576,
      "##ếu": 577,
      "##ang": 578,
      "##uôn": 579,
      "##oid": 580,
      "##uy": 581,
      "la": 582,
      "luôn": 583,
      "##nh_": 584,
      "loa": 585,
      "##iết": 586,
      "##ọng": 587,
      "qua": 588,
      "##ào": 589,
      "đầ": 590,
      "##iền": 591,
      "lâu": 592,
      "##ột": 593,
      "##ữa": 594,
      "ngư": 595,
      "mạ": 596,
      "##ậy": 597,
      "người": 598,
      "tệ": 599,
      "##ạn": 600,
      "tuyệ": 601,
      "##uố": 602,
      "##_tr": 603,
      "##fi": 604,
      "lên": 605,
      "kho": 606,
      "##ắc": 607,
      "##án": 608,
      "cấ": 609,
      "tiế": 610,
      "##gioid": 611,
      "##idong": 612,
      "##gioididong": 613,
      "thegioididong": 614,
      "##ước": 615,
      "ảnh": 616,
      "lag": 617,
      "##ượng": 618,
      "wi": 619,
      "##iện": 620,
      "##ăng": 621,
      "khác": 622,
      "em": 623,
      "bả": 624,
      "##n_thoại": 625,
      "điện_thoại": 626,
      "##ườ": 627,
      "xem": 628,
      "nói": 629,
      "10": 630,
      "liê": 631,
      "##ường": 632,
      "nữa": 633,
      "wifi": 634,
      "đề": 635,
      "sam": 636,
      "##ỏi": 637,
      "mấy": 638,
      "tư": 639,
      "lần": 640,
      "##ụt": 641,
      "vào": 642,
      "ké": 643,
      "đều": 644,
      "đổi": 645,
      "##u_hình": 646,
      "cấu_hình": 647,
      "bạn": 648,
      "biết": 649,
      "##ích": 650,
      "##ập": 651,
      "hàng": 652,
      "##ét": 653,
      "##ừa": 654,
      "nào": 655,
      "tôi": 656,
      "đơ": 657,
      "##ộng": 658,
      "##ặt": 659,
      "##oo": 660,
      "sáng": 661,
      "từ": 662,
      "đt": 663,
      "tuần": 664,
      "ma": 665,
      "đế": 666,
      "##ạm": 667,
      "##sung": 668,
      "##áo": 669,
      "##iến": 670,
      "to": 671,
      "kém": 672,
      "##ực": 673,
      "##óng": 674,
      "thất": 675,
      "đến": 676,
      "##im": 677,
      "##ác": 678,
      "##ảng": 679,
      "samsung": 680,
      "tụt": 681,
      "vừa": 682,
      "hài": 683,
      "nhạy": 684,
      "chạy": 685,
      "vậy": 686,
      "##ub": 687,
      "thiế": 688,
      "##ai": 689,
      "##êm": 690,
      "##n_đ": 691,
      "trước": 692,
      "##_vọng": 693,
      "giật": 694,
      "##_lòng": 695,
      "cảm_ứng": 696,
      "##_vụ": 697,
      "hô": 698,
      "##t_v": 699,
      "##ành": 700,
      "##eb": 701,
      "ho": 702,
      "thích": 703,
      "hài_lòng": 704,
      "##ấn": 705,
      "##t_k": 706,
      "##pp": 707,
      "cam": 708,
      "tiền": 709,
      "##ây": 710,
      "##t_vời": 711,
      "tuyệt_vời": 712,
      "thất_vọng": 713,
      "cao": 714,
      "##ịnh": 715,
      "thôi": 716,
      "##iệm": 717,
      "##ướt": 718,
      "bắt": 719,
      "đá": 720,
      "tạm": 721,
      "##út": 722,
      "##qu": 723,
      "so": 724,
      "##al": 725,
      "##năng": 726,
      "nhất": 727,
      "##n_m": 728,
      "đi": 729,
      "##_lượng": 730,
      "liên_": 731,
      "gọi": 732,
      "mở": 733,
      "đang": 734,
      "ứng": 735,
      "##iểm": 736,
      "chứ": 737,
      "vì": 738,
      "sóng": 739,
      "tự": 740,
      "##m_th": 741,
      "##_m": 742,
      "trả": 743,
      "nét": 744,
      "##ac": 745,
      "lướt": 746,
      "##an": 747,
      "##te": 748,
      "no": 749,
      "gần": 750,
      "một": 751,
      "yếu": 752,
      "##giá": 753,
      "thiết_k": 754,
      "thiết_kế": 755,
      "bảo": 756,
      "20": 757,
      "##_b": 758,
      "##ậm": 759,
      "chê": 760,
      "sẽ": 761,
      "mất": 762,
      "##_ch": 763,
      "##quân": 764,
      "hiệ": 765,
      "##en": 766,
      "##_vấn": 767,
      "tư_vấn": 768,
      "liên_quân": 769,
      "ai": 770,
      "tắt": 771,
      "làm": 772,
      "##ut": 773,
      "##one": 774,
      "tiếng": 775,
      "##ấp": 776,
      "chậm": 777,
      "##t_m": 778,
      "##ợp": 779,
      "##i_đ": 780,
      "đầu": 781,
      "##ằng": 782,
      "##ơng": 783,
      "##ức": 784,
      "chất": 785,
      "##ồn": 786,
      "giờ": 787,
      "##phone": 788,
      "ứng_dụng": 789,
      "bình": 790,
      "mạng": 791,
      "đáng": 792,
      "##ặc": 793,
      "##_s": 794,
      "fac": 795,
      "##ngh": 796,
      "chán": 797,
      "ngo": 798,
      "##iệu": 799,
      "thế": 800,
      "đầy": 801,
      "##ững": 802,
      "nếu": 803,
      "##eo": 804,
      "đó": 805,
      "iphone": 806,
      "##uồn": 807,
      "chi": 808,
      "những": 809,
      "##iểu": 810,
      "cập": 811,
      "tí": 812,
      "phục": 813,
      "do": 814,
      "##àn": 815,
      "cực": 816,
      "cứ": 817,
      "dòng": 818,
      "đánh_": 819,
      "mong": 820,
      "độ": 821,
      "trên": 822,
      "mạnh": 823,
      "đánh_giá": 824,
      "màu": 825,
      "opp": 826,
      "mượt_m": 827,
      "ngoài": 828,
      "mượt_mà": 829,
      "bằng": 830,
      "##_nhật": 831,
      "oppo": 832,
      "##_thường": 833,
      "##uốn": 834,
      "##mi": 835,
      "chất_lượng": 836,
      "rõ": 837,
      "phục_vụ": 838,
      "##ook": 839,
      "##ặng": 840,
      "##iêu": 841,
      "cập_nhật": 842,
      "muốn": 843,
      "##inh": 844,
      "##át": 845,
      "đồ": 846,
      "##ối": 847,
      "##ebook": 848,
      "##ầu": 849,
      "tại": 850,
      "##ản": 851,
      "cầm": 852,
      "facebook": 853,
      "##ro": 854,
      "mỗi": 855,
      "##_gi": 856,
      "phẩm": 857,
      "##uyên": 858,
      "nha": 859,
      "nhì": 860,
      "re": 861,
      "##ực_": 862,
      "yo": 863,
      "##kh": 864,
      "nhận": 865,
      "cảm_th": 866,
      "##_cả": 867,
      "cảm_thấy": 868,
      "##_n": 869,
      "sản": 870,
      "tới": 871,
      "##ống": 872,
      "tuột": 873,
      "##i_động": 874,
      "##ương": 875,
      "yout": 876,
      "bật": 877,
      "hã": 878,
      "sang": 879,
      "##ính": 880,
      "bình_thường": 881,
      "dễ": 882,
      "nhỏ": 883,
      "##t_n": 884,
      "##ube": 885,
      "lư": 886,
      "hôm": 887,
      "##ăm": 888,
      "bao": 889,
      "mức": 890,
      "##_hành": 891,
      "thua": 892,
      "nhẹ": 893,
      "giả": 894,
      "##ubg": 895,
      "##n_định": 896,
      "note": 897,
      "ổn_định": 898,
      "##et": 899,
      "điện": 900,
      "youtube": 901,
      "khỏi": 902,
      "thêm": 903,
      "##_thể": 904,
      "chip": 905,
      "##ọn": 906,
      "dù": 907,
      "đâu": 908,
      "trung": 909,
      "hỏi": 910,
      "##ar": 911,
      "nhìn": 912,
      "nhạc": 913,
      "khó": 914,
      "##nghiệm": 915,
      "##qua": 916,
      "thoại": 917,
      "siêu": 918,
      "##ái": 919,
      "##úng": 920,
      "khoảng": 921,
      "hôm_": 922,
      "##biến": 923,
      "nguồn": 924,
      "##iv": 925,
      "thật": 926,
      "cảm_biến": 927,
      "##i_nghiệm": 928,
      "trải_nghiệm": 929,
      "pubg": 930,
      "##ận_": 931,
      "##t_s": 932,
      "đủ": 933,
      "phim": 934,
      "11": 935,
      "bên": 936,
      "đêm": 937,
      "##le": 938,
      "tất": 939,
      "##es": 940,
      "thờ": 941,
      "##uống": 942,
      "##ấm": 943,
      "tho": 944,
      "hãng": 945,
      "##ấu": 946,
      "mặt": 947,
      "vid": 948,
      "nhé": 949,
      "##lu": 950,
      "##000": 951,
      "tuyệt": 952,
      "viên": 953,
      "ít": 954,
      "##_độ": 955,
      "video": 956,
      "vài": 957,
      "##ng_h": 958,
      "tối": 959,
      "năm": 960,
      "rẻ": 961,
      "##i_h": 962,
      "đây": 963,
      "##âm": 964,
      "xuống": 965,
      "bảo_hành": 966,
      "100": 967,
      "điều": 968,
      "##ịu": 969,
      "nhân": 970,
      "##alo": 971,
      "mi": 972,
      "xi": 973,
      "khoẻ": 974,
      "lấy": 975,
      "##ắc_": 976,
      "nhận_": 977,
      "co": 978,
      "##ửa": 979,
      "màn": 980,
      "thời_": 981,
      "nay": 982,
      "zalo": 983,
      "kế": 984,
      "điểm": 985,
      "##mar": 986,
      "mờ": 987,
      "##ảnh": 988,
      "hiệu_": 989,
      "cần": 990,
      "việ": 991,
      "bỏ": 992,
      "dụng": 993,
      "##ui": 994,
      "##ọc": 995,
      "##_lại": 996,
      "12": 997,
      "đúng": 998,
      "bản": 999,
      "30": 1000,
      "mặc": 1001,
      "vô": 1002,
      "cách": 1003,
      "web": 1004,
      "##aomi": 1005,
      "xong": 1006,
      "##ừng": 1007,
      "##gian": 1008,
      "lớ": 1009,
      "lưng": 1010,
      "tất_cả": 1011,
      "thời_gian": 1012,
      "ủng_h": 1013,
      "##ội": 1014,
      "chắc": 1015,
      "ủng_hộ": 1016,
      "quay": 1017,
      "##mart": 1018,
      "xấu": 1019,
      "##_dù": 1020,
      "hiệu_năng": 1021,
      "##_ph": 1022,
      "phần": 1023,
      "##_hợp": 1024,
      "theo": 1025,
      "ki": 1026,
      "ram": 1027,
      "thậ": 1028,
      "phầ": 1029,
      "liên_t": 1030,
      "báo": 1031,
      "hợp": 1032,
      "nặng": 1033,
      "pro": 1034,
      "tác": 1035,
      "tai": 1036,
      "xiaomi": 1037,
      "liên_tục": 1038,
      "##re": 1039,
      "##ền": 1040,
      "chu": 1041,
      "số": 1042,
      "đa": 1043,
      "##_hàng": 1044,
      "##_nhiên": 1045,
      "bán": 1046,
      "gh": 1047,
      "hỗ": 1048,
      "triệu": 1049,
      "chế": 1050,
      "mặc_dù": 1051,
      "##_điều": 1052,
      "lớn": 1053,
      "##ợi": 1054,
      "thử": 1055,
      "kiểu": 1056,
      "ưng": 1057,
      "##ắn": 1058,
      "thường": 1059,
      "##_lâu": 1060,
      "khoá": 1061,
      "an": 1062,
      "cùng": 1063,
      "hao": 1064,
      "##u_đ": 1065,
      "##nhận": 1066,
      "cảm_nhận": 1067,
      "chiến": 1068,
      "##i_v": 1069,
      "##_trợ": 1070,
      "hỗ_trợ": 1071,
      "tình": 1072,
      "##ãi": 1073,
      "khuô": 1074,
      "##n_mặt": 1075,
      "khuôn_mặt": 1076,
      "anh": 1077,
      "sắc": 1078,
      "phí": 1079,
      "quảng": 1080,
      "cài": 1081,
      "##me": 1082,
      "##t_sự": 1083,
      "thật_sự": 1084,
      "##ạng": 1085,
      "đồng": 1086,
      "50": 1087,
      "vs": 1088,
      "##ỉnh": 1089,
      "nhà": 1090,
      "khuyên": 1091,
      "trừ": 1092,
      "gb": 1093,
      "mau": 1094,
      "hiện_t": 1095,
      "tác_vụ": 1096,
      "##i_l": 1097,
      "lâu_lâu": 1098,
      "##_ảnh": 1099,
      "##ềm": 1100,
      "bấm": 1101,
      "sim": 1102,
      "max": 1103,
      "cực_": 1104,
      "dung": 1105,
      "ngay": 1106,
      "như_v": 1107,
      "##_cáo": 1108,
      "cực_k": 1109,
      "xanh": 1110,
      "##u_c": 1111,
      "hôm_qua": 1112,
      "chế_độ": 1113,
      "quảng_cáo": 1114,
      "viv": 1115,
      "đem": 1116,
      "##90": 1117,
      "khở": 1118,
      "##uất": 1119,
      "##phục": 1120,
      "giảm": 1121,
      "như_vậy": 1122,
      "##ạt": 1123,
      "có_thể": 1124,
      "vivo": 1125,
      "thông": 1126,
      "##t_đ": 1127,
      "nhận_d": 1128,
      "vsmart": 1129,
      "hiểu": 1130,
      "khắc_": 1131,
      "##u_cầu": 1132,
      "khắc_phục": 1133,
      "âm_th": 1134,
      "##_k": 1135,
      "##êu": 1136,
      "âm_thanh": 1137,
      "15": 1138,
      "đừng": 1139,
      "##ựa": 1140,
      "đứng": 1141,
      "chiế": 1142,
      "hoặc": 1143,
      "##_giờ": 1144,
      "##lus": 1145,
      "ốp": 1146,
      "##ll": 1147,
      "phù": 1148,
      "##n_mềm": 1149,
      "phần_mềm": 1150,
      "ba": 1151,
      "plus": 1152,
      "##uộ": 1153,
      "##ấn_đ": 1154,
      "and": 1155,
      "khởi_động": 1156,
      "vấn_đ": 1157,
      "xo": 1158,
      "##_ý": 1159,
      "chuy": 1160,
      "vấn_đề": 1161,
      "chí": 1162,
      "##n_b": 1163,
      "bin": 1164,
      "đặ": 1165,
      "##óc": 1166,
      "##ản_": 1167,
      "##_tiền": 1168,
      "có_điều": 1169,
      "##t_nối": 1170,
      "kết_nối": 1171,
      "di_động": 1172,
      "chung": 1173,
      "mo": 1174,
      "##ảy": 1175,
      "thi": 1176,
      "chút": 1177,
      "bàn": 1178,
      "##biệt": 1179,
      "nhu_cầu": 1180,
      "##_lý": 1181,
      "##ps": 1182,
      "nhận_diện": 1183,
      "phù_hợp": 1184,
      "##i_m": 1185,
      "khách": 1186,
      "hd": 1187,
      "hình_ảnh": 1188,
      "##c_biệt": 1189,
      "##ủng": 1190,
      "##ân_th": 1191,
      "thấp": 1192,
      "chiếc": 1193,
      "mang": 1194,
      "##_kh": 1195,
      "tiếc": 1196,
      "thế_gi": 1197,
      "tải": 1198,
      "##_nào": 1199,
      "##t_nam": 1200,
      "việt_nam": 1201,
      "thế_giới": 1202,
      "##_x": 1203,
      "hố": 1204,
      "phân": 1205,
      "##ướng": 1206,
      "##ỏng": 1207,
      "##_chịu": 1208,
      "đò": 1209,
      "chọn": 1210,
      "khúc": 1211,
      "##_là": 1212,
      "red": 1213,
      "hai": 1214,
      "liên": 1215,
      "##ạch": 1216,
      "cơ": 1217,
      "fi": 1218,
      "##n_n": 1219,
      "khó_chịu": 1220,
      "70": 1221,
      "công": 1222,
      "fu": 1223,
      "tặng": 1224,
      "vu": 1225,
      "chu_đ": 1226,
      "chu_đáo": 1227,
      "bộ": 1228,
      "dư": 1229,
      "tui": 1230,
      "##_nhận": 1231,
      "##c_năng": 1232,
      "chức_năng": 1233,
      "tính_": 1234,
      "đặc_biệt": 1235,
      "cuộ": 1236,
      "goo": 1237,
      "tin": 1238,
      "##ánh": 1239,
      "tính_năng": 1240,
      "app": 1241,
      "rè": 1242,
      "##ển": 1243,
      "##i_hận": 1244,
      "hối_hận": 1245,
      "bền": 1246,
      "##úi": 1247,
      "fps": 1248,
      "tes": 1249,
      "đọc": 1250,
      "##ing": 1251,
      "cảm_ơn": 1252,
      "tuy_nhiên": 1253,
      "chấp": 1254,
      "màng": 1255,
      "phút": 1256,
      "quân": 1257,
      "cảm": 1258,
      "##_ho": 1259,
      "##_trọng": 1260,
      "redmi": 1261,
      "mn": 1262,
      "đen": 1263,
      "chính": 1264,
      "##giác": 1265,
      "cảm_giác": 1266,
      "việt": 1267,
      "##íu": 1268,
      "##roid": 1269,
      "##ởng": 1270,
      "nhảy": 1271,
      "làm_": 1272,
      "tương": 1273,
      "full": 1274,
      "xa": 1275,
      "##os": 1276,
      "##_tội": 1277,
      "thoả": 1278,
      "cực_kì": 1279,
      "5000": 1280,
      "dán": 1281,
      "bà": 1282,
      "hồi": 1283,
      "hiện": 1284,
      "xứng": 1285,
      "##oảng": 1286,
      "##20": 1287,
      "##_tra": 1288,
      "##iêng": 1289,
      "android": 1290,
      "sự": 1291,
      "giống": 1292,
      "sai": 1293,
      "##_động": 1294,
      "##_trạng": 1295,
      "##i_vẻ": 1296,
      "vui_vẻ": 1297,
      "dưới": 1298,
      "51": 1299,
      "bất": 1300,
      "ti": 1301,
      "ảo": 1302,
      "##mx": 1303,
      "##_thoảng": 1304,
      "tiếp": 1305,
      "cuộc_": 1306,
      "##_ngh": 1307,
      "thu": 1308,
      "##_cấp": 1309,
      "real": 1310,
      "sang_trọng": 1311,
      "coi": 1312,
      "tình_trạng": 1313,
      "xoá": 1314,
      "test": 1315,
      "buồn": 1316,
      "êm": 1317,
      "##gọi": 1318,
      "##er": 1319,
      "##ẳng": 1320,
      "##ịch": 1321,
      "nghĩ": 1322,
      "hiện_tượng": 1323,
      "chấp_nhận": 1324,
      "cửa": 1325,
      "hiể": 1326,
      "##th": 1327,
      "##ẩn": 1328,
      "giao": 1329,
      "cuộc_gọi": 1330,
      "bây": 1331,
      "thay": 1332,
      "chả": 1333,
      "##_nhiệm": 1334,
      "hoà": 1335,
      "mỗi_tội": 1336,
      "dung_lượng": 1337,
      "chuyển": 1338,
      "realme": 1339,
      "kính": 1340,
      "mes": 1341,
      "đô": 1342,
      "##ắng": 1343,
      "##_định": 1344,
      "##_mà": 1345,
      "##_bản": 1346,
      "cơ_bản": 1347,
      "##ia": 1348,
      "##ớt": 1349,
      "mah": 1350,
      "##i_hỏi": 1351,
      "chíp": 1352,
      "khách_hàng": 1353,
      "đòi_hỏi": 1354,
      "##_tiên": 1355,
      "loạn": 1356,
      "đa_nhiệm": 1357,
      "##i_mái": 1358,
      "thoải_mái": 1359,
      "mộ": 1360,
      "mp": 1361,
      "tậ": 1362,
      "viền": 1363,
      "##nay": 1364,
      "##ặp": 1365,
      "thân_th": 1366,
      "chờ": 1367,
      "nút": 1368,
      "xíu": 1369,
      "##ạo": 1370,
      "##n_thị": 1371,
      "tự_động": 1372,
      "kêu": 1373,
      "##ắp": 1374,
      "ad": 1375,
      "li": 1376,
      "may": 1377,
      "nổi": 1378,
      "riêng": 1379,
      "ấm": 1380,
      "##óp": 1381,
      "chỗ": 1382,
      "điện_m": 1383,
      "phím": 1384,
      "hiển_thị": 1385,
      "điện_máy": 1386,
      "anh_": 1387,
      "định": 1388,
      "##ap": 1389,
      "##úp": 1390,
      "##ảo": 1391,
      "chạm": 1392,
      "##n_tr": 1393,
      "đầu_tiên": 1394,
      "kinh_": 1395,
      "4000": 1396,
      "##óm": 1397,
      "##sắc": 1398,
      "##n_tâm": 1399,
      "toàn": 1400,
      "hôm_nay": 1401,
      "túi": 1402,
      "ăn": 1403,
      "##kia": 1404,
      "chịu": 1405,
      "##n_l": 1406,
      "##_thương": 1407,
      "nhất_là": 1408,
      "dễ_thương": 1409,
      "gặp": 1410,
      "on": 1411,
      "xin": 1412,
      "##ăn": 1413,
      "##min": 1414,
      "##xy": 1415,
      "##ùi": 1416,
      "chiều": 1417,
      "nhỉ": 1418,
      "cửa_hàng": 1419,
      "hộ": 1420,
      "##tt": 1421,
      "##ách": 1422,
      "##el": 1423,
      "thỉnh": 1424,
      "phát": 1425,
      "##uốt": 1426,
      "kia": 1427,
      "##i_lầm": 1428,
      "xuất": 1429,
      "##_r": 1430,
      "màu_": 1431,
      "##_như": 1432,
      "hợp_lý": 1433,
      "bác": 1434,
      "âm": 1435,
      "thể": 1436,
      "##_bình": 1437,
      "bây_giờ": 1438,
      "admin": 1439,
      "màu_sắc": 1440,
      "cục": 1441,
      "chị": 1442,
      "nhựa": 1443,
      "cải": 1444,
      "##n_phí": 1445,
      "##_đáng": 1446,
      "##nh_s": 1447,
      "mess": 1448,
      "thân_thiện": 1449,
      "kiểm": 1450,
      "nửa": 1451,
      "tóm": 1452,
      "##ho": 1453,
      "##ie": 1454,
      "##ổng": 1455,
      "##xét": 1456,
      "thương": 1457,
      "chữ": 1458,
      "60": 1459,
      "hệ": 1460,
      "rung": 1461,
      "đấy": 1462,
      "##nap": 1463,
      "##we": 1464,
      "##ầy": 1465,
      "ngoại": 1466,
      "giúp": 1467,
      "tối_": 1468,
      "thiếu": 1469,
      "##eno": 1470,
      "việc": 1471,
      "ưng_ý": 1472,
      "kiểm_tra": 1473,
      "phụ": 1474,
      "##_điểm": 1475,
      "##ooth": 1476,
      "face": 1477,
      "##khủng": 1478,
      "goog": 1479,
      "xứng_đáng": 1480,
      "kinh_khủng": 1481,
      "##_ng": 1482,
      "##kk": 1483,
      "thao": 1484,
      "chỉnh": 1485,
      "nokia": 1486,
      "trung_bình": 1487,
      "##ive": 1488,
      "đồng_tiền": 1489,
      "bàn_phí": 1490,
      "google": 1491,
      "bàn_phím": 1492,
      "xạc": 1493,
      "##ửi": 1494,
      "##âng": 1495,
      "khuy": 1496,
      "##_tác": 1497,
      "sai_lầm": 1498,
      "201": 1499,
      "##_hoạ": 1500,
      "71": 1501,
      "gọn": 1502,
      "hua": 1503,
      "sung": 1504,
      "thá": 1505,
      "thực_": 1506,
      "chẳng": 1507,
      "trang": 1508,
      "treo": 1509,
      "không_thể": 1510,
      "phản_": 1511,
      "##_nhớ": 1512,
      "đồ_hoạ": 1513,
      "ban_đ": 1514,
      "bộ_nhớ": 1515,
      "tận_t": 1516,
      "##wei": 1517,
      "13": 1518,
      "bù": 1519,
      "càng": 1520,
      "góc": 1521,
      "gửi": 1522,
      "nước": 1523,
      "##at": 1524,
      "##_g": 1525,
      "##èm": 1526,
      "##_thế": 1527,
      "##_đợi": 1528,
      "loại": 1529,
      "đánh": 1530,
      "##_sao": 1531,
      "thế_nào": 1532,
      "thỉnh_thoảng": 1533,
      "nt": 1534,
      "set": 1535,
      "snap": 1536,
      "##ệt": 1537,
      "##sự": 1538,
      "##n_ch": 1539,
      "vàng": 1540,
      "##luet": 1541,
      "thực_sự": 1542,
      "tận_tình": 1543,
      "45": 1544,
      "bluet": 1545,
      "cắm": 1546,
      "rộng": 1547,
      "xử": 1548,
      "đợi": 1549,
      "##át_": 1550,
      "##ớm": 1551,
      "##bi": 1552,
      "nhược": 1553,
      "trận": 1554,
      "thoát": 1555,
      "tương_đ": 1556,
      "cân_": 1557,
      "jo": 1558,
      "mẫ": 1559,
      "up": 1560,
      "##ám": 1561,
      "##_đặt": 1562,
      "thao_tác": 1563,
      "huawei": 1564,
      "hư": 1565,
      "##ạnh": 1566,
      "##ẳn": 1567,
      "##n_c": 1568,
      "trắng": 1569,
      "##_lu": 1570,
      "##_dài": 1571,
      "tự_nhiên": 1572,
      "mong_đợi": 1573,
      "##ree": 1574,
      "cài_đặt": 1575,
      "##_khi": 1576,
      "bt": 1577,
      "duy": 1578,
      "hẳn": 1579,
      "kèm": 1580,
      "mắt": 1581,
      "mỏng": 1582,
      "yê": 1583,
      "##uo": 1584,
      "##ưởng": 1585,
      "chập": 1586,
      "chống": 1587,
      "##ượt": 1588,
      "##iệc": 1589,
      "có_khi": 1590,
      "##_việc": 1591,
      "##_trí": 1592,
      "hoạ": 1593,
      "tại_sao": 1594,
      "nhược_điểm": 1595,
      "16": 1596,
      "40": 1597,
      "90": 1598,
      "dự": 1599,
      "minh": 1600,
      "nâng": 1601,
      "ấy": 1602,
      "##nhắc": 1603,
      "trở": 1604,
      "như_thế": 1605,
      "phông": 1606,
      "tính": 1607,
      "hiện_tại": 1608,
      "bluetooth": 1609,
      "cân_nhắc": 1610,
      "bi": 1611,
      "bắ": 1612,
      "free": 1613,
      "kỹ": 1614,
      "lồi": 1615,
      "reno": 1616,
      "sướng": 1617,
      "sớm": 1618,
      "tiệ": 1619,
      "ông": 1620,
      "##ting": 1621,
      "choi": 1622,
      "##_xuyên": 1623,
      "tóm_lại": 1624,
      "khuyế": 1625,
      "cal": 1626,
      "ip": 1627,
      "lựa": 1628,
      "sợ": 1629,
      "vạch": 1630,
      "we": 1631,
      "ấn": 1632,
      "##axy": 1633,
      "##_ra": 1634,
      "giới": 1635,
      "##_hiệu": 1636,
      "bao_giờ": 1637,
      "nhận_xét": 1638,
      "chuẩn": 1639,
      "ghê": 1640,
      "thường_xuyên": 1641,
      "bé": 1642,
      "gal": 1643,
      "hề": 1644,
      "nản": 1645,
      "đặt": 1646,
      "##p_": 1647,
      "##ưng": 1648,
      "trc": 1649,
      "sửa": 1650,
      "call": 1651,
      "kg": 1652,
      "lắc": 1653,
      "ta": 1654,
      "tì": 1655,
      "##uổi": 1656,
      "##ện": 1657,
      "##eng": 1658,
      "##sao": 1659,
      "thời": 1660,
      "chủ": 1661,
      "nho": 1662,
      "ngang": 1663,
      "giải": 1664,
      "phê": 1665,
      "##giải": 1666,
      "##ân_giải": 1667,
      "từng": 1668,
      "##_chờ": 1669,
      "miui": 1670,
      "##t_động": 1671,
      "túi_tiền": 1672,
      "##bile": 1673,
      "joy": 1674,
      "hoạt_động": 1675,
      "galaxy": 1676,
      "48": 1677,
      "dài": 1678,
      "họ": 1679,
      "ro": 1680,
      "đối": 1681,
      "nhớ": 1682,
      "##n_h": 1683,
      "tốc": 1684,
      "tiết_k": 1685,
      "lưu": 1686,
      "làm_sao": 1687,
      "thương_hiệu": 1688,
      "tiết_kiệm": 1689,
      "64": 1690,
      "hi": 1691,
      "hướng": 1692,
      "lỗ": 1693,
      "sho": 1694,
      "văng": 1695,
      "##hồi": 1696,
      "thui": 1697,
      "nhắn": 1698,
      "##u_m": 1699,
      "##_mắt": 1700,
      "##_số": 1701,
      "setting": 1702,
      "18": 1703,
      "32": 1704,
      "cường": 1705,
      "dk": 1706,
      "dịch": 1707,
      "ios": 1708,
      "lời": 1709,
      "vọng": 1710,
      "đmx": 1711,
      "##_y": 1712,
      "##ưỡ": 1713,
      "khủng": 1714,
      "##ine": 1715,
      "tốn": 1716,
      "quy": 1717,
      "##i_kh": 1718,
      "nhưng_mà": 1719,
      "tuỳ": 1720,
      "##_cùng": 1721,
      "2020": 1722,
      "vô_cùng": 1723,
      "##n_bản": 1724,
      "phản_hồi": 1725,
      "chập_chờ": 1726,
      "chập_chờn": 1727,
      "bực_": 1728,
      "rưỡ": 1729,
      "tâm": 1730,
      "vi": 1731,
      "##ứt": 1732,
      "##xuất": 1733,
      "##ắn_t": 1734,
      "chs": 1735,
      "nhắn_t": 1736,
      "giá_cả": 1737,
      "##_bò": 1738,
      "##_chọn": 1739,
      "cực_kỳ": 1740,
      "hộp": 1741,
      "tương_đối": 1742,
      "lựa_chọn": 1743,
      "tốc_độ": 1744,
      "rưỡi": 1745,
      "nhắn_tin": 1746,
      "19": 1747,
      "mát": 1748,
      "mãi": 1749,
      "tận": 1750,
      "yêu": 1751,
      "ý_định": 1752,
      "##up": 1753,
      "thị": 1754,
      "##_tay": 1755,
      "##_lí": 1756,
      "##_lực": 1757,
      "##_diện": 1758,
      "củng": 1759,
      "tối_ư": 1760,
      "nhoè": 1761,
      "shop": 1762,
      "rớt": 1763,
      "vin": 1764,
      "xe": 1765,
      "đỉnh": 1766,
      "##hi": 1767,
      "##ịn": 1768,
      "##_thu": 1769,
      "trâu_bò": 1770,
      "lâu_dài": 1771,
      "hoài": 1772,
      "độ_ph": 1773,
      "nhau": 1774,
      "giảm_": 1775,
      "mic": 1776,
      "chuông": 1777,
      "đôi_kh": 1778,
      "anh_em": 1779,
      "onl": 1780,
      "đôi_khi": 1781,
      "cùi": 1782,
      "lung": 1783,
      "sống": 1784,
      "vỡ": 1785,
      "##zz": 1786,
      "##ốc": 1787,
      "thẻ": 1788,
      "trầy": 1789,
      "hoi": 1790,
      "lite": 1791,
      "độ_phân_giải": 1792,
      "giảm_giá": 1793,
      "000": 1794,
      "dmx": 1795,
      "hơ": 1796,
      "đè": 1797,
      "nguyên": 1798,
      "##_dáng": 1799,
      "##_thiện": 1800,
      "##i_độ": 1801,
      "ngoài_ra": 1802,
      "mik": 1803,
      "mobile": 1804,
      "cải_thiện": 1805,
      "thái_độ": 1806,
      "cường_lực": 1807,
      "14": 1808,
      "kĩ": 1809,
      "đk": 1810,
      "ưu_đ": 1811,
      "##mình": 1812,
      "##_vẻ": 1813,
      "với_lại": 1814,
      "đáp_": 1815,
      "##_mật": 1816,
      "bảo_mật": 1817,
      "128": 1818,
      "##_kiến": 1819,
      "##_góp": 1820,
      "yên_tâm": 1821,
      "đáp_ứng": 1822,
      "990": 1823,
      "fan": 1824,
      "in": 1825,
      "kết": 1826,
      "mẹ": 1827,
      "ám": 1828,
      "##as": 1829,
      "##_giá": 1830,
      "##_qua": 1831,
      "##ít": 1832,
      "##ồng": 1833,
      "thực": 1834,
      "trợ": 1835,
      "phà": 1836,
      "có_vẻ": 1837,
      "##iếng": 1838,
      "##_thiệu": 1839,
      "##_báo": 1840,
      "##_sắc": 1841,
      "##_sánh": 1842,
      "quay_ph": 1843,
      "thông_báo": 1844,
      "giao_diện": 1845,
      "ban_đầu": 1846,
      "4500": 1847,
      "nâng_cấp": 1848,
      "giới_thiệu": 1849,
      "quay_phim": 1850,
      "rơi": 1851,
      "vn": 1852,
      "wa": 1853,
      "đắt": 1854,
      "đập": 1855,
      "##au": 1856,
      "##ate": 1857,
      "##ón": 1858,
      "##ok": 1859,
      "##_tung": 1860,
      "gia": 1861,
      "phiê": 1862,
      "##uyện": 1863,
      "##_trời": 1864,
      "tưởng": 1865,
      "thế_n": 1866,
      "nhìn_ch": 1867,
      "##_kiện": 1868,
      "xử_lý": 1869,
      "chủ_y": 1870,
      "phiên_bản": 1871,
      "thế_này": 1872,
      "nhìn_chung": 1873,
      "chủ_yếu": 1874,
      "di": 1875,
      "dành": 1876,
      "hz": 1877,
      "lu": 1878,
      "sel": 1879,
      "vo": 1880,
      "vui": 1881,
      "ý_kiến": 1882,
      "##áp": 1883,
      "##ât": 1884,
      "##set": 1885,
      "nhập": 1886,
      "ngầm": 1887,
      "sac": 1888,
      "nghiệm": 1889,
      "##c_ch": 1890,
      "upd": 1891,
      "bực_mình": 1892,
      "selfi": 1893,
      "24": 1894,
      "25": 1895,
      "cuố": 1896,
      "hạ": 1897,
      "kể": 1898,
      "lượng": 1899,
      "vuốt": 1900,
      "đường": 1901,
      "ơi": 1902,
      "##lay": 1903,
      "##ói": 1904,
      "##quố": 1905,
      "thanh": 1906,
      "quả": 1907,
      "quần": 1908,
      "##_thành": 1909,
      "##_hiện": 1910,
      "khoản": 1911,
      "trả_góp": 1912,
      "hãy": 1913,
      "##t_số": 1914,
      "##i_lúc": 1915,
      "good": 1916,
      "đôi_lúc": 1917,
      "một_số": 1918,
      "tối_ưu": 1919,
      "ưu_điểm": 1920,
      "##quốc": 1921,
      "hở": 1922,
      "sụt": 1923,
      "sập": 1924,
      "wf": 1925,
      "đời": 1926,
      "động": 1927,
      "##mo": 1928,
      "##ên_": 1929,
      "khả": 1930,
      "##_dẫn": 1931,
      "##u_nh": 1932,
      "##_trừ": 1933,
      "cấu": 1934,
      "ngon_l": 1935,
      "##_điều_hành": 1936,
      "moi": 1937,
      "fire": 1938,
      "##_nghệ": 1939,
      "ntn": 1940,
      "wed": 1941,
      "tìm": 1942,
      "##enger": 1943,
      "dịch_vụ": 1944,
      "update": 1945,
      "ngon_lành": 1946,
      "ac": 1947,
      "bổ": 1948,
      "bực": 1949,
      "dở": 1950,
      "lác": 1951,
      "live": 1952,
      "nền": 1953,
      "vời": 1954,
      "vãi": 1955,
      "ánh_s": 1956,
      "đố": 1957,
      "ức_ch": 1958,
      "##ug": 1959,
      "##ợt": 1960,
      "##ựng": 1961,
      "thành": 1962,
      "chai": 1963,
      "nhấn": 1964,
      "load": 1965,
      "not": 1966,
      "công_nghệ": 1967,
      "hoàn_h": 1968,
      "hệ_điều_hành": 1969,
      "mẫu_m": 1970,
      "##_luận": 1971,
      "giải_trí": 1972,
      "lung_tung": 1973,
      "ánh_sáng": 1974,
      "ức_chế": 1975,
      "hoàn_hảo": 1976,
      "mẫu_mã": 1977,
      "66": 1978,
      "80": 1979,
      "bố": 1980,
      "biến": 1981,
      "hk": 1982,
      "tăng": 1983,
      "tổng": 1984,
      "vụ": 1985,
      "xịn": 1986,
      "##_quốc": 1987,
      "##ee": 1988,
      "##ịp": 1989,
      "che": 1990,
      "chân_th": 1991,
      "##_tiện": 1992,
      "##chị": 1993,
      "##iển": 1994,
      "xem_lại": 1995,
      "##ime": 1996,
      "bình_luận": 1997,
      "##roi": 1998,
      "kiểu_dáng": 1999,
      "##n_nữa": 2000,
      "một_": 2001,
      "anh_chị": 2002,
      "2019": 2003,
      "online": 2004,
      "hơn_nữa": 2005,
      "selfie": 2006,
      "buổi": 2007,
      "dữ": 2008,
      "hỏng": 2009,
      "miếng": 2010,
      "ns": 2011,
      "tý": 2012,
      "va": 2013,
      "đe": 2014,
      "##gạo": 2015,
      "##õi": 2016,
      "ngón": 2017,
      "##_tế": 2018,
      "##_tiề": 2019,
      "##_tính": 2020,
      "giữ": 2021,
      "##c_s": 2022,
      "cao_cấp": 2023,
      "##_sản_": 2024,
      "đồng_tiề": 2025,
      "nhà_sản_": 2026,
      "##n_bát_": 2027,
      "tin_t": 2028,
      "ngoại_trừ": 2029,
      "khuyến_m": 2030,
      "đồng_tiền_bát_": 2031,
      "nhà_sản_xuất": 2032,
      "đồng_tiền_bát_gạo": 2033,
      "500": 2034,
      "bl": 2035,
      "cụ": 2036,
      "cạnh": 2037,
      "gái": 2038,
      "of": 2039,
      "out": 2040,
      "rút": 2041,
      "sinh": 2042,
      "sạt": 2043,
      "tiết": 2044,
      "xước": 2045,
      "##ii": 2046,
      "##ùm": 2047,
      "##ốt": 2048,
      "##quy": 2049,
      "chă": 2050,
      "chấm": 2051,
      "chắc_": 2052,
      "nhung": 2053,
      "khu": 2054,
      "giây": 2055,
      "##chắn": 2056,
      "giá_như": 2057,
      "##_liệu": 2058,
      "##_thời": 2059,
      "##u_h": 2060,
      "##_càng": 2061,
      "##oom": 2062,
      "rõ_r": 2063,
      "reset": 2064,
      "apple": 2065,
      "##n_trọng": 2066,
      "##tttt": 2067,
      "xuất_sắc": 2068,
      "như_thế_nào": 2069,
      "##_thuật": 2070,
      "đèn": 2071,
      "chắc_chắn": 2072,
      "35": 2073,
      "720": 2074,
      "91": 2075,
      "99": 2076,
      "bữa": 2077,
      "bóng": 2078,
      "lý": 2079,
      "lổi": 2080,
      "nam": 2081,
      "##ag": 2082,
      "nhạt": 2083,
      "khựng": 2084,
      "##n_d": 2085,
      "##m_s": 2086,
      "thích_hợp": 2087,
      "##led": 2088,
      "androi": 2089,
      "##ản_l": 2090,
      "công_việc": 2091,
      "bất_tiện": 2092,
      "messenger": 2093,
      "khuyến_mãi": 2094,
      "fl": 2095,
      "lòng": 2096,
      "nữ": 2097,
      "suy": 2098,
      "tg": 2099,
      "xinh": 2100,
      "##ùa": 2101,
      "khung": 2102,
      "ngắt": 2103,
      "nguy": 2104,
      "##_tiết": 2105,
      "nhưg": 2106,
      "phả": 2107,
      "quản_l": 2108,
      "##i_âm": 2109,
      "##t_nh": 2110,
      "chục": 2111,
      "##_hưởng": 2112,
      "##_trình": 2113,
      "kép": 2114,
      "noi": 2115,
      "giải_": 2116,
      "trung_quốc": 2117,
      "hợp_lí": 2118,
      "thông_số": 2119,
      "thi_thoảng": 2120,
      "##_nghĩ": 2121,
      "âm_lượng": 2122,
      "##u_như": 2123,
      "85": 2124,
      "câu": 2125,
      "dày": 2126,
      "hy": 2127,
      "kinh": 2128,
      "rùi": 2129,
      "đưa": 2130,
      "đợt": 2131,
      "##_hình": 2132,
      "##_năng": 2133,
      "##gon": 2134,
      "##dra": 2135,
      "##ết_đ": 2136,
      "nhi": 2137,
      "nhậy": 2138,
      "trưa": 2139,
      "quà": 2140,
      "quen": 2141,
      "##t_h": 2142,
      "##_do": 2143,
      "hình_như": 2144,
      "##_nhân": 2145,
      "##n_thiện": 2146,
      "##_cái": 2147,
      "ảnh_hưởng": 2148,
      "chi_tiết": 2149,
      "ghi_âm": 2150,
      "##i_với": 2151,
      "hoàn_thiện": 2152,
      "quyết_đ": 2153,
      "đối_với": 2154,
      "##dragon": 2155,
      "quyết_định": 2156,
      "98": 2157,
      "ak": 2158,
      "hu": 2159,
      "nổ": 2160,
      "nắm": 2161,
      "năng": 2162,
      "pr": 2163,
      "se": 2164,
      "tết": 2165,
      "tiện": 2166,
      "vá": 2167,
      "vỏ": 2168,
      "##mẽ": 2169,
      "than": 2170,
      "máy_ảnh": 2171,
      "trời": 2172,
      "nge": 2173,
      "##_tục": 2174,
      "mà_c": 2175,
      "##chút": 2176,
      "##m_ch": 2177,
      "##_công": 2178,
      "##nh_mẽ": 2179,
      "mạnh_mẽ": 2180,
      "so_sánh": 2181,
      "làm_việc": 2182,
      "##_phòng": 2183,
      "##t_đầu": 2184,
      "fix": 2185,
      "##n_nàn": 2186,
      "phụ_kiện": 2187,
      "##uoc": 2188,
      "dự_phòng": 2189,
      "bắt_đầu": 2190,
      "phàn_nàn": 2191,
      "một_chút": 2192,
      "suy_nghĩ": 2193,
      "mà_còn": 2194,
      "21": 2195,
      "bài": 2196,
      "cm": 2197,
      "cung": 2198,
      "go": 2199,
      "kì": 2200,
      "lỡ": 2201,
      "tà": 2202,
      "tiề": 2203,
      "tấm": 2204,
      "đư": 2205,
      "đỡ": 2206,
      "đo": 2207,
      "đăng": 2208,
      "##ara": 2209,
      "chú": 2210,
      "chân": 2211,
      "khiến": 2212,
      "trải": 2213,
      "##_tí": 2214,
      "phát_": 2215,
      "##i_b": 2216,
      "##t_b": 2217,
      "đẹp_mắt": 2218,
      "##_nhất": 2219,
      "quan_trọng": 2220,
      "##tel": 2221,
      "com": 2222,
      "xoay": 2223,
      "đòi": 2224,
      "tiếp_tục": 2225,
      "ngoại_hình": 2226,
      "duy_nhất": 2227,
      "hướng_dẫn": 2228,
      "khả_năng": 2229,
      "##quyết": 2230,
      "chăm_s": 2231,
      "phát_h": 2232,
      "chăm_sóc": 2233,
      "amo": 2234,
      "bắn": 2235,
      "bắp": 2236,
      "cỡ": 2237,
      "cây": 2238,
      "dây": 2239,
      "dính": 2240,
      "hế": 2241,
      "play": 2242,
      "smart": 2243,
      "tùm": 2244,
      "vos": 2245,
      "đổ": 2246,
      "đeo": 2247,
      "##us": 2248,
      "##_ai": 2249,
      "##tra": 2250,
      "##òi": 2251,
      "##990": 2252,
      "chúng": 2253,
      "##iệp": 2254,
      "##_tin": 2255,
      "##iếm": 2256,
      "##_loại": 2257,
      "##_đầu": 2258,
      "##_nhiêu": 2259,
      "nói_chuyện": 2260,
      "##t_mắt": 2261,
      "những_ai": 2262,
      "ghi": 2263,
      "xuất_hiện": 2264,
      "##ieu": 2265,
      "snapdragon": 2266,
      "mẫu": 2267,
      "rom": 2268,
      "thị_tr": 2269,
      "kể_cả": 2270,
      "quản_lý": 2271,
      "31": 2272,
      "cố": 2273,
      "góp": 2274,
      "mã": 2275,
      "pi": 2276,
      "tt": 2277,
      "tên": 2278,
      "tức": 2279,
      "ul": 2280,
      "ơn": 2281,
      "##này": 2282,
      "##lo": 2283,
      "##ẹt": 2284,
      "##ụi": 2285,
      "##oàn": 2286,
      "##ởi": 2287,
      "##ằm": 2288,
      "chương": 2289,
      "khen": 2290,
      "được_cái": 2291,
      "##_túi": 2292,
      "sau_": 2293,
      "##_viên": 2294,
      "##_thống": 2295,
      "##_đủ": 2296,
      "##ân_vân": 2297,
      "ra_mắt": 2298,
      "##_trong": 2299,
      "hiệu": 2300,
      "đáng_giá": 2301,
      "đầy_đủ": 2302,
      "bao_nhiêu": 2303,
      "##quan": 2304,
      "chup": 2305,
      "ban_đêm": 2306,
      "bắt_mắt": 2307,
      "giải_quyết": 2308,
      "hy_vọng": 2309,
      "amoled": 2310,
      "sau_này": 2311,
      "cân": 2312,
      "dám": 2313,
      "gõ": 2314,
      "hành": 2315,
      "lí": 2316,
      "mh": 2317,
      "mj": 2318,
      "nế": 2319,
      "suốt": 2320,
      "vòng": 2321,
      "vặt": 2322,
      "vấn": 2323,
      "zoom": 2324,
      "ấn_t": 2325,
      "##tive": 2326,
      "##ấu_h": 2327,
      "##ss": 2328,
      "##ẩy": 2329,
      "##i_c": 2330,
      "##iếp": 2331,
      "cá_nhân": 2332,
      "mượn": 2333,
      "##_lẽ": 2334,
      "##_dưng": 2335,
      "ngày_càng": 2336,
      "##_đổi": 2337,
      "để_ý": 2338,
      "vậy_mà": 2339,
      "tự_dưng": 2340,
      "##_mới": 2341,
      "##ack": 2342,
      "kết_": 2343,
      "phần_c": 2344,
      "phía": 2345,
      "chính_s": 2346,
      "hệ_thống": 2347,
      "dữ_liệu": 2348,
      "rõ_ràng": 2349,
      "chương_trình": 2350,
      "ấn_tượng": 2351,
      "phần_cứng": 2352,
      "chính_sách": 2353,
      "cl": 2354,
      "gam": 2355,
      "gây": 2356,
      "học": 2357,
      "liền": 2358,
      "nơi": 2359,
      "qá": 2360,
      "rỗ": 2361,
      "tô": 2362,
      "vẻ": 2363,
      "đả": 2364,
      "đôi": 2365,
      "##ơc": 2366,
      "##èo": 2367,
      "##ãn": 2368,
      "##ks": 2369,
      "##ẻo": 2370,
      "##ọt": 2371,
      "##ữu": 2372,
      "châu": 2373,
      "nhờ": 2374,
      "nhật": 2375,
      "trò": 2376,
      "trướ": 2377,
      "trường": 2378,
      "phân_vân": 2379,
      "quét": 2380,
      "##i_ng": 2381,
      "giá_thành": 2382,
      "cũg": 2383,
      "##n_toàn": 2384,
      "rat": 2385,
      "lai": 2386,
      "camara": 2387,
      "##_chắc": 2388,
      "đáng_k": 2389,
      "cầm_chắc": 2390,
      "##uộc": 2391,
      "thay_đổi": 2392,
      "##n_lợi": 2393,
      "##iew": 2394,
      "##_lum": 2395,
      "cuối": 2396,
      "tin_tưởng": 2397,
      "phát_hiện": 2398,
      "đáng_kể": 2399,
      "bh": 2400,
      "dừng": 2401,
      "ff": 2402,
      "lạ": 2403,
      "me": 2404,
      "mướt": 2405,
      "nè": 2406,
      "st": 2407,
      "sẵ": 2408,
      "tam": 2409,
      "tồi": 2410,
      "vượt": 2411,
      "xác": 2412,
      "xảy": 2413,
      "đông": 2414,
      "##ip": 2415,
      "##ủa": 2416,
      "##be": 2417,
      "thà": 2418,
      "thiết": 2419,
      "khô": 2420,
      "##n_gi": 2421,
      "truy": 2422,
      "giữa": 2423,
      "##i_nh": 2424,
      "##_lời": 2425,
      "##_hơi": 2426,
      "##_nhàng": 2427,
      "cấp": 2428,
      "thiết_b": 2429,
      "home": 2430,
      "trả_lời": 2431,
      "##_bị": 2432,
      "nhah": 2433,
      "nhẹ_nhàng": 2434,
      "120": 2435,
      "chắc_tay": 2436,
      "##_phải": 2437,
      "thông_thường": 2438,
      "##n_nào": 2439,
      "trang_bị": 2440,
      "kỹ_thuật": 2441,
      "tiện_lợi": 2442,
      "hihi": 2443,
      "active": 2444,
      "tùm_lum": 2445,
      "ultra": 2446,
      "thiết_bị": 2447,
      "27": 2448,
      "3000": 2449,
      "76": 2450,
      "bám": 2451,
      "cong": 2452,
      "danh": 2453,
      "dấu_h": 2454,
      "exy": 2455,
      "ha": 2456,
      "hồ": 2457,
      "hầ": 2458,
      "hồng": 2459,
      "kích": 2460,
      "kịp": 2461,
      "lịch": 2462,
      "mục": 2463,
      "mỏi": 2464,
      "nc": 2465,
      "pup": 2466,
      "sở": 2467,
      "sắp": 2468,
      "tả": 2469,
      "tài": 2470,
      "vị": 2471,
      "vẩn": 2472,
      "xs": 2473,
      "xã": 2474,
      "##ớp": 2475,
      "##ễn": 2476,
      "##va": 2477,
      "##êt": 2478,
      "##ẩu": 2479,
      "thủ": 2480,
      "tràn": 2481,
      "trãi": 2482,
      "ngủ": 2483,
      "mà_lại": 2484,
      "phong": 2485,
      "phòng": 2486,
      "oki": 2487,
      "##m_c": 2488,
      "##_thích": 2489,
      "lúc_nào": 2490,
      "##_triển": 2491,
      "kéo": 2492,
      "vừa_mới": 2493,
      "liên_quan": 2494,
      "tựa": 2495,
      "đồng_h": 2496,
      "##_nay": 2497,
      "bỏ_túi": 2498,
      "chuyên_": 2499,
      "##_trang": 2500,
      "##kkkk": 2501,
      "thực_tế": 2502,
      "cụm": 2503,
      "phải_ch": 2504,
      "prime": 2505,
      "đươc": 2506,
      "smartphone": 2507,
      "dấu_hiệu": 2508,
      "pupg": 2509,
      "đồng_hồ": 2510,
      "17": 2511,
      "490": 2512,
      "bu": 2513,
      "bề": 2514,
      "bụi": 2515,
      "cầ": 2516,
      "cày": 2517,
      "cứng": 2518,
      "cộng": 2519,
      "cổng": 2520,
      "da": 2521,
      "de": 2522,
      "dạo": 2523,
      "gấp": 2524,
      "hổ": 2525,
      "hinh": 2526,
      "hi_v": 2527,
      "iu": 2528,
      "im": 2529,
      "kim": 2530,
      "lê": 2531,
      "lang": 2532,
      "liệu": 2533,
      "mê": 2534,
      "mắc": 2535,
      "mái": 2536,
      "mùa": 2537,
      "rằng": 2538,
      "sp": 2539,
      "song": 2540,
      "sạch": 2541,
      "tp": 2542,
      "tiê": 2543,
      "vă": 2544,
      "vợ": 2545,
      "viết": 2546,
      "đung": 2547,
      "##_ok": 2548,
      "##ộc": 2549,
      "##ép": 2550,
      "##ém": 2551,
      "##pu": 2552,
      "##ót": 2553,
      "##de": 2554,
      "##ợt_nh": 2555,
      "##view": 2556,
      "##úa": 2557,
      "##30": 2558,
      "thư": 2559,
      "chảnh": 2560,
      "nhiệm": 2561,
      "nhợt_nh": 2562,
      "khong": 2563,
      "##n_s": 2564,
      "trình": 2565,
      "ngồi": 2566,
      "phá": 2567,
      "phone": 2568,
      "mới_đầu": 2569,
      "games": 2570,
      "cám_": 2571,
      "##m_h": 2572,
      "##_thức": 2573,
      "hay_là": 2574,
      "##_của": 2575,
      "##nh_x": 2576,
      "quan_tâm": 2577,
      "wif": 2578,
      "##_mặt": 2579,
      "##_minh": 2580,
      "##nghiệp": 2581,
      "ngoài_trời": 2582,
      "review": 2583,
      "đau": 2584,
      "ant": 2585,
      "thông_tin": 2586,
      "##t_điểm": 2587,
      "làm_ăn": 2588,
      "##uot": 2589,
      "khuyết_điểm": 2590,
      "660": 2591,
      "chân_thành": 2592,
      "blut": 2593,
      "tàu": 2594,
      "tiền_nào": 2595,
      "chuyên_nghiệp": 2596,
      "hi_vọng": 2597,
      "nhợt_nhạt": 2598,
      "cám_ơn": 2599,
      "tiền_nào_của": 2600,
      "22": 2601,
      "28": 2602,
      "23": 2603,
      "bá": 2604,
      "bể": 2605,
      "biế": 2606,
      "biệt": 2607,
      "ban": 2608,
      "diện": 2609,
      "dut": 2610,
      "dấu": 2611,
      "gg": 2612,
      "hả": 2613,
      "hên": 2614,
      "kỳ": 2615,
      "lừa": 2616,
      "lát": 2617,
      "lắp": 2618,
      "vv": 2619,
      "yt": 2620,
      "điên": 2621,
      "đặc": 2622,
      "##nos": 2623,
      "##dung": 2624,
      "##ựt": 2625,
      "##ặn": 2626,
      "##ke": 2627,
      "##ạp": 2628,
      "##ún": 2629,
      "thừa": 2630,
      "chúc": 2631,
      "chát": 2632,
      "nhầm": 2633,
      "##n_ng": 2634,
      "trống": 2635,
      "trái": 2636,
      "ngã": 2637,
      "ngại": 2638,
      "##_tư": 2639,
      "##_tiến": 2640,
      "quá_trời": 2641,
      "cảnh": 2642,
      "tuộc": 2643,
      "##_vị": 2644,
      "##_thị": 2645,
      "cấn": 2646,
      "mai": 2647,
      "vừa_ý": 2648,
      "tạm_thời": 2649,
      "##utu": 2650,
      "##i_điểm": 2651,
      "thời_điểm": 2652,
      "##ắc_m": 2653,
      "chug": 2654,
      "ghét": 2655,
      "##mera": 2656,
      "nhận_dạng": 2657,
      "tik": 2658,
      "##_rồi": 2659,
      "sinh_viên": 2660,
      "855": 2661,
      "##t_hàng": 2662,
      "trường_hợp": 2663,
      "exynos": 2664,
      "kim_loại": 2665,
      "67": 2666,
      "ah": 2667,
      "bn": 2668,
      "bo": 2669,
      "cà": 2670,
      "gem": 2671,
      "gắn": 2672,
      "hà": 2673,
      "kiếm": 2674,
      "lm": 2675,
      "má": 2676,
      "mỏ": 2677,
      "nắp": 2678,
      "rỏ": 2679,
      "tung": 2680,
      "tinh": 2681,
      "xung": 2682,
      "xai": 2683,
      "đầm": 2684,
      "đóng": 2685,
      "đồn": 2686,
      "##ta": 2687,
      "##oài": 2688,
      "thân": 2689,
      "thiệt": 2690,
      "thang": 2691,
      "tháo": 2692,
      "thắc_m": 2693,
      "nhu": 2694,
      "nhá": 2695,
      "nhug": 2696,
      "##n_kh": 2697,
      "tro": 2698,
      "có_lẽ": 2699,
      "tối_đ": 2700,
      "này_n": 2701,
      "##_dàng": 2702,
      "##_hữu": 2703,
      "nghỉ": 2704,
      "##fire": 2705,
      "tươi": 2706,
      "cammera": 2707,
      "##quả": 2708,
      "nova": 2709,
      "một_tí": 2710,
      "đag": 2711,
      "hoàn_toàn": 2712,
      "phát_triển": 2713,
      "cải_tiến": 2714,
      "xử_lí": 2715,
      "trở_lại": 2716,
      "tiệm_c": 2717,
      "wep": 2718,
      "xem_": 2719,
      "cuối_c": 2720,
      "flas": 2721,
      "sẵn": 2722,
      "hầu_như": 2723,
      "sở_hữu": 2724,
      "vị_trí": 2725,
      "antutu": 2726,
      "duty": 2727,
      "thắc_mắc": 2728,
      "tối_đa": 2729,
      "này_nọ": 2730,
      "tiệm_cận": 2731,
      "cuối_cùng": 2732,
      "33": 2733,
      "65": 2734,
      "96": 2735,
      "bút": 2736,
      "bớt": 2737,
      "dã": 2738,
      "di_ch": 2739,
      "dậy": 2740,
      "gốc": 2741,
      "hụt": 2742,
      "hút": 2743,
      "hối": 2744,
      "lam": 2745,
      "lầm": 2746,
      "mb": 2747,
      "pk": 2748,
      "qt": 2749,
      "ss": 2750,
      "sâu": 2751,
      "sát": 2752,
      "sup": 2753,
      "tượng": 2754,
      "tội": 2755,
      "uổng": 2756,
      "van": 2757,
      "zing": 2758,
      "đà": 2759,
      "đỏ": 2760,
      "đành": 2761,
      "##cro": 2762,
      "##to": 2763,
      "##éo": 2764,
      "##dd": 2765,
      "##ồn_b": 2766,
      "##obe": 2767,
      "##22": 2768,
      "chua": 2769,
      "chro": 2770,
      "nhan": 2771,
      "##n_nh": 2772,
      "##n_xuất": 2773,
      "trẻ": 2774,
      "trieu": 2775,
      "già": 2776,
      "gian": 2777,
      "giựt": 2778,
      "phan": 2779,
      "##i_n": 2780,
      "nhanh_ch": 2781,
      "##_thì": 2782,
      "##_thật": 2783,
      "sản_xuất": 2784,
      "để_ch": 2785,
      "##_cập": 2786,
      "##uyển": 2787,
      "lau": 2788,
      "đề_ngh": 2789,
      "macro": 2790,
      "toà": 2791,
      "hok": 2792,
      "##pppp": 2793,
      "##_mờ": 2794,
      "##t_mấy": 2795,
      "mờ_mờ": 2796,
      "phần_tr": 2797,
      "##i_là": 2798,
      "thág": 2799,
      "##n_chế": 2800,
      "bit": 2801,
      "tiện_": 2802,
      "vien": 2803,
      "voi": 2804,
      "hạn_chế": 2805,
      "##tttttttt": 2806,
      "nguyễ": 2807,
      "cmt": 2808,
      "phải_chăng": 2809,
      "spen": 2810,
      "##m_hiểu": 2811,
      "biết_mấy": 2812,
      "xem_xét": 2813,
      "di_chuyển": 2814,
      "super": 2815,
      "nhanh_chóng": 2816,
      "để_chế": 2817,
      "đề_nghị": 2818,
      "phần_trăm": 2819,
      "26": 2820,
      "92": 2821,
      "bạ": 2822,
      "bóc": 2823,
      "cua": 2824,
      "cận": 2825,
      "cầu": 2826,
      "hằng": 2827,
      "id": 2828,
      "itel": 2829,
      "le": 2830,
      "lẫn": 2831,
      "lượt": 2832,
      "mì": 2833,
      "mềm": 2834,
      "mún": 2835,
      "niề": 2836,
      "nằm": 2837,
      "rât": 2838,
      "sọc": 2839,
      "te": 2840,
      "vứt": 2841,
      "xu": 2842,
      "ăn_đ": 2843,
      "đại": 2844,
      "đáo": 2845,
      "đạt": 2846,
      "##ce": 2847,
      "##cre": 2848,
      "##_p": 2849,
      "##om": 2850,
      "##ứa": 2851,
      "##ễu": 2852,
      "##ảm": 2853,
      "##ến": 2854,
      "thò": 2855,
      "thụt": 2856,
      "chat": 2857,
      "nhe": 2858,
      "nháy": 2859,
      "máy_s": 2860,
      "trai": 2861,
      "mày": 2862,
      "giọt": 2863,
      "##iếu": 2864,
      "cáp": 2865,
      "tuổi": 2866,
      "##_lệ": 2867,
      "##_hội": 2868,
      "##_đây": 2869,
      "##n_thân": 2870,
      "bản_thân": 2871,
      "toi": 2872,
      "vừa_phải": 2873,
      "sóng_sánh": 2874,
      "##_chơi": 2875,
      "##_sự": 2876,
      "##_nấy": 2877,
      "youtobe": 2878,
      "dễ_dàng": 2879,
      "siêu_thị": 2880,
      "thoi": 2881,
      "thoảng": 2882,
      "thông_minh": 2883,
      "haizz": 2884,
      "##_hoà": 2885,
      "##_ngày": 2886,
      "yêu_cầu": 2887,
      "tìm_hiểu": 2888,
      "học_s": 2889,
      "roi": 2890,
      "665": 2891,
      "tổng_thể": 2892,
      "đep": 2893,
      "nổi_b": 2894,
      "thanks": 2895,
      "lí_do": 2896,
      "nếu_như": 2897,
      "truy_cập": 2898,
      "buồn_b": 2899,
      "cần_th": 2900,
      "tiền_nào_của_nấy": 2901,
      "tiện_ích": 2902,
      "ăn_đứt": 2903,
      "học_sinh": 2904,
      "nổi_bật": 2905,
      "buồn_buồn": 2906,
      "43": 2907,
      "61": 2908,
      "690": 2909,
      "97": 2910,
      "bức": 2911,
      "cột": 2912,
      "căng": 2913,
      "cai": 2914,
      "cug": 2915,
      "dể": 2916,
      "dần": 2917,
      "fp": 2918,
      "gương": 2919,
      "ht": 2920,
      "ji": 2921,
      "lẽ": 2922,
      "long": 2923,
      "linh": 2924,
      "lõi": 2925,
      "lòi": 2926,
      "mậ": 2927,
      "mệt": 2928,
      "ni": 2929,
      "net": 2930,
      "nứt": 2931,
      "qúa": 2932,
      "su": 2933,
      "sơn": 2934,
      "uy": 2935,
      "us": 2936,
      "vay": 2937,
      "ván": 2938,
      "xì": 2939,
      "y_như": 2940,
      "ánh": 2941,
      "đất": 2942,
      "đụng": 2943,
      "đỗi": 2944,
      "##uc": 2945,
      "##ad": 2946,
      "##play": 2947,
      "##oc": 2948,
      "##ft": 2949,
      "##80": 2950,
      "##ĩnh": 2951,
      "tham": 2952,
      "cha": 2953,
      "chậ": 2954,
      "chân_": 2955,
      "chết": 2956,
      "chi_nh": 2957,
      "tra": 2958,
      "trễ": 2959,
      "trông": 2960,
      "trực": 2961,
      "ngta": 2962,
      "##_tự": 2963,
      "##_tượng": 2964,
      "phú": 2965,
      "phóng": 2966,
      "quài": 2967,
      "cáo": 2968,
      "khác_biệt": 2969,
      "##_dõi": 2970,
      "##n_tuổi": 2971,
      "##_thủ": 2972,
      "chỉnh_s": 2973,
      "hình_thức": 2974,
      "##_cứ": 2975,
      "##ang_m": 2976,
      "quan": 2977,
      "##_trữ": 2978,
      "hoang_m": 2979,
      "##_mẹ": 2980,
      "##_bạ": 2981,
      "miễn": 2982,
      "lớn_tuổi": 2983,
      "theo_dõi": 2984,
      "thậm_ch": 2985,
      "chuyện": 2986,
      "##n_bè": 2987,
      "đặt_hàng": 2988,
      "file": 2989,
      "công_nhận": 2990,
      "cuộc": 2991,
      "##_hoạt": 2992,
      "bất_ng": 2993,
      "tin_d": 2994,
      "tậu": 2995,
      "thân_thiết": 2996,
      "bộ_nhớ_trong": 2997,
      "tương_đương": 2998,
      "duyệt": 2999,
      "dựt": 3000,
      "đối_thủ": 3001,
      "lưu_trữ": 3002,
      "viet": 3003,
      "##hip": 3004,
      "vote": 3005,
      "##c_sau": 3006,
      "nhiễu": 3007,
      "thị_trường": 3008,
      "thị_trấn": 3009,
      "mjh": 3010,
      "kết_quả": 3011,
      "clip": 3012,
      "trước_sau": 3013,
      "lịch_sự": 3014,
      "văn_ph": 3015,
      "##nh_xác": 3016,
      "mỏi_m": 3017,
      "trog": 3018,
      "flash": 3019,
      "chrome": 3020,
      "bạn_bè": 3021,
      "##creen": 3022,
      "cần_thiết": 3023,
      "chi_nhánh": 3024,
      "trực_t": 3025,
      "chỉnh_sửa": 3026,
      "hoang_mang": 3027,
      "thậm_chí": 3028,
      "bất_ngờ": 3029,
      "tin_dùng": 3030,
      "200": 3031,
      "63": 3032,
      "790": 3033,
      "ap": 3034,
      "as": 3035,
      "ai_ng": 3036,
      "bò": 3037,
      "bạc": 3038,
      "bít": 3039,
      "ca": 3040,
      "cô": 3041,
      "cận_": 3042,
      "cpu": 3043,
      "del": 3044,
      "gỡ": 3045,
      "gởi": 3046,
      "hông": 3047,
      "het": 3048,
      "kkk": 3049,
      "lá": 3050,
      "lã": 3051,
      "lướ": 3052,
      "po": 3053,
      "rực_": 3054,
      "sơ": 3055,
      "sắt": 3056,
      "ty": 3057,
      "tua": 3058,
      "tiên": 3059,
      "tục": 3060,
      "vl": 3061,
      "vẽ": 3062,
      "võ": 3063,
      "đẳng": 3064,
      "ưu": 3065,
      "ưa": 3066,
      "ẩn": 3067,
      "##cảnh": 3068,
      "##is": 3069,
      "##nn": 3070,
      "##rỡ": 3071,
      "##lượng": 3072,
      "##ey": 3073,
      "##smart": 3074,
      "##ốn": 3075,
      "##ỉu": 3076,
      "thưa": 3077,
      "chplay": 3078,
      "khe": 3079,
      "##n_x": 3080,
      "máy_b": 3081,
      "trọng": 3082,
      "trăm": 3083,
      "trạng": 3084,
      "ngược": 3085,
      "##_tệ": 3086,
      "là_hơi": 3087,
      "quên": 3088,
      "##iêm": 3089,
      "##_cách": 3090,
      "##uối": 3091,
      "cấm": 3092,
      "##_chữa": 3093,
      "##ent": 3094,
      "##uto": 3095,
      "##i_đáp": 3096,
      "chia": 3097,
      "đột_": 3098,
      "bao_lâu": 3099,
      "dùg": 3100,
      "điều_kiện": 3101,
      "mih": 3102,
      "thời_lượng": 3103,
      "##mart_": 3104,
      "nặng_tay": 3105,
      "chính_xác": 3106,
      "mod": 3107,
      "thik": 3108,
      "##i_mới": 3109,
      "bất_cứ": 3110,
      "tieng": 3111,
      "lien": 3112,
      "tối_qua": 3113,
      "##_ngoài": 3114,
      "2017": 3115,
      "bik": 3116,
      "sửa_chữa": 3117,
      "thời_trang": 3118,
      "##_quan": 3119,
      "thành_công": 3120,
      "tin_tức": 3121,
      "off": 3122,
      "đổi_mới": 3123,
      "tôt": 3124,
      "star": 3125,
      "danh_bạ": 3126,
      "bề_ngoài": 3127,
      "phát_s": 3128,
      "qtv": 3129,
      "máy_sài": 3130,
      "fpt": 3131,
      "usb": 3132,
      "chân_dung": 3133,
      "văn_phòng": 3134,
      "mỏi_mắt": 3135,
      "ai_ngờ": 3136,
      "cận_cảnh": 3137,
      "rực_rỡ": 3138,
      "máy_bay": 3139,
      "29": 3140,
      "36": 3141,
      "55": 3142,
      "730": 3143,
      "auto": 3144,
      "bj": 3145,
      "bong": 3146,
      "bệt": 3147,
      "cs": 3148,
      "dân": 3149,
      "dạng": 3150,
      "fin": 3151,
      "gọ": 3152,
      "gạch": 3153,
      "hêt": 3154,
      "kê": 3155,
      "keo": 3156,
      "lệ": 3157,
      "lô": 3158,
      "lương": 3159,
      "mơi": 3160,
      "mây": 3161,
      "mền": 3162,
      "muot": 3163,
      "nx": 3164,
      "nắng": 3165,
      "nãn": 3166,
      "qa": 3167,
      "ru": 3168,
      "rác": 3169,
      "son": 3170,
      "tập": 3171,
      "tiêu": 3172,
      "time": 3173,
      "vc": 3174,
      "ví": 3175,
      "vượng": 3176,
      "xét": 3177,
      "áp": 3178,
      "ầm_": 3179,
      "ọp_": 3180,
      "ổn_": 3181,
      "##hu": 3182,
      "##hẩu": 3183,
      "##ax": 3184,
      "##tok": 3185,
      "##ru": 3186,
      "##ộp": 3187,
      "##gd": 3188,
      "##ment": 3189,
      "##ẹn": 3190,
      "##ôn": 3191,
      "##âp": 3192,
      "##or": 3193,
      "##bảo": 3194,
      "##xel": 3195,
      "##vv": 3196,
      "##33": 3197,
      "thiện": 3198,
      "chá": 3199,
      "chổ": 3200,
      "chay": 3201,
      "chặn": 3202,
      "kha": 3203,
      "trụ": 3204,
      "phầm": 3205,
      "phết": 3206,
      "phai": 3207,
      "##i_s": 3208,
      "okie": 3209,
      "##_lo": 3210,
      "##_dương": 3211,
      "cho_dù": 3212,
      "##u_ch": 3213,
      "##_đình": 3214,
      "##_đẹp": 3215,
      "tay_trong": 3216,
      "ran": 3217,
      "##n_thui": 3218,
      "##_trung": 3219,
      "##_trội": 3220,
      "1080": 3221,
      "đơn_gi": 3222,
      "##ooc": 3223,
      "đến_n": 3224,
      "##t_khẩu": 3225,
      "##ter": 3226,
      "##_chỉnh": 3227,
      "##_sơ": 3228,
      "khó_kh": 3229,
      "##est": 3230,
      "điều_chỉnh": 3231,
      "mặc_định": 3232,
      "5020": 3233,
      "khởi": 3234,
      "ban_ng": 3235,
      "thich": 3236,
      "hdr": 3237,
      "tương_tự": 3238,
      "bất_thường": 3239,
      "bất_k": 3240,
      "thuong": 3241,
      "định_vị": 3242,
      "2018": 3243,
      "710": 3244,
      "quyết": 3245,
      "vinsmart": 3246,
      "inch": 3247,
      "##ast": 3248,
      "##_quanh": 3249,
      "quả_thật": 3250,
      "ace": 3251,
      "đen_thui": 3252,
      "sinh_nhật": 3253,
      "3500": 3254,
      "##_tín": 3255,
      "comment": 3256,
      "hết_m": 3257,
      "trò_chơi": 3258,
      "khôg": 3259,
      "kích_hoạt": 3260,
      "blutooth": 3261,
      "ytb": 3262,
      "##n_kho": 3263,
      "##_pubg": 3264,
      "mật_khẩu": 3265,
      "uy_tín": 3266,
      "delay": 3267,
      "đẳng_cấp": 3268,
      "sony": 3269,
      "ầm_ầm": 3270,
      "ọp_ẹp": 3271,
      "ổn_áp": 3272,
      "đơn_giản": 3273,
      "đến_nỗi": 3274,
      "khó_khăn": 3275,
      "ban_ngày": 3276,
      "95": 3277,
      "a_": 3278,
      "an_tâm": 3279,
      "bung": 3280,
      "bát": 3281,
      "bốc": 3282,
      "bee": 3283,
      "bởi": 3284,
      "cử": 3285,
      "cã": 3286,
      "ck": 3287,
      "can": 3288,
      "dò": 3289,
      "dè": 3290,
      "dạ": 3291,
      "duoc": 3292,
      "fim": 3293,
      "he": 3294,
      "hận": 3295,
      "hảo": 3296,
      "hỉu": 3297,
      "ic": 3298,
      "kệ": 3299,
      "lộ": 3300,
      "liệt": 3301,
      "mu": 3302,
      "mư": 3303,
      "mùng": 3304,
      "mưa": 3305,
      "miết": 3306,
      "nua": 3307,
      "nỗi": 3308,
      "nội": 3309,
      "rát": 3310,
      "rùa": 3311,
      "sx": 3312,
      "sữ": 3313,
      "sánh": 3314,
      "tv": 3315,
      "tú": 3316,
      "tỉ": 3317,
      "tq": 3318,
      "tầ": 3319,
      "tản": 3320,
      "tỉnh": 3321,
      "tft": 3322,
      "ui": 3323,
      "vơi": 3324,
      "vết": 3325,
      "vây": 3326,
      "vội": 3327,
      "văn": 3328,
      "wá": 3329,
      "xưa": 3330,
      "xaomi": 3331,
      "xót": 3332,
      "zin": 3333,
      "ôn": 3334,
      "ôm": 3335,
      "đục": 3336,
      "đằng": 3337,
      "đuoc": 3338,
      "ủng": 3339,
      "##hd": 3340,
      "##uch": 3341,
      "##io": 3342,
      "##go": 3343,
      "##pe": 3344,
      "##ơn_tr": 3345,
      "##ship": 3346,
      "##ụp": 3347,
      "##ote": 3348,
      "##bội": 3349,
      "##ãy": 3350,
      "##ậu": 3351,
      "thù": 3352,
      "thằng": 3353,
      "thánh": 3354,
      "thuộc": 3355,
      "chuyên": 3356,
      "chốt": 3357,
      "chớp": 3358,
      "nhiệ": 3359,
      "nhiên": 3360,
      "khuôn": 3361,
      "khui": 3362,
      "khớp": 3363,
      "##n_v": 3364,
      "trí": 3365,
      "tróc": 3366,
      "trơn_tr": 3367,
      "##ina": 3368,
      "ngắn": 3369,
      "##_to": 3370,
      "##_từ": 3371,
      "##_tinh": 3372,
      "phế": 3373,
      "phiền": 3374,
      "quất": 3375,
      "##n_tử": 3376,
      "##m_bảo": 3377,
      "ngày_nay": 3378,
      "##_thân": 3379,
      "##_thực": 3380,
      "##_theo": 3381,
      "##u_ho": 3382,
      "##_huy": 3383,
      "lỗi_thời": 3384,
      "##_địch": 3385,
      "##iêt": 3386,
      "hình_sắc": 3387,
      "đểu": 3388,
      "loá": 3389,
      "điện_tử": 3390,
      "##c_m": 3391,
      "##uyệt": 3392,
      "ngườ": 3393,
      "mak": 3394,
      "vừa_lòng": 3395,
      "##ail": 3396,
      "##n_đo": 3397,
      "trước_đây": 3398,
      "##t_vài": 3399,
      "mở_m": 3400,
      "##_muốn": 3401,
      "##_bai": 3402,
      "chê_bai": 3403,
      "##_chỉ": 3404,
      "hiện_n": 3405,
      "##end": 3406,
      "thế_là": 3407,
      "mong_muốn": 3408,
      "##_cảm": 3409,
      "giải_đáp": 3410,
      "dùm": 3411,
      "cod": 3412,
      "vô_địch": 3413,
      "tác_dụng": 3414,
      "vsmart_": 3415,
      "##_kho": 3416,
      "##_xã": 3417,
      "##_xước": 3418,
      "##_xíu": 3419,
      "một_vài": 3420,
      "like": 3421,
      "##_ngửa": 3422,
      "càng_ngày": 3423,
      "ngang_ngửa": 3424,
      "giải_thích": 3425,
      "lỗi_lầm": 3426,
      "bực_bội": 3427,
      "tối_ưu_ho": 3428,
      "trầy_xước": 3429,
      "kĩ_thuật": 3430,
      "luc": 3431,
      "rõ_rệt": 3432,
      "lý_do": 3433,
      "##agship": 3434,
      "flagship": 3435,
      "tggd": 3436,
      "huhu": 3437,
      "seal": 3438,
      "comb": 3439,
      "hết_s": 3440,
      "chúng_t": 3441,
      "đảm_bảo": 3442,
      "med": 3443,
      "thành_": 3444,
      "xã_hội": 3445,
      "tiktok": 3446,
      "xung_quanh": 3447,
      "niềm": 3448,
      "linh_tinh": 3449,
      "asus": 3450,
      "type": 3451,
      "phát_sinh": 3452,
      "trơn_tru": 3453,
      "mở_màn": 3454,
      "hiện_nay": 3455,
      "càng_ngày_càng": 3456,
      "tối_ưu_hoá": 3457,
      "04": 3458,
      "300": 3459,
      "41": 3460,
      "4990": 3461,
      "75": 3462,
      "86": 3463,
      "ar": 3464,
      "bự": 3465,
      "bế": 3466,
      "bận": 3467,
      "best": 3468,
      "ct": 3469,
      "cắt": 3470,
      "cạch": 3471,
      "du": 3472,
      "dì": 3473,
      "dô": 3474,
      "dỡ": 3475,
      "dth": 3476,
      "dag": 3477,
      "fai": 3478,
      "ga": 3479,
      "gr": 3480,
      "gà": 3481,
      "gạo": 3482,
      "hs": 3483,
      "hong": 3484,
      "hon": 3485,
      "hời": 3486,
      "huyện": 3487,
      "km": 3488,
      "kb": 3489,
      "kem": 3490,
      "lă": 3491,
      "ln": 3492,
      "lễ": 3493,
      "lên_": 3494,
      "mơ": 3495,
      "mồ": 3496,
      "mặ": 3497,
      "mỹ": 3498,
      "mng": 3499,
      "môi": 3500,
      "nố": 3501,
      "nối": 3502,
      "rổ": 3503,
      "rẽ": 3504,
      "rước": 3505,
      "room": 3506,
      "sò": 3507,
      "sứ": 3508,
      "tào": 3509,
      "tây": 3510,
      "ung": 3511,
      "vd": 3512,
      "ve": 3513,
      "vật": 3514,
      "vooc": 3515,
      "xò": 3516,
      "xui": 3517,
      "yế": 3518,
      "ép": 3519,
      "đắ": 3520,
      "đậm": 3521,
      "ướt": 3522,
      "ỗn": 3523,
      "##cm": 3524,
      "##_em": 3525,
      "##_fire": 3526,
      "##ti": 3527,
      "##ic": 3528,
      "##đẹp": 3529,
      "##ơt": 3530,
      "##line": 3531,
      "##ớc": 3532,
      "##ớn": 3533,
      "##xuống": 3534,
      "##ạn_x": 3535,
      "##11": 3536,
      "##ắt_": 3537,
      "##ẩm_": 3538,
      "##ẫm": 3539,
      "tha": 3540,
      "chói": 3541,
      "china": 3542,
      "nhac": 3543,
      "kháng": 3544,
      "##n_g": 3545,
      "trơn": 3546,
      "trượt": 3547,
      "trưng": 3548,
      "phin": 3549,
      "phut": 3550,
      "phân_giải": 3551,
      "quận": 3552,
      "quạt": 3553,
      "##i_d": 3554,
      "##i_ph": 3555,
      "##iếc": 3556,
      "okey": 3557,
      "chơi_pubg": 3558,
      "##t_ra": 3559,
      "giá_tr": 3560,
      "cám": 3561,
      "##_lao": 3562,
      "##_lai": 3563,
      "##_dụ": 3564,
      "##_duyệt": 3565,
      "##_vệ": 3566,
      "##_vực": 3567,
      "##_vương": 3568,
      "##n_tập": 3569,
      "##n_tăn": 3570,
      "##_thước": 3571,
      "##_thượng": 3572,
      "##_hôi": 3573,
      "##_hộp": 3574,
      "hình_dáng": 3575,
      "nghệ": 3576,
      "nghiêm": 3577,
      "logo": 3578,
      "loạn_x": 3579,
      "##ool": 3580,
      "từ_từ": 3581,
      "man": 3582,
      "vừa_rồi": 3583,
      "hoàn": 3584,
      "đinh": 3585,
      "##_man": 3586,
      "bảo_vệ": 3587,
      "##i_đầu": 3588,
      "##_sách": 3589,
      "tím": 3590,
      "cầm_hơi": 3591,
      "##_nên": 3592,
      "mức_độ": 3593,
      "khoảng_cách": 3594,
      "thoai": 3595,
      "##luận": 3596,
      "rẻ_tiền": 3597,
      "hiệu_ứng": 3598,
      "vô_tư": 3599,
      "##_phần": 3600,
      "##_phép": 3601,
      "##red": 3602,
      "ghé": 3603,
      "##t_độ": 3604,
      "bat": 3605,
      "bass": 3606,
      "xog": 3607,
      "##_không": 3608,
      "##_khảo": 3609,
      "fun": 3610,
      "làm_đẹp": 3611,
      "bàn_c": 3612,
      "tiếp_theo": 3613,
      "kinh_nghiệm": 3614,
      "##_rớt": 3615,
      "phụ_huy": 3616,
      "phản_ánh": 3617,
      "freefire": 3618,
      "thời_thượng": 3619,
      "dài_dài": 3620,
      "hic": 3621,
      "##u_mà": 3622,
      "micro": 3623,
      "rơi_rớt": 3624,
      "đập_hộp": 3625,
      "gia_công": 3626,
      "vui_tính": 3627,
      "chân_thật": 3628,
      "chân_thực": 3629,
      "khuân": 3630,
      "tàm": 3631,
      "góp_ý": 3632,
      "nếu_mà": 3633,
      "kết_luận": 3634,
      "meg": 3635,
      "vượt_trội": 3636,
      "xác_định": 3637,
      "hồ_sơ": 3638,
      "kích_thước": 3639,
      "trình_duyệt": 3640,
      "wiffi": 3641,
      "dã_man": 3642,
      "mìh": 3643,
      "gương_mặt": 3644,
      "tham_khảo": 3645,
      "viettel": 3646,
      "trực_tiếp": 3647,
      "632": 3648,
      "tuan": 3649,
      "find": 3650,
      "lệch": 3651,
      "cử_chỉ": 3652,
      "túm": 3653,
      "tần_s": 3654,
      "nhiệt_độ": 3655,
      "combat": 3656,
      "media": 3657,
      "lăn_tăn": 3658,
      "lên_xuống": 3659,
      "mồ_hôi": 3660,
      "tào_lao": 3661,
      "đắn_đo": 3662,
      "giá_trị": 3663,
      "loạn_xạ": 3664,
      "bàn_cãi": 3665,
      "phụ_huynh": 3666,
      "02": 3667,
      "03": 3668,
      "34": 3669,
      "44": 3670,
      "400": 3671,
      "bă": 3672,
      "be": 3673,
      "bb": 3674,
      "bay": 3675,
      "bước": 3676,
      "biểu": 3677,
      "bubg": 3678,
      "bóp": 3679,
      "buộc": 3680,
      "cu": 3681,
      "cg": 3682,
      "cư": 3683,
      "cổ": 3684,
      "cù": 3685,
      "cv": 3686,
      "cẩ": 3687,
      "canh": 3688,
      "câm": 3689,
      "cau": 3690,
      "dụ": 3691,
      "day": 3692,
      "dật": 3693,
      "dẫn": 3694,
      "dem": 3695,
      "fa": 3696,
      "fm": 3697,
      "gò": 3698,
      "gps": 3699,
      "gói": 3700,
      "gpu": 3701,
      "hì": 3702,
      "hj": 3703,
      "huy": 3704,
      "hấp": 3705,
      "hát": 3706,
      "hạng": 3707,
      "hạt": 3708,
      "hiếm": 3709,
      "iph": 3710,
      "jack": 3711,
      "kiến": 3712,
      "lẻ": 3713,
      "lao": 3714,
      "lận": 3715,
      "len": 3716,
      "lăm": 3717,
      "lấm": 3718,
      "lợi": 3719,
      "luot": 3720,
      "mược": 3721,
      "manh": 3722,
      "nọ": 3723,
      "nong": 3724,
      "nịnh": 3725,
      "ninh": 3726,
      "nuốt": 3727,
      "ném": 3728,
      "or": 3729,
      "pm": 3730,
      "ping": 3731,
      "rật": 3732,
      "rôi": 3733,
      "rít": 3734,
      "sm": 3735,
      "sờ": 3736,
      "sv": 3737,
      "sức": 3738,
      "tn": 3739,
      "tắc": 3740,
      "tích": 3741,
      "tái": 3742,
      "tạo": 3743,
      "tat": 3744,
      "vm": 3745,
      "vk": 3746,
      "vê": 3747,
      "vọ": 3748,
      "vao": 3749,
      "vèo": 3750,
      "wj": 3751,
      "xách": 3752,
      "yên": 3753,
      "zl": 3754,
      "áo": 3755,
      "ôi": 3756,
      "ăn_th": 3757,
      "đu": 3758,
      "đút": 3759,
      "đống": 3760,
      "đứt": 3761,
      "đuối": 3762,
      "ấp": 3763,
      "ồn": 3764,
      "##hệ": 3765,
      "##he": 3766,
      "##co": 3767,
      "##_w": 3768,
      "##ry": 3769,
      "##rb": 3770,
      "##rus": 3771,
      "##gg": 3772,
      "##én": 3773,
      "##po": 3774,
      "##pin": 3775,
      "##mi_n": 3776,
      "##dt": 3777,
      "##ấc": 3778,
      "##ồm": 3779,
      "##ổn": 3780,
      "##ec": 3781,
      "##screen": 3782,
      "##xx": 3783,
      "##vi": 3784,
      "##ve": 3785,
      "##ú_vị": 3786,
      "##ật_v": 3787,
      "##ịt": 3788,
      "##ẩn_b": 3789,
      "##ngột": 3790,
      "thơ": 3791,
      "thô": 3792,
      "thả": 3793,
      "thây": 3794,
      "thẩm_": 3795,
      "thú_vị": 3796,
      "chiêu": 3797,
      "chât": 3798,
      "nhấp": 3799,
      "nhỉnh": 3800,
      "nhám": 3801,
      "nhịp": 3802,
      "khối": 3803,
      "##n_ho": 3804,
      "tru": 3805,
      "trục": 3806,
      "tránh": 3807,
      "truyện": 3808,
      "ngu": 3809,
      "ngờ": 3810,
      "nguo": 3811,
      "ngốn": 3812,
      "##_tả": 3813,
      "##_tâm": 3814,
      "##_tốc": 3815,
      "##_tiếng": 3816,
      "phổ": 3817,
      "phương": 3818,
      "phiếu": 3819,
      "phẫm": 3820,
      "quốc": 3821,
      "##t_ru": 3822,
      "##_dùng": 3823,
      "##_dành": 3824,
      "##m_r": 3825,
      "##_thúc": 3826,
      "cho_rồi": 3827,
      "##u_ý": 3828,
      "##_hd": 3829,
      "##_hại": 3830,
      "##_đề": 3831,
      "##_đài": 3832,
      "##_đắn": 3833,
      "tay_phải": 3834,
      "nghi": 3835,
      "nghiêng": 3836,
      "để_dành": 3837,
      "##_nháy": 3838,
      "thức": 3839,
      "quang_h": 3840,
      "người_thân": 3841,
      "tệ_hại": 3842,
      "##_trường": 3843,
      "##_trặc": 3844,
      "bảng": 3845,
      "##ood": 3846,
      "mag": 3847,
      "mai_m": 3848,
      "made": 3849,
      "tot": 3850,
      "tok": 3851,
      "touch": 3852,
      "thất_b": 3853,
      "hoa": 3854,
      "hoá": 3855,
      "thôi_thì": 3856,
      "nhất_định": 3857,
      "đien": 3858,
      "liên_hệ": 3859,
      "##_bộ": 3860,
      "mất_m": 3861,
      "##_chi_là": 3862,
      "##_sơn": 3863,
      "##_gia": 3864,
      "##khó": 3865,
      "##_nói": 3866,
      "nhỏ_xíu": 3867,
      "lưu_ý": 3868,
      "trung_thành": 3869,
      "xiao": 3870,
      "đúng_đắn": 3871,
      "thật_ra": 3872,
      "chuẩn_b": 3873,
      "đa_số": 3874,
      "chiếm": 3875,
      "mobi": 3876,
      "##_xưa": 3877,
      "tương_lai": 3878,
      "full_hd": 3879,
      "##_trai": 3880,
      "thuần": 3881,
      "tận_tâm": 3882,
      "##n_trâu": 3883,
      "one": 3884,
      "onscreen": 3885,
      "messag": 3886,
      "dự_định": 3887,
      "biet": 3888,
      "free_fire": 3889,
      "tab": 3890,
      "480": 3891,
      "vina": 3892,
      "sống_động": 3893,
      "##zzz": 3894,
      "kết_thúc": 3895,
      "thực_hiện": 3896,
      "gia_đình": 3897,
      "dien": 3898,
      "bố_mẹ": 3899,
      "tổng_quan": 3900,
      "tổng_đài": 3901,
      "cụ_thể": 3902,
      "##iiii": 3903,
      "khuông": 3904,
      "khu_vực": 3905,
      "phảm": 3906,
      "hum": 3907,
      "thank": 3908,
      "gop": 3909,
      "chút_": 3910,
      "ttdd": 3911,
      "tồi_tệ": 3912,
      "tài_kho": 3913,
      "tiêu_ch": 3914,
      "kỳ_vọng": 3915,
      "675": 3916,
      "##tore": 3917,
      "##2222": 3918,
      "toàn_tập": 3919,
      "##tttttttttttttttt": 3920,
      "lãi_s": 3921,
      "lướt_": 3922,
      "pop": 3923,
      "đột_ngột": 3924,
      "modem": 3925,
      "offline": 3926,
      "ví_dụ": 3927,
      "icon": 3928,
      "hết_sức": 3929,
      "chúng_ta": 3930,
      "biểu_tượng": 3931,
      "hấp_dẫn": 3932,
      "iphon": 3933,
      "ăn_thua": 3934,
      "##mi_note": 3935,
      "trục_trặc": 3936,
      "nguoi": 3937,
      "quang_học": 3938,
      "mai_mốt": 3939,
      "thất_bại": 3940,
      "chuẩn_bị": 3941,
      "tài_khoản": 3942,
      "lãi_suất": 3943,
      "01": 3944,
      "08": 3945,
      "07": 3946,
      "1000": 3947,
      "37": 3948,
      "47": 3949,
      "59": 3950,
      "600": 3951,
      "79": 3952,
      "700": 3953,
      "800": 3954,
      "an_toàn": 3955,
      "bằ": 3956,
      "binh": 3957,
      "cú": 3958,
      "cẩm": 3959,
      "cọc": 3960,
      "cúp": 3961,
      "cưng": 3962,
      "câp": 3963,
      "cắt_": 3964,
      "ds": 3965,
      "dẹp": 3966,
      "dao": 3967,
      "dịp": 3968,
      "gra": 3969,
      "hữ": 3970,
      "hqua": 3971,
      "hau": 3972,
      "hẹn": 3973,
      "ips": 3974,
      "kí": 3975,
      "kẻ": 3976,
      "kẻo": 3977,
      "lc": 3978,
      "luô": 3979,
      "lực": 3980,
      "lấp": 3981,
      "lỏng": 3982,
      "leno": 3983,
      "lạnh": 3984,
      "mô": 3985,
      "mự": 3986,
      "mò": 3987,
      "mụ": 3988,
      "mx": 3989,
      "men": 3990,
      "mầu": 3991,
      "mui": 3992,
      "mịn": 3993,
      "nu": 3994,
      "né": 3995,
      "nch": 3996,
      "nao": 3997,
      "nai": 3998,
      "nen": 3999
    },
    "merges": [
      "##n ##g",
      "##n ##h",
      "t ##h",
      "c ##h",
      "n ##h",
      "k ##h",
      "##n ##_",
      "##ì ##nh",
      "##ư ##ợ",
      "##á ##y",
      "m ##áy",
      "##ấ ##t",
      "##u ##a",
      "##ô ##ng",
      "t ##r",
      "##a ##m",
      "##i ##n",
      "kh ##ông",
      "n ##g",
      "p ##in",
      "##ớ ##i",
      "m ##ua",
      "##ê ##n",
      "##ượ ##c",
      "th ##ì",
      "đ ##ược",
      "##i ##ệ",
      "##_ ##t",
      "##am ##e",
      "r ##ất",
      "m ##à",
      "g ##i",
      "##à ##y",
      "##à ##i",
      "##ơ ##i",
      "l ##à",
      "nh ##ư",
      "p ##h",
      "c ##ó",
      "##ạ ##i",
      "t ##ố",
      "m ##ình",
      "n ##ó",
      "##a ##y",
      "q ##u",
      "##ù ##ng",
      "##c ##h",
      "##i ##_",
      "##ấ ##y",
      "##i ##ế",
      "##â ##u",
      "m ##ới",
      "tố ##t",
      "v ##à",
      "g ##ame",
      "d ##ùng",
      "##o ##ng",
      "s ##a",
      "o ##k",
      "ch ##ơi",
      "##u ##ng",
      "qu ##á",
      "##o ##n",
      "##a ##nh",
      "##i ##ề",
      "##t ##_",
      "như ##ng",
      "##á ##ng",
      "##ẹ ##p",
      "b ##ị",
      "gi ##á",
      "đ ##ẹp",
      "c ##á",
      "c ##ả",
      "##ạ ##c",
      "n ##ày",
      "m ##ượ",
      "##ầ ##n",
      "##p ##h",
      "t ##u",
      "##h ##ình",
      "kh ##á",
      "##ầ ##m",
      "##r ##a",
      "##_ ##l",
      "nh ##anh",
      "##â ##n",
      "##_ ##d",
      "c ##ũ",
      "##_ ##v",
      "s ##ạc",
      "##i ##ên",
      "##g ##i",
      "##n_ ##t",
      "mượ ##t",
      "##m ##_",
      "ng ##ày",
      "v ##ới",
      "c ##ame",
      "cũ ##ng",
      "##i ##d",
      "##_t ##h",
      "ổ ##n",
      "came ##ra",
      "ch ##ụ",
      "##ò ##n",
      "chụ ##p",
      "c ##òn",
      "##ụ ##ng",
      "##ơ ##n",
      "th ##ấy",
      "l ##ại",
      "##ọ ##i",
      "##ờ ##i",
      "##ỗ ##i",
      "##iề ##u",
      "##ậ ##t",
      "x ##ài",
      "t ##ầm",
      "s ##ả",
      "##ẩ ##m",
      "tr ##âu",
      "##a ##o",
      "ch ##o",
      "h ##ơn",
      "##u ##_",
      "##n_ ##hình",
      "kh ##i",
      "mà ##n_hình",
      "v ##ề",
      "##_d ##ụng",
      "##ồ ##i",
      "n ##ên",
      "ch ##ỉ",
      "##n_ ##ph",
      "##ư ##ớ",
      "tr ##ong",
      "##â ##n_",
      "h ##ơi",
      "##ú ##c",
      "##ả ##i",
      "##_ ##h",
      "##iệ ##t",
      "s ##ử",
      "##n_ph ##ẩm",
      "l ##ỗi",
      "sả ##n_phẩm",
      "##_ ##đ",
      "##i ##ê",
      "cả ##m_",
      "t ##ay",
      "##ắ ##t",
      "th ##áng",
      "##ân_ ##v",
      "##ô ##i",
      "h ##ình",
      "đ ##ã",
      "##ế ##t",
      "ng ##h",
      "##ân_v ##iên",
      "nh ##ân_viên",
      "r ##ồi",
      "đ ##ể",
      "h ##ay",
      "##ạ ##y",
      "l ##o",
      "nh ##iều",
      "l ##úc",
      "sa ##o",
      "c ##ủ",
      "m ##ọi",
      "cá ##i",
      "c ##on",
      "##_ ##nh",
      "r ##a",
      "đ ##iệ",
      "##o ##ại",
      "##à ##ng",
      "sử ##_dụng",
      "s ##ài",
      "##u ##ô",
      "##c ##_",
      "sa ##u",
      "##ò ##ng",
      "##n_t ##h",
      "##ư ##a",
      "##ẫ ##n",
      "tu ##y",
      "##i_ ##ch",
      "ph ##ải",
      "##ắ ##m",
      "##ậ ##n",
      "##e ##m",
      "##i ##ể",
      "nh ##iệt",
      "g ##ì",
      "h ##ết",
      "củ ##a",
      "nó ##i_ch",
      "v ##ẫn",
      "##ứ ##ng",
      "v ##ân",
      "ngh ##e",
      "##0 ##0",
      "cá ##c",
      "ng ##on",
      "th ##e",
      "nói_ch ##ung",
      "##_t ##ình",
      "nó ##ng",
      "nhiệt ##_tình",
      "ch ##ưa",
      "th ##ứ",
      "##ụ ##c",
      "##ổ ##i",
      "l ##ắm",
      "##_ ##c",
      "##ế ##u",
      "##a ##ng",
      "##uô ##n",
      "##o ##id",
      "##u ##y",
      "l ##a",
      "l ##uôn",
      "##nh ##_",
      "lo ##a",
      "##iế ##t",
      "##ọ ##ng",
      "q ##ua",
      "##à ##o",
      "đ ##ầ",
      "##iề ##n",
      "l ##âu",
      "##ộ ##t",
      "##ữ ##a",
      "ng ##ư",
      "m ##ạ",
      "##ậ ##y",
      "ngư ##ời",
      "t ##ệ",
      "##ạ ##n",
      "tuy ##ệ",
      "##u ##ố",
      "##_t ##r",
      "##f ##i",
      "l ##ên",
      "kh ##o",
      "##ắ ##c",
      "##á ##n",
      "c ##ấ",
      "t ##iế",
      "##gi ##oid",
      "##id ##ong",
      "##gioid ##idong",
      "the ##gioididong",
      "##ướ ##c",
      "ả ##nh",
      "la ##g",
      "##ượ ##ng",
      "w ##i",
      "##iệ ##n",
      "##ă ##ng",
      "khá ##c",
      "e ##m",
      "b ##ả",
      "##n_th ##oại",
      "điệ ##n_thoại",
      "##ư ##ờ",
      "x ##em",
      "nó ##i",
      "1 ##0",
      "l ##iê",
      "##ườ ##ng",
      "n ##ữa",
      "wi ##fi",
      "đ ##ề",
      "s ##am",
      "##ỏ ##i",
      "m ##ấy",
      "t ##ư",
      "l ##ần",
      "##ụ ##t",
      "và ##o",
      "k ##é",
      "đề ##u",
      "đ ##ổi",
      "##u_ ##hình",
      "cấ ##u_hình",
      "b ##ạn",
      "b ##iết",
      "##í ##ch",
      "##ậ ##p",
      "h ##àng",
      "##é ##t",
      "##ừ ##a",
      "n ##ào",
      "t ##ôi",
      "đ ##ơ",
      "##ộ ##ng",
      "##ặ ##t",
      "##o ##o",
      "s ##áng",
      "t ##ừ",
      "đ ##t",
      "tu ##ần",
      "m ##a",
      "đ ##ế",
      "##ạ ##m",
      "##s ##ung",
      "##á ##o",
      "##iế ##n",
      "t ##o",
      "ké ##m",
      "##ự ##c",
      "##ó ##ng",
      "th ##ất",
      "đế ##n",
      "##i ##m",
      "##á ##c",
      "##ả ##ng",
      "sam ##sung",
      "t ##ụt",
      "v ##ừa",
      "h ##ài",
      "nh ##ạy",
      "ch ##ạy",
      "v ##ậy",
      "##u ##b",
      "th ##iế",
      "##a ##i",
      "##ê ##m",
      "##n_ ##đ",
      "tr ##ước",
      "##_v ##ọng",
      "gi ##ật",
      "##_l ##òng",
      "cảm_ ##ứng",
      "##_v ##ụ",
      "h ##ô",
      "##t_ ##v",
      "##à ##nh",
      "##e ##b",
      "h ##o",
      "th ##ích",
      "hài ##_lòng",
      "##ấ ##n",
      "##t_ ##k",
      "##p ##p",
      "c ##am",
      "t ##iền",
      "##â ##y",
      "##t_v ##ời",
      "tuyệ ##t_vời",
      "thất ##_vọng",
      "c ##ao",
      "##ị ##nh",
      "th ##ôi",
      "##iệ ##m",
      "##ướ ##t",
      "b ##ắt",
      "đ ##á",
      "t ##ạm",
      "##ú ##t",
      "##q ##u",
      "s ##o",
      "##a ##l",
      "##n ##ăng",
      "nh ##ất",
      "##n_ ##m",
      "đ ##i",
      "##_l ##ượng",
      "liê ##n_",
      "g ##ọi",
      "m ##ở",
      "đ ##ang",
      "ứ ##ng",
      "##iể ##m",
      "ch ##ứ",
      "v ##ì",
      "s ##óng",
      "t ##ự",
      "##m ##_th",
      "##_ ##m",
      "tr ##ả",
      "n ##ét",
      "##a ##c",
      "l ##ướt",
      "##a ##n",
      "##t ##e",
      "n ##o",
      "g ##ần",
      "m ##ột",
      "y ##ếu",
      "##gi ##á",
      "thiế ##t_k",
      "thiết_k ##ế",
      "bả ##o",
      "2 ##0",
      "##_ ##b",
      "##ậ ##m",
      "ch ##ê",
      "s ##ẽ",
      "m ##ất",
      "##_ ##ch",
      "##qu ##ân",
      "h ##iệ",
      "##e ##n",
      "##_v ##ấn",
      "tư ##_vấn",
      "liên_ ##quân",
      "a ##i",
      "t ##ắt",
      "là ##m",
      "##u ##t",
      "##on ##e",
      "tiế ##ng",
      "##ấ ##p",
      "ch ##ậm",
      "##t_ ##m",
      "##ợ ##p",
      "##i_ ##đ",
      "đầ ##u",
      "##ằ ##ng",
      "##ơ ##ng",
      "##ứ ##c",
      "ch ##ất",
      "##ồ ##n",
      "gi ##ờ",
      "##ph ##one",
      "ứng ##_dụng",
      "b ##ình",
      "mạ ##ng",
      "đ ##áng",
      "##ặ ##c",
      "##_ ##s",
      "f ##ac",
      "##ng ##h",
      "ch ##án",
      "ng ##o",
      "##iệ ##u",
      "th ##ế",
      "đầ ##y",
      "##ữ ##ng",
      "n ##ếu",
      "##e ##o",
      "đ ##ó",
      "i ##phone",
      "##u ##ồn",
      "ch ##i",
      "nh ##ững",
      "##iể ##u",
      "c ##ập",
      "t ##í",
      "ph ##ục",
      "d ##o",
      "##à ##n",
      "c ##ực",
      "c ##ứ",
      "d ##òng",
      "đá ##nh_",
      "m ##ong",
      "đ ##ộ",
      "tr ##ên",
      "mạ ##nh",
      "đánh_ ##giá",
      "mà ##u",
      "o ##pp",
      "mượ ##t_m",
      "ngo ##ài",
      "mượt_m ##à",
      "b ##ằng",
      "##_nh ##ật",
      "opp ##o",
      "##_th ##ường",
      "##uố ##n",
      "##m ##i",
      "chất ##_lượng",
      "r ##õ",
      "phục ##_vụ",
      "##oo ##k",
      "##ặ ##ng",
      "##iê ##u",
      "cập ##_nhật",
      "m ##uốn",
      "##i ##nh",
      "##á ##t",
      "đ ##ồ",
      "##ố ##i",
      "##eb ##ook",
      "##ầ ##u",
      "t ##ại",
      "##ả ##n",
      "c ##ầm",
      "fac ##ebook",
      "##r ##o",
      "m ##ỗi",
      "##_ ##gi",
      "ph ##ẩm",
      "##uy ##ên",
      "nh ##a",
      "nh ##ì",
      "r ##e",
      "##ự ##c_",
      "y ##o",
      "##k ##h",
      "nh ##ận",
      "cả ##m_th",
      "##_c ##ả",
      "cảm_th ##ấy",
      "##_ ##n",
      "sả ##n",
      "t ##ới",
      "##ố ##ng",
      "tu ##ột",
      "##i_đ ##ộng",
      "##ư ##ơng",
      "yo ##ut",
      "b ##ật",
      "h ##ã",
      "sa ##ng",
      "##í ##nh",
      "bình ##_thường",
      "d ##ễ",
      "nh ##ỏ",
      "##t_ ##n",
      "##ub ##e",
      "l ##ư",
      "hô ##m",
      "##ă ##m",
      "b ##ao",
      "m ##ức",
      "##_h ##ành",
      "th ##ua",
      "nh ##ẹ",
      "gi ##ả",
      "##ub ##g",
      "##n_đ ##ịnh",
      "no ##te",
      "ổ ##n_định",
      "##e ##t",
      "điệ ##n",
      "yout ##ube",
      "kh ##ỏi",
      "th ##êm",
      "##_th ##ể",
      "chi ##p",
      "##ọ ##n",
      "d ##ù",
      "đ ##âu",
      "tr ##ung",
      "h ##ỏi",
      "##a ##r",
      "nhì ##n",
      "nh ##ạc",
      "kh ##ó",
      "##ngh ##iệm",
      "##q ##ua",
      "th ##oại",
      "s ##iêu",
      "##á ##i",
      "##ú ##ng",
      "kho ##ảng",
      "hô ##m_",
      "##b ##iến",
      "ng ##uồn",
      "##i ##v",
      "th ##ật",
      "cảm_ ##biến",
      "##i_ ##nghiệm",
      "trả ##i_nghiệm",
      "p ##ubg",
      "##ậ ##n_",
      "##t_ ##s",
      "đ ##ủ",
      "ph ##im",
      "1 ##1",
      "b ##ên",
      "đ ##êm",
      "##l ##e",
      "t ##ất",
      "##e ##s",
      "th ##ờ",
      "##uố ##ng",
      "##ấ ##m",
      "th ##o",
      "hã ##ng",
      "##ấ ##u",
      "m ##ặt",
      "v ##id",
      "nh ##é",
      "##l ##u",
      "##00 ##0",
      "tuyệ ##t",
      "v ##iên",
      "í ##t",
      "##_đ ##ộ",
      "vid ##eo",
      "v ##ài",
      "##ng ##_h",
      "tố ##i",
      "n ##ăm",
      "r ##ẻ",
      "##i_ ##h",
      "đ ##ây",
      "##â ##m",
      "x ##uống",
      "bảo ##_hành",
      "1 ##00",
      "đ ##iều",
      "##ị ##u",
      "nh ##ân",
      "##al ##o",
      "m ##i",
      "x ##i",
      "kho ##ẻ",
      "l ##ấy",
      "##ắ ##c_",
      "nh ##ận_",
      "c ##o",
      "##ử ##a",
      "mà ##n",
      "thờ ##i_",
      "n ##ay",
      "z ##alo",
      "k ##ế",
      "đ ##iểm",
      "##m ##ar",
      "m ##ờ",
      "##ả ##nh",
      "hiệ ##u_",
      "c ##ần",
      "v ##iệ",
      "b ##ỏ",
      "d ##ụng",
      "##u ##i",
      "##ọ ##c",
      "##_l ##ại",
      "1 ##2",
      "đ ##úng",
      "bả ##n",
      "3 ##0",
      "m ##ặc",
      "v ##ô",
      "cá ##ch",
      "w ##eb",
      "##ao ##mi",
      "x ##ong",
      "##ừ ##ng",
      "##gi ##an",
      "l ##ớ",
      "lư ##ng",
      "tất ##_cả",
      "thời_ ##gian",
      "ủ ##ng_h",
      "##ộ ##i",
      "ch ##ắc",
      "ủng_h ##ộ",
      "qua ##y",
      "##mar ##t",
      "x ##ấu",
      "##_d ##ù",
      "hiệu_ ##năng",
      "##_ ##ph",
      "ph ##ần",
      "##_h ##ợp",
      "the ##o",
      "k ##i",
      "r ##am",
      "th ##ậ",
      "ph ##ầ",
      "liê ##n_t",
      "b ##áo",
      "h ##ợp",
      "n ##ặng",
      "p ##ro",
      "t ##ác",
      "t ##ai",
      "xi ##aomi",
      "liên_t ##ục",
      "##r ##e",
      "##ề ##n",
      "ch ##u",
      "s ##ố",
      "đ ##a",
      "##_h ##àng",
      "##_nh ##iên",
      "b ##án",
      "g ##h",
      "h ##ỗ",
      "tr ##iệu",
      "ch ##ế",
      "mặc ##_dù",
      "##_đ ##iều",
      "lớ ##n",
      "##ợ ##i",
      "th ##ử",
      "k ##iểu",
      "ư ##ng",
      "##ắ ##n",
      "th ##ường",
      "##_l ##âu",
      "kho ##á",
      "a ##n",
      "c ##ùng",
      "h ##ao",
      "##u_ ##đ",
      "##nh ##ận",
      "cảm_ ##nhận",
      "ch ##iến",
      "##i_ ##v",
      "##_tr ##ợ",
      "hỗ ##_trợ",
      "t ##ình",
      "##ã ##i",
      "kh ##uô",
      "##n_m ##ặt",
      "khuô ##n_mặt",
      "a ##nh",
      "s ##ắc",
      "ph ##í",
      "qu ##ảng",
      "c ##ài",
      "##m ##e",
      "##t_s ##ự",
      "thậ ##t_sự",
      "##ạ ##ng",
      "đồ ##ng",
      "5 ##0",
      "v ##s",
      "##ỉ ##nh",
      "nh ##à",
      "kh ##uyên",
      "tr ##ừ",
      "g ##b",
      "ma ##u",
      "hiệ ##n_t",
      "tác ##_vụ",
      "##i_ ##l",
      "lâu ##_lâu",
      "##_ ##ảnh",
      "##ề ##m",
      "b ##ấm",
      "s ##im",
      "ma ##x",
      "c ##ực_",
      "d ##ung",
      "ng ##ay",
      "như ##_v",
      "##_c ##áo",
      "cực_ ##k",
      "x ##anh",
      "##u_ ##c",
      "hôm_ ##qua",
      "chế ##_độ",
      "quảng ##_cáo",
      "v ##iv",
      "đ ##em",
      "##9 ##0",
      "kh ##ở",
      "##u ##ất",
      "##ph ##ục",
      "giả ##m",
      "như_v ##ậy",
      "##ạ ##t",
      "có ##_thể",
      "viv ##o",
      "th ##ông",
      "##t_ ##đ",
      "nhận_ ##d",
      "vs ##mart",
      "h ##iểu",
      "kh ##ắc_",
      "##u_c ##ầu",
      "khắc_ ##phục",
      "â ##m_th",
      "##_ ##k",
      "##ê ##u",
      "âm_th ##anh",
      "1 ##5",
      "đ ##ừng",
      "##ự ##a",
      "đ ##ứng",
      "ch ##iế",
      "ho ##ặc",
      "##_gi ##ờ",
      "##lu ##s",
      "ố ##p",
      "##l ##l",
      "ph ##ù",
      "##n_m ##ềm",
      "phầ ##n_mềm",
      "b ##a",
      "p ##lus",
      "##u ##ộ",
      "##ấ ##n_đ",
      "an ##d",
      "khở ##i_động",
      "v ##ấn_đ",
      "x ##o",
      "##_ ##ý",
      "ch ##uy",
      "vấn_đ ##ề",
      "ch ##í",
      "##n_ ##b",
      "b ##in",
      "đ ##ặ",
      "##ó ##c",
      "##ả ##n_",
      "##_t ##iền",
      "có ##_điều",
      "##t_n ##ối",
      "kế ##t_nối",
      "d ##i_động",
      "ch ##ung",
      "m ##o",
      "##ả ##y",
      "th ##i",
      "ch ##út",
      "b ##àn",
      "##b ##iệt",
      "nh ##u_cầu",
      "##_l ##ý",
      "##p ##s",
      "nhận_d ##iện",
      "phù ##_hợp",
      "##i_ ##m",
      "khá ##ch",
      "h ##d",
      "hình ##_ảnh",
      "##c_ ##biệt",
      "##ủ ##ng",
      "##â ##n_th",
      "th ##ấp",
      "chiế ##c",
      "m ##ang",
      "##_ ##kh",
      "tiế ##c",
      "thế ##_gi",
      "t ##ải",
      "##_n ##ào",
      "##t_n ##am",
      "việ ##t_nam",
      "thế_gi ##ới",
      "##_ ##x",
      "h ##ố",
      "ph ##ân",
      "##ướ ##ng",
      "##ỏ ##ng",
      "##_ch ##ịu",
      "đ ##ò",
      "ch ##ọn",
      "kh ##úc",
      "##_l ##à",
      "re ##d",
      "h ##ai",
      "l ##iên",
      "##ạ ##ch",
      "c ##ơ",
      "f ##i",
      "##n_ ##n",
      "khó ##_chịu",
      "7 ##0",
      "c ##ông",
      "f ##u",
      "t ##ặng",
      "v ##u",
      "ch ##u_đ",
      "chu_đ ##áo",
      "b ##ộ",
      "d ##ư",
      "tu ##i",
      "##_nh ##ận",
      "##c_ ##năng",
      "chứ ##c_năng",
      "tí ##nh_",
      "đặ ##c_biệt",
      "c ##uộ",
      "g ##oo",
      "t ##in",
      "##á ##nh",
      "tính_ ##năng",
      "a ##pp",
      "r ##è",
      "##ể ##n",
      "##i_h ##ận",
      "hố ##i_hận",
      "b ##ền",
      "##ú ##i",
      "f ##ps",
      "t ##es",
      "đ ##ọc",
      "##i ##ng",
      "cảm_ ##ơn",
      "tuy ##_nhiên",
      "ch ##ấp",
      "mà ##ng",
      "ph ##út",
      "qu ##ân",
      "cả ##m",
      "##_h ##o",
      "##_tr ##ọng",
      "red ##mi",
      "m ##n",
      "đ ##en",
      "ch ##ính",
      "##gi ##ác",
      "cảm_ ##giác",
      "v ##iệt",
      "##í ##u",
      "##r ##oid",
      "##ở ##ng",
      "nh ##ảy",
      "là ##m_",
      "tư ##ơng",
      "fu ##ll",
      "x ##a",
      "##o ##s",
      "##_t ##ội",
      "tho ##ả",
      "cực_k ##ì",
      "5 ##000",
      "d ##án",
      "b ##à",
      "h ##ồi",
      "h ##iện",
      "x ##ứng",
      "##o ##ảng",
      "##2 ##0",
      "##_t ##ra",
      "##iê ##ng",
      "and ##roid",
      "s ##ự",
      "gi ##ống",
      "sa ##i",
      "##_đ ##ộng",
      "##_tr ##ạng",
      "##i_v ##ẻ",
      "vu ##i_vẻ",
      "dư ##ới",
      "5 ##1",
      "b ##ất",
      "t ##i",
      "ả ##o",
      "##m ##x",
      "##_th ##oảng",
      "tiế ##p",
      "cuộ ##c_",
      "##_ ##ngh",
      "th ##u",
      "##_c ##ấp",
      "re ##al",
      "sang ##_trọng",
      "co ##i",
      "tình ##_trạng",
      "xo ##á",
      "tes ##t",
      "b ##uồn",
      "ê ##m",
      "##g ##ọi",
      "##e ##r",
      "##ẳ ##ng",
      "##ị ##ch",
      "ngh ##ĩ",
      "hiện_t ##ượng",
      "chấp ##_nhận",
      "c ##ửa",
      "h ##iể",
      "##t ##h",
      "##ẩ ##n",
      "gi ##ao",
      "cuộc_ ##gọi",
      "b ##ây",
      "th ##ay",
      "ch ##ả",
      "##_nh ##iệm",
      "ho ##à",
      "mỗi ##_tội",
      "dung ##_lượng",
      "chuy ##ển",
      "real ##me",
      "k ##ính",
      "m ##es",
      "đ ##ô",
      "##ắ ##ng",
      "##_đ ##ịnh",
      "##_m ##à",
      "##_b ##ản",
      "cơ ##_bản",
      "##i ##a",
      "##ớ ##t",
      "ma ##h",
      "##i_h ##ỏi",
      "chí ##p",
      "khách ##_hàng",
      "đò ##i_hỏi",
      "##_t ##iên",
      "lo ##ạn",
      "đa ##_nhiệm",
      "##i_m ##ái",
      "thoả ##i_mái",
      "m ##ộ",
      "m ##p",
      "t ##ậ",
      "v ##iền",
      "##n ##ay",
      "##ặ ##p",
      "th ##ân_th",
      "ch ##ờ",
      "n ##út",
      "x ##íu",
      "##ạ ##o",
      "##n_th ##ị",
      "tự ##_động",
      "k ##êu",
      "##ắ ##p",
      "a ##d",
      "l ##i",
      "m ##ay",
      "n ##ổi",
      "r ##iêng",
      "ấ ##m",
      "##ó ##p",
      "ch ##ỗ",
      "điệ ##n_m",
      "phí ##m",
      "hiể ##n_thị",
      "điện_m ##áy",
      "a ##nh_",
      "đ ##ịnh",
      "##a ##p",
      "##ú ##p",
      "##ả ##o",
      "ch ##ạm",
      "##n_t ##r",
      "đầu ##_tiên",
      "ki ##nh_",
      "4 ##000",
      "##ó ##m",
      "##s ##ắc",
      "##n_t ##âm",
      "to ##àn",
      "hôm_ ##nay",
      "t ##úi",
      "ă ##n",
      "##k ##ia",
      "ch ##ịu",
      "##n_ ##l",
      "##_th ##ương",
      "nhất ##_là",
      "dễ ##_thương",
      "g ##ặp",
      "o ##n",
      "x ##in",
      "##ă ##n",
      "##m ##in",
      "##x ##y",
      "##ù ##i",
      "ch ##iều",
      "nh ##ỉ",
      "cửa ##_hàng",
      "h ##ộ",
      "##t ##t",
      "##á ##ch",
      "##e ##l",
      "th ##ỉnh",
      "ph ##át",
      "##uố ##t",
      "ki ##a",
      "##i_l ##ầm",
      "x ##uất",
      "##_ ##r",
      "mà ##u_",
      "##_nh ##ư",
      "hợp ##_lý",
      "b ##ác",
      "â ##m",
      "th ##ể",
      "##_b ##ình",
      "bây ##_giờ",
      "ad ##min",
      "màu_ ##sắc",
      "c ##ục",
      "ch ##ị",
      "nh ##ựa",
      "cả ##i",
      "##n_ph ##í",
      "##_đ ##áng",
      "##nh_ ##s",
      "mes ##s",
      "thân_th ##iện",
      "k ##iểm",
      "n ##ửa",
      "t ##óm",
      "##h ##o",
      "##i ##e",
      "##ổ ##ng",
      "##x ##ét",
      "th ##ương",
      "ch ##ữ",
      "6 ##0",
      "h ##ệ",
      "r ##ung",
      "đ ##ấy",
      "##n ##ap",
      "##w ##e",
      "##ầ ##y",
      "ng ##oại",
      "gi ##úp",
      "tố ##i_",
      "thiế ##u",
      "##en ##o",
      "việ ##c",
      "ưng ##_ý",
      "kiểm ##_tra",
      "ph ##ụ",
      "##_đ ##iểm",
      "##oo ##th",
      "fac ##e",
      "##kh ##ủng",
      "goo ##g",
      "xứng ##_đáng",
      "kinh_ ##khủng",
      "##_ ##ng",
      "##k ##k",
      "th ##ao",
      "chỉ ##nh",
      "no ##kia",
      "trung ##_bình",
      "##iv ##e",
      "đồng ##_tiền",
      "bà ##n_phí",
      "goog ##le",
      "bàn_phí ##m",
      "x ##ạc",
      "##ử ##i",
      "##â ##ng",
      "kh ##uy",
      "##_t ##ác",
      "sa ##i_lầm",
      "20 ##1",
      "##_ho ##ạ",
      "7 ##1",
      "g ##ọn",
      "h ##ua",
      "s ##ung",
      "th ##á",
      "th ##ực_",
      "ch ##ẳng",
      "tr ##ang",
      "tr ##eo",
      "không ##_thể",
      "ph ##ản_",
      "##_nh ##ớ",
      "đồ ##_hoạ",
      "ba ##n_đ",
      "bộ ##_nhớ",
      "tậ ##n_t",
      "##we ##i",
      "1 ##3",
      "b ##ù",
      "c ##àng",
      "g ##óc",
      "g ##ửi",
      "n ##ước",
      "##a ##t",
      "##_ ##g",
      "##è ##m",
      "##_th ##ế",
      "##_đ ##ợi",
      "lo ##ại",
      "đá ##nh",
      "##_s ##ao",
      "thế ##_nào",
      "thỉnh ##_thoảng",
      "n ##t",
      "s ##et",
      "s ##nap",
      "##ệ ##t",
      "##s ##ự",
      "##n_ ##ch",
      "và ##ng",
      "##lu ##et",
      "thực_ ##sự",
      "tận_t ##ình",
      "4 ##5",
      "b ##luet",
      "c ##ắm",
      "r ##ộng",
      "x ##ử",
      "đ ##ợi",
      "##á ##t_",
      "##ớ ##m",
      "##b ##i",
      "nh ##ược",
      "tr ##ận",
      "tho ##át",
      "tương ##_đ",
      "c ##ân_",
      "j ##o",
      "m ##ẫ",
      "u ##p",
      "##á ##m",
      "##_đ ##ặt",
      "thao ##_tác",
      "hua ##wei",
      "h ##ư",
      "##ạ ##nh",
      "##ẳ ##n",
      "##n_ ##c",
      "tr ##ắng",
      "##_l ##u",
      "##_d ##ài",
      "tự ##_nhiên",
      "mong ##_đợi",
      "##re ##e",
      "cài ##_đặt",
      "##_kh ##i",
      "b ##t",
      "d ##uy",
      "h ##ẳn",
      "k ##èm",
      "m ##ắt",
      "m ##ỏng",
      "y ##ê",
      "##u ##o",
      "##ư ##ởng",
      "ch ##ập",
      "ch ##ống",
      "##ượ ##t",
      "##iệ ##c",
      "có ##_khi",
      "##_v ##iệc",
      "##_tr ##í",
      "ho ##ạ",
      "tại ##_sao",
      "nhược ##_điểm",
      "1 ##6",
      "4 ##0",
      "9 ##0",
      "d ##ự",
      "m ##inh",
      "n ##âng",
      "ấ ##y",
      "##nh ##ắc",
      "tr ##ở",
      "như ##_thế",
      "ph ##ông",
      "tí ##nh",
      "hiện_t ##ại",
      "bluet ##ooth",
      "cân_ ##nhắc",
      "b ##i",
      "b ##ắ",
      "f ##ree",
      "k ##ỹ",
      "l ##ồi",
      "r ##eno",
      "s ##ướng",
      "s ##ớm",
      "t ##iệ",
      "ô ##ng",
      "##t ##ing",
      "cho ##i",
      "##_x ##uyên",
      "tóm ##_lại",
      "khuy ##ế",
      "c ##al",
      "i ##p",
      "l ##ựa",
      "s ##ợ",
      "v ##ạch",
      "w ##e",
      "ấ ##n",
      "##a ##xy",
      "##_ ##ra",
      "gi ##ới",
      "##_h ##iệu",
      "bao ##_giờ",
      "nhận_ ##xét",
      "chu ##ẩn",
      "gh ##ê",
      "thường ##_xuyên",
      "b ##é",
      "g ##al",
      "h ##ề",
      "n ##ản",
      "đ ##ặt",
      "##p ##_",
      "##ư ##ng",
      "tr ##c",
      "sử ##a",
      "cal ##l",
      "k ##g",
      "l ##ắc",
      "t ##a",
      "t ##ì",
      "##u ##ổi",
      "##ệ ##n",
      "##e ##ng",
      "##s ##ao",
      "th ##ời",
      "ch ##ủ",
      "nh ##o",
      "ng ##ang",
      "gi ##ải",
      "ph ##ê",
      "##gi ##ải",
      "##ân_ ##giải",
      "từ ##ng",
      "##_ch ##ờ",
      "mi ##ui",
      "##t_đ ##ộng",
      "túi ##_tiền",
      "##bi ##le",
      "jo ##y",
      "hoạ ##t_động",
      "gal ##axy",
      "4 ##8",
      "d ##ài",
      "h ##ọ",
      "r ##o",
      "đ ##ối",
      "nh ##ớ",
      "##n_ ##h",
      "tố ##c",
      "tiế ##t_k",
      "lư ##u",
      "làm_ ##sao",
      "thương ##_hiệu",
      "tiết_k ##iệm",
      "6 ##4",
      "h ##i",
      "h ##ướng",
      "l ##ỗ",
      "s ##ho",
      "v ##ăng",
      "##h ##ồi",
      "th ##ui",
      "nh ##ắn",
      "##u_ ##m",
      "##_m ##ắt",
      "##_s ##ố",
      "set ##ting",
      "1 ##8",
      "3 ##2",
      "c ##ường",
      "d ##k",
      "d ##ịch",
      "i ##os",
      "l ##ời",
      "v ##ọng",
      "đ ##mx",
      "##_ ##y",
      "##ư ##ỡ",
      "kh ##ủng",
      "##in ##e",
      "tố ##n",
      "qu ##y",
      "##i_ ##kh",
      "nhưng ##_mà",
      "tu ##ỳ",
      "##_c ##ùng",
      "20 ##20",
      "vô ##_cùng",
      "##n_b ##ản",
      "phản_ ##hồi",
      "chập ##_chờ",
      "chập_chờ ##n",
      "b ##ực_",
      "r ##ưỡ",
      "t ##âm",
      "v ##i",
      "##ứ ##t",
      "##x ##uất",
      "##ắ ##n_t",
      "ch ##s",
      "nh ##ắn_t",
      "giá ##_cả",
      "##_b ##ò",
      "##_ch ##ọn",
      "cực_k ##ỳ",
      "hộ ##p",
      "tương_đ ##ối",
      "lựa ##_chọn",
      "tốc ##_độ",
      "rưỡ ##i",
      "nhắn_t ##in",
      "1 ##9",
      "m ##át",
      "m ##ãi",
      "t ##ận",
      "y ##êu",
      "ý ##_định",
      "##u ##p",
      "th ##ị",
      "##_t ##ay",
      "##_l ##í",
      "##_l ##ực",
      "##_d ##iện",
      "củ ##ng",
      "tối_ ##ư",
      "nho ##è",
      "sho ##p",
      "r ##ớt",
      "v ##in",
      "x ##e",
      "đ ##ỉnh",
      "##h ##i",
      "##ị ##n",
      "##_th ##u",
      "trâu ##_bò",
      "lâu ##_dài",
      "ho ##ài",
      "độ ##_ph",
      "nha ##u",
      "giả ##m_",
      "mi ##c",
      "chu ##ông",
      "đô ##i_kh",
      "anh_ ##em",
      "on ##l",
      "đôi_kh ##i",
      "c ##ùi",
      "l ##ung",
      "s ##ống",
      "v ##ỡ",
      "##z ##z",
      "##ố ##c",
      "th ##ẻ",
      "tr ##ầy",
      "ho ##i",
      "li ##te",
      "độ_ph ##ân_giải",
      "giảm_ ##giá",
      "0 ##00",
      "d ##mx",
      "h ##ơ",
      "đ ##è",
      "ng ##uyên",
      "##_d ##áng",
      "##_th ##iện",
      "##i_đ ##ộ",
      "ngoài ##_ra",
      "mi ##k",
      "mo ##bile",
      "cải ##_thiện",
      "thá ##i_độ",
      "cường ##_lực",
      "1 ##4",
      "k ##ĩ",
      "đ ##k",
      "ư ##u_đ",
      "##m ##ình",
      "##_v ##ẻ",
      "với ##_lại",
      "đá ##p_",
      "##_m ##ật",
      "bảo ##_mật",
      "12 ##8",
      "##_k ##iến",
      "##_g ##óp",
      "yê ##n_tâm",
      "đáp_ ##ứng",
      "9 ##90",
      "f ##an",
      "i ##n",
      "k ##ết",
      "m ##ẹ",
      "á ##m",
      "##a ##s",
      "##_ ##giá",
      "##_ ##qua",
      "##í ##t",
      "##ồ ##ng",
      "th ##ực",
      "tr ##ợ",
      "ph ##à",
      "có ##_vẻ",
      "##iế ##ng",
      "##_th ##iệu",
      "##_b ##áo",
      "##_s ##ắc",
      "##_s ##ánh",
      "quay ##_ph",
      "thông ##_báo",
      "giao ##_diện",
      "ban_đ ##ầu",
      "45 ##00",
      "nâng ##_cấp",
      "giới ##_thiệu",
      "quay_ph ##im",
      "r ##ơi",
      "v ##n",
      "w ##a",
      "đ ##ắt",
      "đ ##ập",
      "##a ##u",
      "##a ##te",
      "##ó ##n",
      "##o ##k",
      "##_t ##ung",
      "gi ##a",
      "ph ##iê",
      "##uy ##ện",
      "##_tr ##ời",
      "tư ##ởng",
      "thế ##_n",
      "nhì ##n_ch",
      "##_k ##iện",
      "xử ##_lý",
      "chủ ##_y",
      "phiê ##n_bản",
      "thế_n ##ày",
      "nhìn_ch ##ung",
      "chủ_y ##ếu",
      "d ##i",
      "d ##ành",
      "h ##z",
      "l ##u",
      "s ##el",
      "v ##o",
      "v ##ui",
      "ý ##_kiến",
      "##á ##p",
      "##â ##t",
      "##s ##et",
      "nh ##ập",
      "ng ##ầm",
      "sa ##c",
      "ngh ##iệm",
      "##c_ ##ch",
      "up ##d",
      "bực_ ##mình",
      "sel ##fi",
      "2 ##4",
      "2 ##5",
      "c ##uố",
      "h ##ạ",
      "k ##ể",
      "l ##ượng",
      "v ##uốt",
      "đ ##ường",
      "ơ ##i",
      "##l ##ay",
      "##ó ##i",
      "##q ##uố",
      "th ##anh",
      "qu ##ả",
      "qu ##ần",
      "##_th ##ành",
      "##_h ##iện",
      "kho ##ản",
      "trả ##_góp",
      "hã ##y",
      "##t_s ##ố",
      "##i_l ##úc",
      "goo ##d",
      "đô ##i_lúc",
      "mộ ##t_số",
      "tối_ư ##u",
      "ưu_đ ##iểm",
      "##quố ##c",
      "h ##ở",
      "s ##ụt",
      "s ##ập",
      "w ##f",
      "đ ##ời",
      "đ ##ộng",
      "##m ##o",
      "##ê ##n_",
      "kh ##ả",
      "##_d ##ẫn",
      "##u_ ##nh",
      "##_tr ##ừ",
      "cấ ##u",
      "ngo ##n_l",
      "##_điều ##_hành",
      "mo ##i",
      "fi ##re",
      "##_ngh ##ệ",
      "nt ##n",
      "we ##d",
      "tì ##m",
      "##eng ##er",
      "dịch ##_vụ",
      "upd ##ate",
      "ngon_l ##ành",
      "a ##c",
      "b ##ổ",
      "b ##ực",
      "d ##ở",
      "l ##ác",
      "l ##ive",
      "n ##ền",
      "v ##ời",
      "v ##ãi",
      "á ##nh_s",
      "đ ##ố",
      "ứ ##c_ch",
      "##u ##g",
      "##ợ ##t",
      "##ự ##ng",
      "th ##ành",
      "ch ##ai",
      "nh ##ấn",
      "loa ##d",
      "no ##t",
      "công ##_nghệ",
      "hoà ##n_h",
      "hệ ##_điều_hành",
      "mẫ ##u_m",
      "##_lu ##ận",
      "giải ##_trí",
      "lung ##_tung",
      "ánh_s ##áng",
      "ức_ch ##ế",
      "hoàn_h ##ảo",
      "mẫu_m ##ã",
      "6 ##6",
      "8 ##0",
      "b ##ố",
      "b ##iến",
      "h ##k",
      "t ##ăng",
      "t ##ổng",
      "v ##ụ",
      "x ##ịn",
      "##_ ##quốc",
      "##e ##e",
      "##ị ##p",
      "ch ##e",
      "ch ##ân_th",
      "##_t ##iện",
      "##ch ##ị",
      "##iể ##n",
      "xem ##_lại",
      "##im ##e",
      "bình ##_luận",
      "##ro ##i",
      "kiểu ##_dáng",
      "##n_n ##ữa",
      "mộ ##t_",
      "anh_ ##chị",
      "201 ##9",
      "onl ##ine",
      "hơ ##n_nữa",
      "selfi ##e",
      "b ##uổi",
      "d ##ữ",
      "h ##ỏng",
      "m ##iếng",
      "n ##s",
      "t ##ý",
      "v ##a",
      "đ ##e",
      "##g ##ạo",
      "##õ ##i",
      "ng ##ón",
      "##_t ##ế",
      "##_t ##iề",
      "##_t ##ính",
      "gi ##ữ",
      "##c_ ##s",
      "cao ##_cấp",
      "##_s ##ản_",
      "đồng ##_tiề",
      "nhà ##_sản_",
      "##n_b ##át_",
      "ti ##n_t",
      "ngoại ##_trừ",
      "khuyế ##n_m",
      "đồng_tiề ##n_bát_",
      "nhà_sản_ ##xuất",
      "đồng_tiền_bát_ ##gạo",
      "5 ##00",
      "b ##l",
      "c ##ụ",
      "c ##ạnh",
      "g ##ái",
      "o ##f",
      "o ##ut",
      "r ##út",
      "s ##inh",
      "s ##ạt",
      "t ##iết",
      "x ##ước",
      "##i ##i",
      "##ù ##m",
      "##ố ##t",
      "##q ##uy",
      "ch ##ă",
      "ch ##ấm",
      "ch ##ắc_",
      "nh ##ung",
      "kh ##u",
      "gi ##ây",
      "##ch ##ắn",
      "giá ##_như",
      "##_l ##iệu",
      "##_th ##ời",
      "##u_ ##h",
      "##_c ##àng",
      "##oo ##m",
      "rõ ##_r",
      "re ##set",
      "app ##le",
      "##n_tr ##ọng",
      "##tt ##tt",
      "xuất ##_sắc",
      "như_thế ##_nào",
      "##_thu ##ật",
      "đè ##n",
      "chắc_ ##chắn",
      "3 ##5",
      "7 ##20",
      "9 ##1",
      "9 ##9",
      "b ##ữa",
      "b ##óng",
      "l ##ý",
      "l ##ổi",
      "n ##am",
      "##a ##g",
      "nh ##ạt",
      "kh ##ựng",
      "##n_ ##d",
      "##m_ ##s",
      "thích ##_hợp",
      "##le ##d",
      "and ##roi",
      "##ản_ ##l",
      "công ##_việc",
      "bất ##_tiện",
      "mess ##enger",
      "khuyến_m ##ãi",
      "f ##l",
      "l ##òng",
      "n ##ữ",
      "s ##uy",
      "t ##g",
      "x ##inh",
      "##ù ##a",
      "kh ##ung",
      "ng ##ắt",
      "ng ##uy",
      "##_t ##iết",
      "như ##g",
      "ph ##ả",
      "qu ##ản_l",
      "##i_ ##âm",
      "##t_ ##nh",
      "chụ ##c",
      "##_h ##ưởng",
      "##_tr ##ình",
      "ké ##p",
      "no ##i",
      "giả ##i_",
      "trung ##_quốc",
      "hợp ##_lí",
      "thông ##_số",
      "thi ##_thoảng",
      "##_ngh ##ĩ",
      "âm ##_lượng",
      "##u_nh ##ư",
      "8 ##5",
      "c ##âu",
      "d ##ày",
      "h ##y",
      "k ##inh",
      "r ##ùi",
      "đ ##ưa",
      "đ ##ợt",
      "##_ ##hình",
      "##_ ##năng",
      "##g ##on",
      "##d ##ra",
      "##ế ##t_đ",
      "nh ##i",
      "nh ##ậy",
      "tr ##ưa",
      "qu ##à",
      "qu ##en",
      "##t_ ##h",
      "##_d ##o",
      "hình ##_như",
      "##_nh ##ân",
      "##n_th ##iện",
      "##_c ##ái",
      "ảnh ##_hưởng",
      "chi ##_tiết",
      "gh ##i_âm",
      "##i_v ##ới",
      "hoà ##n_thiện",
      "quy ##ết_đ",
      "đố ##i_với",
      "##dra ##gon",
      "quyết_đ ##ịnh",
      "9 ##8",
      "a ##k",
      "h ##u",
      "n ##ổ",
      "n ##ắm",
      "n ##ăng",
      "p ##r",
      "s ##e",
      "t ##ết",
      "t ##iện",
      "v ##á",
      "v ##ỏ",
      "##m ##ẽ",
      "th ##an",
      "máy ##_ảnh",
      "tr ##ời",
      "ng ##e",
      "##_t ##ục",
      "mà ##_c",
      "##ch ##út",
      "##m_ ##ch",
      "##_c ##ông",
      "##nh_ ##mẽ",
      "mạ ##nh_mẽ",
      "so ##_sánh",
      "làm ##_việc",
      "##_ph ##òng",
      "##t_đ ##ầu",
      "fi ##x",
      "##n_n ##àn",
      "phụ ##_kiện",
      "##uo ##c",
      "dự ##_phòng",
      "bắ ##t_đầu",
      "phà ##n_nàn",
      "một_ ##chút",
      "suy ##_nghĩ",
      "mà_c ##òn",
      "2 ##1",
      "b ##ài",
      "c ##m",
      "c ##ung",
      "g ##o",
      "k ##ì",
      "l ##ỡ",
      "t ##à",
      "t ##iề",
      "t ##ấm",
      "đ ##ư",
      "đ ##ỡ",
      "đ ##o",
      "đ ##ăng",
      "##a ##ra",
      "ch ##ú",
      "ch ##ân",
      "kh ##iến",
      "tr ##ải",
      "##_t ##í",
      "ph ##át_",
      "##i_ ##b",
      "##t_ ##b",
      "đẹp ##_mắt",
      "##_nh ##ất",
      "qua ##n_trọng",
      "##te ##l",
      "co ##m",
      "xo ##ay",
      "đò ##i",
      "tiếp ##_tục",
      "ngoại ##_hình",
      "duy ##_nhất",
      "hướng ##_dẫn",
      "khả ##_năng",
      "##quy ##ết",
      "chă ##m_s",
      "phát_ ##h",
      "chăm_s ##óc",
      "a ##mo",
      "b ##ắn",
      "b ##ắp",
      "c ##ỡ",
      "c ##ây",
      "d ##ây",
      "d ##ính",
      "h ##ế",
      "p ##lay",
      "s ##mart",
      "t ##ùm",
      "v ##os",
      "đ ##ổ",
      "đ ##eo",
      "##u ##s",
      "##_ ##ai",
      "##t ##ra",
      "##ò ##i",
      "##9 ##90",
      "ch ##úng",
      "##iệ ##p",
      "##_t ##in",
      "##iế ##m",
      "##_l ##oại",
      "##_đ ##ầu",
      "##_nh ##iêu",
      "nói_ch ##uyện",
      "##t_m ##ắt",
      "những ##_ai",
      "gh ##i",
      "xuất ##_hiện",
      "##ie ##u",
      "snap ##dragon",
      "mẫ ##u",
      "ro ##m",
      "thị ##_tr",
      "kể ##_cả",
      "quản_l ##ý",
      "3 ##1",
      "c ##ố",
      "g ##óp",
      "m ##ã",
      "p ##i",
      "t ##t",
      "t ##ên",
      "t ##ức",
      "u ##l",
      "ơ ##n",
      "##n ##ày",
      "##l ##o",
      "##ẹ ##t",
      "##ụ ##i",
      "##o ##àn",
      "##ở ##i",
      "##ằ ##m",
      "ch ##ương",
      "kh ##en",
      "được ##_cái",
      "##_t ##úi",
      "sa ##u_",
      "##_v ##iên",
      "##_th ##ống",
      "##_đ ##ủ",
      "##ân_v ##ân",
      "ra ##_mắt",
      "##_tr ##ong",
      "hiệ ##u",
      "đáng ##_giá",
      "đầy ##_đủ",
      "bao ##_nhiêu",
      "##qua ##n",
      "chu ##p",
      "ban_đ ##êm",
      "bắ ##t_mắt",
      "giải_ ##quyết",
      "hy ##_vọng",
      "amo ##led",
      "sau_ ##này",
      "c ##ân",
      "d ##ám",
      "g ##õ",
      "h ##ành",
      "l ##í",
      "m ##h",
      "m ##j",
      "n ##ế",
      "s ##uốt",
      "v ##òng",
      "v ##ặt",
      "v ##ấn",
      "z ##oom",
      "ấ ##n_t",
      "##t ##ive",
      "##ấ ##u_h",
      "##s ##s",
      "##ẩ ##y",
      "##i_ ##c",
      "##iế ##p",
      "cá ##_nhân",
      "mượ ##n",
      "##_l ##ẽ",
      "##_d ##ưng",
      "ngày ##_càng",
      "##_đ ##ổi",
      "để ##_ý",
      "vậy ##_mà",
      "tự ##_dưng",
      "##_m ##ới",
      "##ac ##k",
      "kế ##t_",
      "phầ ##n_c",
      "phí ##a",
      "chí ##nh_s",
      "hệ ##_thống",
      "dữ ##_liệu",
      "rõ_r ##àng",
      "chương ##_trình",
      "ấn_t ##ượng",
      "phần_c ##ứng",
      "chính_s ##ách",
      "c ##l",
      "g ##am",
      "g ##ây",
      "h ##ọc",
      "l ##iền",
      "n ##ơi",
      "q ##á",
      "r ##ỗ",
      "t ##ô",
      "v ##ẻ",
      "đ ##ả",
      "đ ##ôi",
      "##ơ ##c",
      "##è ##o",
      "##ã ##n",
      "##k ##s",
      "##ẻ ##o",
      "##ọ ##t",
      "##ữ ##u",
      "ch ##âu",
      "nh ##ờ",
      "nh ##ật",
      "tr ##ò",
      "tr ##ướ",
      "tr ##ường",
      "ph ##ân_vân",
      "qu ##ét",
      "##i_ ##ng",
      "giá ##_thành",
      "cũ ##g",
      "##n_t ##oàn",
      "ra ##t",
      "la ##i",
      "cam ##ara",
      "##_ch ##ắc",
      "đáng ##_k",
      "cầm ##_chắc",
      "##uộ ##c",
      "thay ##_đổi",
      "##n_l ##ợi",
      "##ie ##w",
      "##_lu ##m",
      "cuố ##i",
      "tin_t ##ưởng",
      "phát_h ##iện",
      "đáng_k ##ể",
      "b ##h",
      "d ##ừng",
      "f ##f",
      "l ##ạ",
      "m ##e",
      "m ##ướt",
      "n ##è",
      "s ##t",
      "s ##ẵ",
      "t ##am",
      "t ##ồi",
      "v ##ượt",
      "x ##ác",
      "x ##ảy",
      "đ ##ông",
      "##i ##p",
      "##ủ ##a",
      "##b ##e",
      "th ##à",
      "th ##iết",
      "kh ##ô",
      "##n_ ##gi",
      "tr ##uy",
      "gi ##ữa",
      "##i_ ##nh",
      "##_l ##ời",
      "##_h ##ơi",
      "##_nh ##àng",
      "cấ ##p",
      "thiế ##t_b",
      "ho ##me",
      "trả ##_lời",
      "##_b ##ị",
      "nha ##h",
      "nhẹ ##_nhàng",
      "12 ##0",
      "chắc ##_tay",
      "##_ph ##ải",
      "thông ##_thường",
      "##n_n ##ào",
      "trang ##_bị",
      "kỹ ##_thuật",
      "tiệ ##n_lợi",
      "hi ##hi",
      "ac ##tive",
      "tùm ##_lum",
      "ul ##tra",
      "thiết_b ##ị",
      "2 ##7",
      "3 ##000",
      "7 ##6",
      "b ##ám",
      "c ##ong",
      "d ##anh",
      "d ##ấu_h",
      "e ##xy",
      "h ##a",
      "h ##ồ",
      "h ##ầ",
      "h ##ồng",
      "k ##ích",
      "k ##ịp",
      "l ##ịch",
      "m ##ục",
      "m ##ỏi",
      "n ##c",
      "p ##up",
      "s ##ở",
      "s ##ắp",
      "t ##ả",
      "t ##ài",
      "v ##ị",
      "v ##ẩn",
      "x ##s",
      "x ##ã",
      "##ớ ##p",
      "##ễ ##n",
      "##v ##a",
      "##ê ##t",
      "##ẩ ##u",
      "th ##ủ",
      "tr ##àn",
      "tr ##ãi",
      "ng ##ủ",
      "mà ##_lại",
      "ph ##ong",
      "ph ##òng",
      "ok ##i",
      "##m_ ##c",
      "##_th ##ích",
      "lúc ##_nào",
      "##_tr ##iển",
      "ké ##o",
      "vừa ##_mới",
      "liên_ ##quan",
      "tự ##a",
      "đồ ##ng_h",
      "##_n ##ay",
      "bỏ ##_túi",
      "chuy ##ên_",
      "##_tra ##ng",
      "##kk ##kk",
      "thực ##_tế",
      "cụ ##m",
      "phả ##i_ch",
      "pr ##ime",
      "đư ##ơc",
      "smart ##phone",
      "dấu_h ##iệu",
      "pup ##g",
      "đồng_h ##ồ",
      "1 ##7",
      "4 ##90",
      "b ##u",
      "b ##ề",
      "b ##ụi",
      "c ##ầ",
      "c ##ày",
      "c ##ứng",
      "c ##ộng",
      "c ##ổng",
      "d ##a",
      "d ##e",
      "d ##ạo",
      "g ##ấp",
      "h ##ổ",
      "h ##inh",
      "h ##i_v",
      "i ##u",
      "i ##m",
      "k ##im",
      "l ##ê",
      "l ##ang",
      "l ##iệu",
      "m ##ê",
      "m ##ắc",
      "m ##ái",
      "m ##ùa",
      "r ##ằng",
      "s ##p",
      "s ##ong",
      "s ##ạch",
      "t ##p",
      "t ##iê",
      "v ##ă",
      "v ##ợ",
      "v ##iết",
      "đ ##ung",
      "##_ ##ok",
      "##ộ ##c",
      "##é ##p",
      "##é ##m",
      "##p ##u",
      "##ó ##t",
      "##d ##e",
      "##ợ ##t_nh",
      "##v ##iew",
      "##ú ##a",
      "##3 ##0",
      "th ##ư",
      "ch ##ảnh",
      "nh ##iệm",
      "nh ##ợt_nh",
      "kh ##ong",
      "##n_ ##s",
      "tr ##ình",
      "ng ##ồi",
      "ph ##á",
      "ph ##one",
      "mới ##_đầu",
      "game ##s",
      "cá ##m_",
      "##m_ ##h",
      "##_th ##ức",
      "hay ##_là",
      "##_c ##ủa",
      "##nh_ ##x",
      "qua ##n_tâm",
      "wi ##f",
      "##_m ##ặt",
      "##_m ##inh",
      "##ngh ##iệp",
      "ngoài ##_trời",
      "re ##view",
      "đa ##u",
      "an ##t",
      "thông ##_tin",
      "##t_đ ##iểm",
      "làm_ ##ăn",
      "##uo ##t",
      "khuyế ##t_điểm",
      "66 ##0",
      "chân_th ##ành",
      "bl ##ut",
      "tà ##u",
      "tiề ##n_nào",
      "chuyên_ ##nghiệp",
      "hi_v ##ọng",
      "nhợt_nh ##ạt",
      "cám_ ##ơn",
      "tiền_nào ##_của",
      "2 ##2",
      "2 ##8",
      "2 ##3",
      "b ##á",
      "b ##ể",
      "b ##iế",
      "b ##iệt",
      "b ##an",
      "d ##iện",
      "d ##ut",
      "d ##ấu",
      "g ##g",
      "h ##ả",
      "h ##ên",
      "k ##ỳ",
      "l ##ừa",
      "l ##át",
      "l ##ắp",
      "v ##v",
      "y ##t",
      "đ ##iên",
      "đ ##ặc",
      "##n ##os",
      "##d ##ung",
      "##ự ##t",
      "##ặ ##n",
      "##k ##e",
      "##ạ ##p",
      "##ú ##n",
      "th ##ừa",
      "ch ##úc",
      "ch ##át",
      "nh ##ầm",
      "##n_ ##ng",
      "tr ##ống",
      "tr ##ái",
      "ng ##ã",
      "ng ##ại",
      "##_t ##ư",
      "##_t ##iến",
      "quá ##_trời",
      "cả ##nh",
      "tu ##ộc",
      "##_v ##ị",
      "##_th ##ị",
      "cấ ##n",
      "ma ##i",
      "vừa ##_ý",
      "tạm ##_thời",
      "##ut ##u",
      "##i_đ ##iểm",
      "thờ ##i_điểm",
      "##ắc_ ##m",
      "chu ##g",
      "gh ##ét",
      "##me ##ra",
      "nhận_d ##ạng",
      "ti ##k",
      "##_r ##ồi",
      "sinh ##_viên",
      "85 ##5",
      "##t_h ##àng",
      "trường ##_hợp",
      "exy ##nos",
      "kim ##_loại",
      "6 ##7",
      "a ##h",
      "b ##n",
      "b ##o",
      "c ##à",
      "g ##em",
      "g ##ắn",
      "h ##à",
      "k ##iếm",
      "l ##m",
      "m ##á",
      "m ##ỏ",
      "n ##ắp",
      "r ##ỏ",
      "t ##ung",
      "t ##inh",
      "x ##ung",
      "x ##ai",
      "đ ##ầm",
      "đ ##óng",
      "đ ##ồn",
      "##t ##a",
      "##o ##ài",
      "th ##ân",
      "th ##iệt",
      "th ##ang",
      "th ##áo",
      "th ##ắc_m",
      "nh ##u",
      "nh ##á",
      "nh ##ug",
      "##n_ ##kh",
      "tr ##o",
      "có ##_lẽ",
      "tố ##i_đ",
      "này ##_n",
      "##_d ##àng",
      "##_h ##ữu",
      "ngh ##ỉ",
      "##fi ##re",
      "tư ##ơi",
      "cam ##mera",
      "##qu ##ả",
      "no ##va",
      "một ##_tí",
      "đa ##g",
      "hoà ##n_toàn",
      "phát ##_triển",
      "cải ##_tiến",
      "xử ##_lí",
      "trở ##_lại",
      "tiệ ##m_c",
      "we ##p",
      "xe ##m_",
      "cuố ##i_c",
      "fl ##as",
      "sẵ ##n",
      "hầ ##u_như",
      "sở ##_hữu",
      "vị ##_trí",
      "ant ##utu",
      "dut ##y",
      "thắc_m ##ắc",
      "tối_đ ##a",
      "này_n ##ọ",
      "tiệm_c ##ận",
      "cuối_c ##ùng",
      "3 ##3",
      "6 ##5",
      "9 ##6",
      "b ##út",
      "b ##ớt",
      "d ##ã",
      "d ##i_ch",
      "d ##ậy",
      "g ##ốc",
      "h ##ụt",
      "h ##út",
      "h ##ối",
      "l ##am",
      "l ##ầm",
      "m ##b",
      "p ##k",
      "q ##t",
      "s ##s",
      "s ##âu",
      "s ##át",
      "s ##up",
      "t ##ượng",
      "t ##ội",
      "u ##ổng",
      "v ##an",
      "z ##ing",
      "đ ##à",
      "đ ##ỏ",
      "đ ##ành",
      "##c ##ro",
      "##t ##o",
      "##é ##o",
      "##d ##d",
      "##ồ ##n_b",
      "##o ##be",
      "##2 ##2",
      "ch ##ua",
      "ch ##ro",
      "nh ##an",
      "##n_ ##nh",
      "##n_ ##xuất",
      "tr ##ẻ",
      "tr ##ieu",
      "gi ##à",
      "gi ##an",
      "gi ##ựt",
      "ph ##an",
      "##i_ ##n",
      "nhanh ##_ch",
      "##_th ##ì",
      "##_th ##ật",
      "sả ##n_xuất",
      "để ##_ch",
      "##_c ##ập",
      "##uy ##ển",
      "la ##u",
      "đề ##_ngh",
      "ma ##cro",
      "to ##à",
      "ho ##k",
      "##pp ##pp",
      "##_m ##ờ",
      "##t_m ##ấy",
      "mờ ##_mờ",
      "phầ ##n_tr",
      "##i_l ##à",
      "thá ##g",
      "##n_ch ##ế",
      "bi ##t",
      "tiệ ##n_",
      "vi ##en",
      "vo ##i",
      "hạ ##n_chế",
      "##tttt ##tttt",
      "nguy ##ễ",
      "cm ##t",
      "phải_ch ##ăng",
      "sp ##en",
      "##m_h ##iểu",
      "biế ##t_mấy",
      "xem_ ##xét",
      "di_ch ##uyển",
      "sup ##er",
      "nhanh_ch ##óng",
      "để_ch ##ế",
      "đề_ngh ##ị",
      "phần_tr ##ăm",
      "2 ##6",
      "9 ##2",
      "b ##ạ",
      "b ##óc",
      "c ##ua",
      "c ##ận",
      "c ##ầu",
      "h ##ằng",
      "i ##d",
      "i ##tel",
      "l ##e",
      "l ##ẫn",
      "l ##ượt",
      "m ##ì",
      "m ##ềm",
      "m ##ún",
      "n ##iề",
      "n ##ằm",
      "r ##ât",
      "s ##ọc",
      "t ##e",
      "v ##ứt",
      "x ##u",
      "ă ##n_đ",
      "đ ##ại",
      "đ ##áo",
      "đ ##ạt",
      "##c ##e",
      "##c ##re",
      "##_ ##p",
      "##o ##m",
      "##ứ ##a",
      "##ễ ##u",
      "##ả ##m",
      "##ế ##n",
      "th ##ò",
      "th ##ụt",
      "ch ##at",
      "nh ##e",
      "nh ##áy",
      "máy ##_s",
      "tr ##ai",
      "mà ##y",
      "gi ##ọt",
      "##iế ##u",
      "cá ##p",
      "tu ##ổi",
      "##_l ##ệ",
      "##_h ##ội",
      "##_đ ##ây",
      "##n_th ##ân",
      "bả ##n_thân",
      "to ##i",
      "vừa ##_phải",
      "sóng ##_sánh",
      "##_ch ##ơi",
      "##_s ##ự",
      "##_n ##ấy",
      "yout ##obe",
      "dễ ##_dàng",
      "siêu ##_thị",
      "tho ##i",
      "tho ##ảng",
      "thông ##_minh",
      "hai ##zz",
      "##_ho ##à",
      "##_ng ##ày",
      "yê ##u_cầu",
      "tì ##m_hiểu",
      "họ ##c_s",
      "ro ##i",
      "66 ##5",
      "tổng ##_thể",
      "đe ##p",
      "nổ ##i_b",
      "than ##ks",
      "lí ##_do",
      "nế ##u_như",
      "truy ##_cập",
      "bu ##ồn_b",
      "cầ ##n_th",
      "tiền_nào_của ##_nấy",
      "tiện_ ##ích",
      "ăn_đ ##ứt",
      "học_s ##inh",
      "nổi_b ##ật",
      "buồn_b ##uồn",
      "4 ##3",
      "6 ##1",
      "6 ##90",
      "9 ##7",
      "b ##ức",
      "c ##ột",
      "c ##ăng",
      "c ##ai",
      "c ##ug",
      "d ##ể",
      "d ##ần",
      "f ##p",
      "g ##ương",
      "h ##t",
      "j ##i",
      "l ##ẽ",
      "l ##ong",
      "l ##inh",
      "l ##õi",
      "l ##òi",
      "m ##ậ",
      "m ##ệt",
      "n ##i",
      "n ##et",
      "n ##ứt",
      "q ##úa",
      "s ##u",
      "s ##ơn",
      "u ##y",
      "u ##s",
      "v ##ay",
      "v ##án",
      "x ##ì",
      "y ##_như",
      "á ##nh",
      "đ ##ất",
      "đ ##ụng",
      "đ ##ỗi",
      "##u ##c",
      "##a ##d",
      "##p ##lay",
      "##o ##c",
      "##f ##t",
      "##8 ##0",
      "##ĩ ##nh",
      "th ##am",
      "ch ##a",
      "ch ##ậ",
      "ch ##ân_",
      "ch ##ết",
      "ch ##i_nh",
      "tr ##a",
      "tr ##ễ",
      "tr ##ông",
      "tr ##ực",
      "ng ##ta",
      "##_t ##ự",
      "##_t ##ượng",
      "ph ##ú",
      "ph ##óng",
      "qu ##ài",
      "cá ##o",
      "khá ##c_biệt",
      "##_d ##õi",
      "##n_t ##uổi",
      "##_th ##ủ",
      "chỉ ##nh_s",
      "hình ##_thức",
      "##_c ##ứ",
      "##ang ##_m",
      "qua ##n",
      "##_tr ##ữ",
      "ho ##ang_m",
      "##_m ##ẹ",
      "##_b ##ạ",
      "mi ##ễn",
      "lớ ##n_tuổi",
      "theo ##_dõi",
      "thậ ##m_ch",
      "chuy ##ện",
      "##n_b ##è",
      "đặ ##t_hàng",
      "fi ##le",
      "công ##_nhận",
      "cuộ ##c",
      "##_ho ##ạt",
      "bất ##_ng",
      "ti ##n_d",
      "tậ ##u",
      "thân_th ##iết",
      "bộ_nhớ ##_trong",
      "tương_đ ##ương",
      "duy ##ệt",
      "dự ##t",
      "đối ##_thủ",
      "lưu ##_trữ",
      "vi ##et",
      "##hi ##p",
      "vo ##te",
      "##c_s ##au",
      "nhi ##ễu",
      "thị_tr ##ường",
      "thị_tr ##ấn",
      "mj ##h",
      "kết_ ##quả",
      "cl ##ip",
      "trướ ##c_sau",
      "lịch ##_sự",
      "vă ##n_ph",
      "##nh_x ##ác",
      "mỏ ##i_m",
      "tro ##g",
      "flas ##h",
      "chro ##me",
      "bạ ##n_bè",
      "##cre ##en",
      "cần_th ##iết",
      "chi_nh ##ánh",
      "trực ##_t",
      "chỉnh_s ##ửa",
      "hoang_m ##ang",
      "thậm_ch ##í",
      "bất_ng ##ờ",
      "tin_d ##ùng",
      "2 ##00",
      "6 ##3",
      "7 ##90",
      "a ##p",
      "a ##s",
      "a ##i_ng",
      "b ##ò",
      "b ##ạc",
      "b ##ít",
      "c ##a",
      "c ##ô",
      "c ##ận_",
      "c ##pu",
      "d ##el",
      "g ##ỡ",
      "g ##ởi",
      "h ##ông",
      "h ##et",
      "k ##kk",
      "l ##á",
      "l ##ã",
      "l ##ướ",
      "p ##o",
      "r ##ực_",
      "s ##ơ",
      "s ##ắt",
      "t ##y",
      "t ##ua",
      "t ##iên",
      "t ##ục",
      "v ##l",
      "v ##ẽ",
      "v ##õ",
      "đ ##ẳng",
      "ư ##u",
      "ư ##a",
      "ẩ ##n",
      "##c ##ảnh",
      "##i ##s",
      "##n ##n",
      "##r ##ỡ",
      "##l ##ượng",
      "##e ##y",
      "##s ##mart",
      "##ố ##n",
      "##ỉ ##u",
      "th ##ưa",
      "ch ##play",
      "kh ##e",
      "##n_ ##x",
      "máy ##_b",
      "tr ##ọng",
      "tr ##ăm",
      "tr ##ạng",
      "ng ##ược",
      "##_t ##ệ",
      "là ##_hơi",
      "qu ##ên",
      "##iê ##m",
      "##_c ##ách",
      "##uố ##i",
      "cấ ##m",
      "##_ch ##ữa",
      "##en ##t",
      "##ut ##o",
      "##i_đ ##áp",
      "chi ##a",
      "độ ##t_",
      "bao ##_lâu",
      "dù ##g",
      "điều ##_kiện",
      "mi ##h",
      "thời_ ##lượng",
      "##mar ##t_",
      "nặng ##_tay",
      "chí ##nh_xác",
      "mo ##d",
      "thi ##k",
      "##i_m ##ới",
      "bất ##_cứ",
      "ti ##eng",
      "li ##en",
      "tối_ ##qua",
      "##_ng ##oài",
      "201 ##7",
      "bi ##k",
      "sửa ##_chữa",
      "thời ##_trang",
      "##_qua ##n",
      "thành ##_công",
      "tin_t ##ức",
      "of ##f",
      "đổ ##i_mới",
      "tô ##t",
      "st ##ar",
      "danh ##_bạ",
      "bề ##_ngoài",
      "phá ##t_s",
      "qt ##v",
      "máy_s ##ài",
      "fp ##t",
      "us ##b",
      "chân_ ##dung",
      "văn_ph ##òng",
      "mỏi_m ##ắt",
      "ai_ng ##ờ",
      "cận_ ##cảnh",
      "rực_ ##rỡ",
      "máy_b ##ay",
      "2 ##9",
      "3 ##6",
      "5 ##5",
      "7 ##30",
      "a ##uto",
      "b ##j",
      "b ##ong",
      "b ##ệt",
      "c ##s",
      "d ##ân",
      "d ##ạng",
      "f ##in",
      "g ##ọ",
      "g ##ạch",
      "h ##êt",
      "k ##ê",
      "k ##eo",
      "l ##ệ",
      "l ##ô",
      "l ##ương",
      "m ##ơi",
      "m ##ây",
      "m ##ền",
      "m ##uot",
      "n ##x",
      "n ##ắng",
      "n ##ãn",
      "q ##a",
      "r ##u",
      "r ##ác",
      "s ##on",
      "t ##ập",
      "t ##iêu",
      "t ##ime",
      "v ##c",
      "v ##í",
      "v ##ượng",
      "x ##ét",
      "á ##p",
      "ầ ##m_",
      "ọ ##p_",
      "ổ ##n_",
      "##h ##u",
      "##h ##ẩu",
      "##a ##x",
      "##t ##ok",
      "##r ##u",
      "##ộ ##p",
      "##g ##d",
      "##m ##ent",
      "##ẹ ##n",
      "##ô ##n",
      "##â ##p",
      "##o ##r",
      "##b ##ảo",
      "##x ##el",
      "##v ##v",
      "##3 ##3",
      "th ##iện",
      "ch ##á",
      "ch ##ổ",
      "ch ##ay",
      "ch ##ặn",
      "kh ##a",
      "tr ##ụ",
      "ph ##ầm",
      "ph ##ết",
      "ph ##ai",
      "##i_ ##s",
      "ok ##ie",
      "##_l ##o",
      "##_d ##ương",
      "cho ##_dù",
      "##u_ ##ch",
      "##_đ ##ình",
      "##_đ ##ẹp",
      "tay ##_trong",
      "ra ##n",
      "##n_th ##ui",
      "##_tr ##ung",
      "##_tr ##ội",
      "10 ##80",
      "đơ ##n_gi",
      "##oo ##c",
      "đế ##n_n",
      "##t_k ##hẩu",
      "##te ##r",
      "##_ch ##ỉnh",
      "##_s ##ơ",
      "khó ##_kh",
      "##es ##t",
      "điều ##_chỉnh",
      "mặc ##_định",
      "50 ##20",
      "khở ##i",
      "ba ##n_ng",
      "thi ##ch",
      "hd ##r",
      "tương ##_tự",
      "bất ##_thường",
      "bất ##_k",
      "thu ##ong",
      "định ##_vị",
      "201 ##8",
      "71 ##0",
      "quy ##ết",
      "vin ##smart",
      "in ##ch",
      "##as ##t",
      "##_qua ##nh",
      "quả ##_thật",
      "ac ##e",
      "đe ##n_thui",
      "sinh ##_nhật",
      "35 ##00",
      "##_tí ##n",
      "com ##ment",
      "hế ##t_m",
      "trò ##_chơi",
      "khô ##g",
      "kích ##_hoạt",
      "blut ##ooth",
      "yt ##b",
      "##n_kh ##o",
      "##_p ##ubg",
      "mậ ##t_khẩu",
      "uy ##_tín",
      "del ##ay",
      "đẳng ##_cấp",
      "son ##y",
      "ầm_ ##ầm",
      "ọp_ ##ẹp",
      "ổn_ ##áp",
      "đơn_gi ##ản",
      "đến_n ##ỗi",
      "khó_kh ##ăn",
      "ban_ng ##ày",
      "9 ##5",
      "a ##_",
      "a ##n_tâm",
      "b ##ung",
      "b ##át",
      "b ##ốc",
      "b ##ee",
      "b ##ởi",
      "c ##ử",
      "c ##ã",
      "c ##k",
      "c ##an",
      "d ##ò",
      "d ##è",
      "d ##ạ",
      "d ##uoc",
      "f ##im",
      "h ##e",
      "h ##ận",
      "h ##ảo",
      "h ##ỉu",
      "i ##c",
      "k ##ệ",
      "l ##ộ",
      "l ##iệt",
      "m ##u",
      "m ##ư",
      "m ##ùng",
      "m ##ưa",
      "m ##iết",
      "n ##ua",
      "n ##ỗi",
      "n ##ội",
      "r ##át",
      "r ##ùa",
      "s ##x",
      "s ##ữ",
      "s ##ánh",
      "t ##v",
      "t ##ú",
      "t ##ỉ",
      "t ##q",
      "t ##ầ",
      "t ##ản",
      "t ##ỉnh",
      "t ##ft",
      "u ##i",
      "v ##ơi",
      "v ##ết",
      "v ##ây",
      "v ##ội",
      "v ##ăn",
      "w ##á",
      "x ##ưa",
      "x ##aomi",
      "x ##ót",
      "z ##in",
      "ô ##n",
      "ô ##m",
      "đ ##ục",
      "đ ##ằng",
      "đ ##uoc",
      "ủ ##ng",
      "##h ##d",
      "##u ##ch",
      "##i ##o",
      "##g ##o",
      "##p ##e",
      "##ơ ##n_tr",
      "##s ##hip",
      "##ụ ##p",
      "##o ##te",
      "##b ##ội",
      "##ã ##y",
      "##ậ ##u",
      "th ##ù",
      "th ##ằng",
      "th ##ánh",
      "th ##uộc",
      "ch ##uyên",
      "ch ##ốt",
      "ch ##ớp",
      "nh ##iệ",
      "nh ##iên",
      "kh ##uôn",
      "kh ##ui",
      "kh ##ớp",
      "##n_ ##v",
      "tr ##í",
      "tr ##óc",
      "tr ##ơn_tr",
      "##in ##a",
      "ng ##ắn",
      "##_t ##o",
      "##_t ##ừ",
      "##_t ##inh",
      "ph ##ế",
      "ph ##iền",
      "qu ##ất",
      "##n_t ##ử",
      "##m_ ##bảo",
      "ngày ##_nay",
      "##_th ##ân",
      "##_th ##ực",
      "##_th ##eo",
      "##u_ ##ho",
      "##_h ##uy",
      "lỗi ##_thời",
      "##_đ ##ịch",
      "##iê ##t",
      "hình ##_sắc",
      "để ##u",
      "lo ##á",
      "điệ ##n_tử",
      "##c_ ##m",
      "##uy ##ệt",
      "ngư ##ờ",
      "ma ##k",
      "vừa ##_lòng",
      "##ai ##l",
      "##n_đ ##o",
      "trước ##_đây",
      "##t_v ##ài",
      "mở ##_m",
      "##_m ##uốn",
      "##_b ##ai",
      "chê ##_bai",
      "##_ch ##ỉ",
      "hiệ ##n_n",
      "##en ##d",
      "thế ##_là",
      "mong ##_muốn",
      "##_cả ##m",
      "giả ##i_đáp",
      "dù ##m",
      "co ##d",
      "vô ##_địch",
      "tác ##_dụng",
      "vs ##mart_",
      "##_kh ##o",
      "##_x ##ã",
      "##_x ##ước",
      "##_x ##íu",
      "mộ ##t_vài",
      "li ##ke",
      "##_ng ##ửa",
      "càng ##_ngày",
      "ngang ##_ngửa",
      "giải ##_thích",
      "lỗ ##i_lầm",
      "bực_ ##bội",
      "tối_ư ##u_ho",
      "trầy ##_xước",
      "kĩ ##_thuật",
      "lu ##c",
      "rõ_r ##ệt",
      "lý ##_do",
      "##ag ##ship",
      "fl ##agship",
      "tg ##gd",
      "hu ##hu",
      "se ##al",
      "com ##b",
      "hế ##t_s",
      "chúng ##_t",
      "đả ##m_bảo",
      "me ##d",
      "thà ##nh_",
      "xã ##_hội",
      "tik ##tok",
      "xung ##_quanh",
      "niề ##m",
      "linh ##_tinh",
      "as ##us",
      "ty ##pe",
      "phát_s ##inh",
      "trơn_tr ##u",
      "mở_m ##àn",
      "hiện_n ##ay",
      "càng_ngày ##_càng",
      "tối_ưu_ho ##á",
      "0 ##4",
      "3 ##00",
      "4 ##1",
      "4 ##990",
      "7 ##5",
      "8 ##6",
      "a ##r",
      "b ##ự",
      "b ##ế",
      "b ##ận",
      "b ##est",
      "c ##t",
      "c ##ắt",
      "c ##ạch",
      "d ##u",
      "d ##ì",
      "d ##ô",
      "d ##ỡ",
      "d ##th",
      "d ##ag",
      "f ##ai",
      "g ##a",
      "g ##r",
      "g ##à",
      "g ##ạo",
      "h ##s",
      "h ##ong",
      "h ##on",
      "h ##ời",
      "h ##uyện",
      "k ##m",
      "k ##b",
      "k ##em",
      "l ##ă",
      "l ##n",
      "l ##ễ",
      "l ##ên_",
      "m ##ơ",
      "m ##ồ",
      "m ##ặ",
      "m ##ỹ",
      "m ##ng",
      "m ##ôi",
      "n ##ố",
      "n ##ối",
      "r ##ổ",
      "r ##ẽ",
      "r ##ước",
      "r ##oom",
      "s ##ò",
      "s ##ứ",
      "t ##ào",
      "t ##ây",
      "u ##ng",
      "v ##d",
      "v ##e",
      "v ##ật",
      "v ##ooc",
      "x ##ò",
      "x ##ui",
      "y ##ế",
      "é ##p",
      "đ ##ắ",
      "đ ##ậm",
      "ư ##ớt",
      "ỗ ##n",
      "##c ##m",
      "##_ ##em",
      "##_ ##fire",
      "##t ##i",
      "##i ##c",
      "##đ ##ẹp",
      "##ơ ##t",
      "##l ##ine",
      "##ớ ##c",
      "##ớ ##n",
      "##x ##uống",
      "##ạ ##n_x",
      "##1 ##1",
      "##ắ ##t_",
      "##ẩ ##m_",
      "##ẫ ##m",
      "th ##a",
      "ch ##ói",
      "ch ##ina",
      "nh ##ac",
      "kh ##áng",
      "##n_ ##g",
      "tr ##ơn",
      "tr ##ượt",
      "tr ##ưng",
      "ph ##in",
      "ph ##ut",
      "ph ##ân_giải",
      "qu ##ận",
      "qu ##ạt",
      "##i_ ##d",
      "##i_ ##ph",
      "##iế ##c",
      "ok ##ey",
      "chơi ##_pubg",
      "##t_ ##ra",
      "giá ##_tr",
      "cá ##m",
      "##_l ##ao",
      "##_l ##ai",
      "##_d ##ụ",
      "##_d ##uyệt",
      "##_v ##ệ",
      "##_v ##ực",
      "##_v ##ương",
      "##n_t ##ập",
      "##n_t ##ăn",
      "##_th ##ước",
      "##_th ##ượng",
      "##_h ##ôi",
      "##_h ##ộp",
      "hình ##_dáng",
      "ngh ##ệ",
      "ngh ##iêm",
      "lo ##go",
      "lo ##ạn_x",
      "##oo ##l",
      "từ ##_từ",
      "ma ##n",
      "vừa ##_rồi",
      "ho ##àn",
      "đi ##nh",
      "##_m ##an",
      "bảo ##_vệ",
      "##i_đ ##ầu",
      "##_s ##ách",
      "tí ##m",
      "cầm ##_hơi",
      "##_n ##ên",
      "mức ##_độ",
      "khoảng ##_cách",
      "tho ##ai",
      "##lu ##ận",
      "rẻ ##_tiền",
      "hiệu_ ##ứng",
      "vô ##_tư",
      "##_ph ##ần",
      "##_ph ##ép",
      "##re ##d",
      "gh ##é",
      "##t_đ ##ộ",
      "ba ##t",
      "ba ##ss",
      "xo ##g",
      "##_kh ##ông",
      "##_kh ##ảo",
      "fu ##n",
      "làm_ ##đẹp",
      "bà ##n_c",
      "tiếp ##_theo",
      "kinh_ ##nghiệm",
      "##_r ##ớt",
      "phụ ##_huy",
      "phản_ ##ánh",
      "free ##fire",
      "thời ##_thượng",
      "dài ##_dài",
      "hi ##c",
      "##u_m ##à",
      "mic ##ro",
      "rơi ##_rớt",
      "đập ##_hộp",
      "gia ##_công",
      "vui ##_tính",
      "chân_th ##ật",
      "chân_th ##ực",
      "khu ##ân",
      "tà ##m",
      "góp ##_ý",
      "nế ##u_mà",
      "kết_ ##luận",
      "me ##g",
      "vượt ##_trội",
      "xác ##_định",
      "hồ ##_sơ",
      "kích ##_thước",
      "trình ##_duyệt",
      "wif ##fi",
      "dã ##_man",
      "mì ##h",
      "gương ##_mặt",
      "tham ##_khảo",
      "viet ##tel",
      "trực_t ##iếp",
      "63 ##2",
      "tua ##n",
      "fin ##d",
      "lệ ##ch",
      "cử ##_chỉ",
      "tú ##m",
      "tầ ##n_s",
      "nhiệ ##t_độ",
      "comb ##at",
      "med ##ia",
      "lă ##n_tăn",
      "lên_ ##xuống",
      "mồ ##_hôi",
      "tào ##_lao",
      "đắ ##n_đo",
      "giá_tr ##ị",
      "loạn_x ##ạ",
      "bàn_c ##ãi",
      "phụ_huy ##nh",
      "0 ##2",
      "0 ##3",
      "3 ##4",
      "4 ##4",
      "4 ##00",
      "b ##ă",
      "b ##e",
      "b ##b",
      "b ##ay",
      "b ##ước",
      "b ##iểu",
      "b ##ubg",
      "b ##óp",
      "b ##uộc",
      "c ##u",
      "c ##g",
      "c ##ư",
      "c ##ổ",
      "c ##ù",
      "c ##v",
      "c ##ẩ",
      "c ##anh",
      "c ##âm",
      "c ##au",
      "d ##ụ",
      "d ##ay",
      "d ##ật",
      "d ##ẫn",
      "d ##em",
      "f ##a",
      "f ##m",
      "g ##ò",
      "g ##ps",
      "g ##ói",
      "g ##pu",
      "h ##ì",
      "h ##j",
      "h ##uy",
      "h ##ấp",
      "h ##át",
      "h ##ạng",
      "h ##ạt",
      "h ##iếm",
      "i ##ph",
      "j ##ack",
      "k ##iến",
      "l ##ẻ",
      "l ##ao",
      "l ##ận",
      "l ##en",
      "l ##ăm",
      "l ##ấm",
      "l ##ợi",
      "l ##uot",
      "m ##ược",
      "m ##anh",
      "n ##ọ",
      "n ##ong",
      "n ##ịnh",
      "n ##inh",
      "n ##uốt",
      "n ##ém",
      "o ##r",
      "p ##m",
      "p ##ing",
      "r ##ật",
      "r ##ôi",
      "r ##ít",
      "s ##m",
      "s ##ờ",
      "s ##v",
      "s ##ức",
      "t ##n",
      "t ##ắc",
      "t ##ích",
      "t ##ái",
      "t ##ạo",
      "t ##at",
      "v ##m",
      "v ##k",
      "v ##ê",
      "v ##ọ",
      "v ##ao",
      "v ##èo",
      "w ##j",
      "x ##ách",
      "y ##ên",
      "z ##l",
      "á ##o",
      "ô ##i",
      "ă ##n_th",
      "đ ##u",
      "đ ##út",
      "đ ##ống",
      "đ ##ứt",
      "đ ##uối",
      "ấ ##p",
      "ồ ##n",
      "##h ##ệ",
      "##h ##e",
      "##c ##o",
      "##_ ##w",
      "##r ##y",
      "##r ##b",
      "##r ##us",
      "##g ##g",
      "##é ##n",
      "##p ##o",
      "##p ##in",
      "##m ##i_n",
      "##d ##t",
      "##ấ ##c",
      "##ồ ##m",
      "##ổ ##n",
      "##e ##c",
      "##s ##creen",
      "##x ##x",
      "##v ##i",
      "##v ##e",
      "##ú ##_vị",
      "##ậ ##t_v",
      "##ị ##t",
      "##ẩ ##n_b",
      "##ng ##ột",
      "th ##ơ",
      "th ##ô",
      "th ##ả",
      "th ##ây",
      "th ##ẩm_",
      "th ##ú_vị",
      "ch ##iêu",
      "ch ##ât",
      "nh ##ấp",
      "nh ##ỉnh",
      "nh ##ám",
      "nh ##ịp",
      "kh ##ối",
      "##n_ ##ho",
      "tr ##u",
      "tr ##ục",
      "tr ##ánh",
      "tr ##uyện",
      "ng ##u",
      "ng ##ờ",
      "ng ##uo",
      "ng ##ốn",
      "##_t ##ả",
      "##_t ##âm",
      "##_t ##ốc",
      "##_t ##iếng",
      "ph ##ổ",
      "ph ##ương",
      "ph ##iếu",
      "ph ##ẫm",
      "qu ##ốc",
      "##t_ ##ru",
      "##_d ##ùng",
      "##_d ##ành",
      "##m_ ##r",
      "##_th ##úc",
      "cho ##_rồi",
      "##u_ ##ý",
      "##_h ##d",
      "##_h ##ại",
      "##_đ ##ề",
      "##_đ ##ài",
      "##_đ ##ắn",
      "tay ##_phải",
      "ngh ##i",
      "ngh ##iêng",
      "để ##_dành",
      "##_nh ##áy",
      "thứ ##c",
      "qua ##ng_h",
      "người ##_thân",
      "tệ ##_hại",
      "##_tr ##ường",
      "##_tr ##ặc",
      "bả ##ng",
      "##oo ##d",
      "ma ##g",
      "ma ##i_m",
      "ma ##de",
      "to ##t",
      "to ##k",
      "to ##uch",
      "thất ##_b",
      "ho ##a",
      "ho ##á",
      "thôi ##_thì",
      "nhất ##_định",
      "đi ##en",
      "liên_ ##hệ",
      "##_b ##ộ",
      "mất ##_m",
      "##_ch ##i_là",
      "##_s ##ơn",
      "##_gi ##a",
      "##kh ##ó",
      "##_n ##ói",
      "nhỏ ##_xíu",
      "lư ##u_ý",
      "trung ##_thành",
      "xi ##ao",
      "đúng ##_đắn",
      "thậ ##t_ra",
      "chu ##ẩn_b",
      "đa ##_số",
      "chiế ##m",
      "mo ##bi",
      "##_x ##ưa",
      "tương ##_lai",
      "full ##_hd",
      "##_tra ##i",
      "thu ##ần",
      "tậ ##n_tâm",
      "##n_tr ##âu",
      "on ##e",
      "on ##screen",
      "mess ##ag",
      "dự ##_định",
      "bi ##et",
      "free ##_fire",
      "ta ##b",
      "48 ##0",
      "vin ##a",
      "sống ##_động",
      "##zz ##z",
      "kết ##_thúc",
      "thực ##_hiện",
      "gia ##_đình",
      "di ##en",
      "bố ##_mẹ",
      "tổng ##_quan",
      "tổng ##_đài",
      "cụ ##_thể",
      "##ii ##ii",
      "khu ##ông",
      "khu ##_vực",
      "phả ##m",
      "hu ##m",
      "than ##k",
      "go ##p",
      "chú ##t_",
      "tt ##dd",
      "tồi ##_tệ",
      "tài ##_kho",
      "tiê ##u_ch",
      "kỳ ##_vọng",
      "67 ##5",
      "##to ##re",
      "##22 ##22",
      "toà ##n_tập",
      "##tttttttt ##tttttttt",
      "lã ##i_s",
      "lướ ##t_",
      "po ##p",
      "đột_ ##ngột",
      "mod ##em",
      "off ##line",
      "ví ##_dụ",
      "ic ##on",
      "hết_s ##ức",
      "chúng_t ##a",
      "biểu ##_tượng",
      "hấp ##_dẫn",
      "iph ##on",
      "ăn_th ##ua",
      "##mi_n ##ote",
      "trục ##_trặc",
      "nguo ##i",
      "quang_h ##ọc",
      "mai_m ##ốt",
      "thất_b ##ại",
      "chuẩn_b ##ị",
      "tài_kho ##ản",
      "lãi_s ##uất",
      "0 ##1",
      "0 ##8",
      "0 ##7",
      "1 ##000",
      "3 ##7",
      "4 ##7",
      "5 ##9",
      "6 ##00",
      "7 ##9",
      "7 ##00",
      "8 ##00",
      "a ##n_toàn",
      "b ##ằ",
      "b ##inh",
      "c ##ú",
      "c ##ẩm",
      "c ##ọc",
      "c ##úp",
      "c ##ưng",
      "c ##âp",
      "c ##ắt_",
      "d ##s",
      "d ##ẹp",
      "d ##ao",
      "d ##ịp",
      "g ##ra",
      "h ##ữ",
      "h ##qua",
      "h ##au",
      "h ##ẹn",
      "i ##ps",
      "k ##í",
      "k ##ẻ",
      "k ##ẻo",
      "l ##c",
      "l ##uô",
      "l ##ực",
      "l ##ấp",
      "l ##ỏng",
      "l ##eno",
      "l ##ạnh",
      "m ##ô",
      "m ##ự",
      "m ##ò",
      "m ##ụ",
      "m ##x",
      "m ##en",
      "m ##ầu",
      "m ##ui",
      "m ##ịn",
      "n ##u",
      "n ##é",
      "n ##ch",
      "n ##ao",
      "n ##ai",
      "n ##en"
    ]
  }
}